{"vocab": {"<pad>": 0, "<bos>": 1, "<eos>": 2, "<unk>": 3, "<tools>": 4, "</tools>": 5, "<query>": 6, "</query>": 7, "<call>": 8, "</call>": 9, "0": 10, "1": 11, "2": 12, "3": 13, "4": 14, "5": 15, "6": 16, "7": 17, "8": 18, "9": 19, "a": 20, "b": 21, "c": 22, "d": 23, "e": 24, "f": 25, "g": 26, "h": 27, "i": 28, "j": 29, "k": 30, "l": 31, "m": 32, "n": 33, "o": 34, "p": 35, "q": 36, "r": 37, "s": 38, "t": 39, "u": 40, "v": 41, "w": 42, "x": 43, "y": 44, "z": 45, "A": 46, "B": 47, "C": 48, "D": 49, "E": 50, "F": 51, "G": 52, "H": 53, "I": 54, "J": 55, "K": 56, "L": 57, "M": 58, "N": 59, "O": 60, "P": 61, "Q": 62, "R": 63, "S": 64, "T": 65, "U": 66, "V": 67, "W": 68, "X": 69, "Y": 70, "Z": 71, "!": 72, "\"": 73, "#": 74, "$": 75, "%": 76, "&": 77, "'": 78, "(": 79, ")": 80, "*": 81, "+": 82, ",": 83, "-": 84, ".": 85, "/": 86, ":": 87, ";": 88, "<": 89, "=": 90, ">": 91, "?": 92, "@": 93, "[": 94, "\\": 95, "]": 96, "^": 97, "_": 98, "`": 99, "{": 100, "|": 101, "}": 102, "~": 103, " ": 104, "\t": 105, "\n": 106, "\r": 107, "\u000b": 108, "\f": 109, "’": 110, "–": 111, "こ": 112, "ん": 113, "に": 114, "ち": 115, "は": 116, "⌊": 117, "⌋": 118, "²": 119, "í": 120, "°": 121, "—": 122, "é": 123, "ó": 124, "≥": 125, "“": 126, "”": 127, "计": 128, "算": 129, "数": 130, "学": 131, "表": 132, "达": 133, "式": 134, "参": 135, "要": 136, "的": 137, "字": 138, "符": 139, "串": 140, "返": 141, "回": 142, "结": 143, "果": 144, "抛": 145, "出": 146, "当": 147, "无": 148, "效": 149, "或": 150, "包": 151, "含": 152, "不": 153, "安": 154, "全": 155, "代": 156, "码": 157, "时": 158, "±": 159, "ô": 160, "\u0019": 161, "≤": 162, "б": 163, "ы": 164, "т": 165, "ь": 166, "я": 167, "о": 168, "н": 169, "д": 170, "е": 171, "л": 172, "а": 173, "ã": 174, "ç": 175, "ú": 176, "ε": 177, "₀": 178, "×": 179, "⁻": 180, "¹": 181, "→": 182, "↔": 183, "³": 184, "−": 185, "μ": 186, "≈": 187, "•": 188, "ö": 189, "\u0000": 190, "α": 191, "·": 192, "获": 193, "取": 194, "哔": 195, "哩": 196, "视": 197, "频": 198, "排": 199, "行": 200, "榜": 201, "，": 202, "站": 203, "、": 204, "动": 205, "画": 206, "音": 207, "乐": 208, "游": 209, "戏": 210, "等": 211, "多": 212, "个": 213, "分": 214, "区": 215, "热": 216, "门": 217, "反": 218, "映": 219, "下": 220, "年": 221, "轻": 222, "人": 223, "内": 224, "容": 225, "消": 226, "费": 227, "趋": 228, "势": 229, "‑": 230, "‘": 231, "특": 232, "정": 233, "관": 234, "광": 235, "지": 236, "축": 237, "제": 238, "숙": 239, "박": 240, "등": 241, "의": 242, "상": 243, "세": 244, "보": 245, "를": 246, "조": 247, "회": 248, "합": 249, "니": 250, "다": 251, "기": 252, "반": 253, "으": 254, "로": 255, "해": 256, "당": 257, "콘": 258, "텐": 259, "츠": 260, "공": 261, "통": 262, "목": 263, "주": 264, "소": 265, "개": 266, "요": 267, "😊": 268, "잘": 269, "자": 270, "편": 271, "안": 272, "한": 273, "밤": 274, "되": 275, "将": 276, "两": 277, "相": 278, "加": 279, "第": 280, "一": 281, "二": 282, "和": 283, "从": 284, "中": 285, "减": 286, "去": 287, "差": 288, "乘": 289, "积": 290, "除": 291, "以": 292, "被": 293, "商": 294, "为": 295, "幂": 296, "底": 297, "指": 298, "次": 299, "平": 300, "方": 301, "根": 302, "输": 303, "入": 304, "值": 305, "负": 306, "â": 307, "á": 308, "õ": 309, "你": 310, "好": 311, "世": 312, "界": 313, "¿": 314, "ñ": 315, "ş": 316, "В": 317, "З": 318, "і": 319, "ч": 320, "к": 321, "Μ": 322, "ο": 323, "υ": 324, "ρ": 325, "έ": 326, "σ": 327, "ι": 328, "π": 329, "λ": 330, "ύ": 331, "η": 332, "θ": 333, "ά": 334, "…": 335, "₂": 336, "녕": 337, "하": 338, "ï": 339, "处": 340, "置": 341, "总": 342, "体": 343, "情": 344, "况": 345, "：": 346, "统": 347, "常": 348, "规": 349, "（": 350, "自": 351, "主": 352, "清": 353, "收": 354, "）": 355, "占": 356, "比": 357, "现": 358, "金": 359, "。": 360, "涉": 361, "及": 362, "标": 363, "括": 364, "各": 365, "项": 366, "贷": 367, "款": 368, "同": 369, "业": 370, "对": 371, "历": 372, "史": 373, "据": 374, "展": 375, "示": 376, "四": 377, "余": 378, "额": 379, "增": 380, "量": 381, "工": 382, "建": 383, "农": 384, "境": 385, "净": 386, "利": 387, "润": 388, "并": 389, "名": 390, "长": 391, "买": 392, "售": 393, "按": 394, "月": 395, "外": 396, "机": 397, "构": 398, "重": 399, "点": 400, "布": 401, "请": 402, "查": 403, "询": 404, "今": 405, "季": 406, "度": 407, "✨": 408, "🚀": 409, "\u0017": 410, "\u001c": 411, "\u001d": 412, "£": 413, " ": 414, "ä": 415, "ü": 416, "馈": 417, "集": 418, "具": 419, "「": 420, "ろ": 421, "」": 422, "⇒": 423, "è": 424, "ù": 425, "\u0004": 426, "氪": 427, "提": 428, "供": 429, "创": 430, "科": 431, "技": 432, "领": 433, "域": 434, "资": 435, "讯": 436, "投": 437, "融": 438, "态": 439, "新": 440, "兴": 441, "产": 442, "析": 443, "模": 444, "信": 445, "息": 446, "早": 447, "い": 448, "ō": 449, "家": 450, "价": 451, "格": 452, "ê": 453, "城": 454, "市": 455, "天": 456, "气": 457, "称": 458, "需": 459, "试": 460, "用": 461, "英": 462, "文": 463, "如": 464, "典": 465, "；": 466, "若": 467, "发": 468, "生": 469, "错": 470, "误": 471, "附": 472, "近": 473, "饭": 474, "店": 475, "公": 476, "司": 477, "地": 478, "址": 479, "列": 480, "♥": 481, "î": 482, "送": 483, "允": 484, "许": 485, "您": 486, "向": 487, "有": 488, "定": 489, "件": 490, "适": 491, "电": 492, "汽": 493, "车": 494, "池": 495, "É": 496, "修": 497, "改": 498, "订": 499, "单": 500, "于": 501, "更": 502, "给": 503, "号": 504, "预": 505, "日": 506, "期": 507, "水": 508, "瓶": 509, "å": 510, "મ": 511, "ન": 512, "ે": 513, "ભ": 514, "ા": 515, "ર": 516, "ત": 517, "બ": 518, "સ": 519, "ઘ": 520, "જ": 521, "વ": 522, "ળ": 523, "છ": 524, "ఖ": 525, "ా": 526, "ద": 527, "ీ": 528, "ో": 529, "ణ": 530, "ి": 531, "会": 532, "议": 533, "它": 534, "接": 535, "受": 536, "三": 537, "间": 538, "是": 539, "描": 540, "述": 541, "其": 542, "邀": 543, "子": 544, "邮": 545, "股": 546, "票": 547, "调": 548, "户": 549, "在": 550, "特": 551, "添": 552, "事": 553, "该": 554, "执": 555, "操": 556, "作": 557, "象": 558, "每": 559, "都": 560, "详": 561, "细": 562, "开": 563, "始": 564, "束": 565, "位": 566, "搜": 567, "索": 568, "线": 569, "课": 570, "程": 571, "可": 572, "选": 573, "关": 574, "键": 575, "讲": 576, "师": 577, "类": 578, "型": 579, "题": 580, "姓": 581, "初": 582, "级": 583, "高": 584, "使": 585, "证": 586, "唯": 587, "识": 588, "角": 589, "色": 590, "义": 591, "问": 592, "求": 593, "助": 594, "手": 595, "与": 596, "进": 597, "交": 598, "流": 599, "答": 600, "案": 601, "理": 602, "法": 603, "话": 604, "星": 605, "帮": 606, "我": 607, "封": 608, "目": 609, "经": 610, "们": 611, "最": 612, "报": 613, "告": 614, "了": 615, "解": 616, "来": 617, "且": 618, "上": 619, "箱": 620, "什": 621, "么": 622, "？": 623, "哪": 624, "些": 625, "就": 626, "写": 627, "这": 628, "继": 629, "续": 630, "സ": 631, "ൂ": 632, "ര": 633, "്": 634, "യ": 635, "ന": 636, "‍": 637, "宿": 638, "️": 639, "⃣": 640, "ł": 641, "虚": 642, "拟": 643, "币": 644, "合": 645, "约": 646, "种": 647, "例": 648, "粒": 649, "默": 650, "认": 651, "条": 652, "化": 653, "Ω": 654, "⁹": 655, "醒": 656, "小": 657, "企": 658, "注": 659, "即": 660, "逾": 661, "剩": 662, "限": 663, "客": 664, "溢": 665, "评": 666, "估": 667, "笔": 668, "编": 669, "想": 670, "知": 671, "道": 672, "还": 673, "少": 674, "µ": 675, "č": 676, "€": 677, "\u0013": 678, "Д": 679, "Б": 680, "г": 681, "в": 682, "с": 683, "\u0003": 684, "酒": 685, "住": 686, "离": 687, "所": 688, "必": 689, "填": 690, "没": 691, "也": 692, "前": 693, "货": 694, "民": 695, "さ": 696, "れ": 697, "た": 698, "ブ": 699, "ラ": 700, "ウ": 701, "ザ": 702, "で": 703, "ア": 704, "ク": 705, "セ": 706, "ス": 707, "し": 708, "ま": 709, "す": 710, "ć": 711, "р": 712, "п": 713, "ж": 714, "М": 715, "у": 716, "海": 717, "洋": 718, "‒": 719, "成": 720, "à": 721, "�": 722, "Р": 723, "и": 724, "м": 725, "ń": 726, "ø": 727, "\u0002": 728, "ı": 729, "에": 730, "서": 731, "간": 732, "뉴": 733, "스": 734, "가": 735, "져": 736, "오": 737, "는": 738, "도": 739, "구": 740, "빈": 741, "문": 742, "열": 743, "인": 744, "경": 745, "우": 746, "장": 747, "최": 748, "근": 749, "옴": 750, "아": 751, "티": 752, "클": 753, "을": 754, "유": 755, "형": 756, "환": 757, "할": 758, "수": 759, "대": 760, "록": 761, "효": 762, "않": 763, "은": 764, "이": 765, "된": 766, "ū": 767, "词": 768, "记": 769, "银": 770, "风": 771, "险": 772, "监": 773, "控": 774, "器": 775, "观": 776, "察": 777, "品": 778, "债": 779, "券": 780, "持": 781, "仓": 782, "看": 783, "存": 784, "放": 785, "通": 786, "房": 787, "抖": 788, "社": 789, "娱": 790, "网": 791, "络": 792, "ứ": 793, "ả": 794, "Î": 795, "希": 796, "望": 797, "能": 798, "夠": 799, "學": 800, "會": 801, "シ": 802, "ュ": 803, "意": 804, "親": 805, "卡": 806, "段": 807, "П": 808, "з": 809, "st": 810, "in": 811, "at": 812, "er": 813, "en": 814, "on": 815, "str": 816, "or": 817, "et": 818, "=str": 819, "th": 820, "ar": 821, "an": 822, "al": 823, "es": 824, "the": 825, "me": 826, "ent": 827, "=str!": 828, "ion": 829, "to": 830, "re": 831, "um": 832, "ic": 833, "it": 834, "ing": 835, "for": 836, "ol": 837, "ur": 838, "ate": 839, "le": 840, "ch": 841, "ct": 842, "ro": 843, "id": 844, "ame": 845, "of": 846, "ation": 847, "ed": 848, "qu": 849, "name": 850, "=str!)": 851, "  ": 852, "li": 853, "and": 854, "as": 855, "us": 856, "int": 857, "il": 858, "ery": 859, "ve": 860, "lo": 861, "is": 862, "query": 863, "pe": 864, "ri": 865, "get": 866, "co": 867, "gh": 868, "de": 869, "if": 870, "ents": 871, "ght": 872, "em": 873, "ay": 874, "=int": 875, "ols": 876, "tools": 877, "</": 878, "query>": 879, "tools>": 880, "bo": 881, "un": 882, "arg": 883, "ck": 884, "act": 885, "ap": 886, "con": 887, "ag": 888, "cal": 889, "uments": 890, "arguments": 891, "end": 892, "ti": 893, "num": 894, "ce": 895, "ul": 896, "_id": 897, "ut": 898, "se": 899, "=str)": 900, "ail": 901, "spe": 902, "mo": 903, "ess": 904, "form": 905, "iv": 906, "set": 907, "am": 908, "pl": 909, "ity": 910, "light": 911, "ad": 912, "ho": 913, "spec": 914, "pro": 915, "    ": 916, "urn": 917, "he": 918, "we": 919, "tr": 920, "date": 921, "rie": 922, "etrie": 923, "specif": 924, "!)": 925, "cont": 926, "YY": 927, "ers": 928, "ex": 929, "age": 930, "iven": 931, "given": 932, "urr": 933, "Retrie": 934, "per": 935, "call": 936, "fi": 937, "om": 938, "ne": 939, "ith": 940, "urrent": 941, "time": 942, "ord": 943, "<call": 944, "ice": 945, "contact": 946, "\\n": 947, "by": 948, "with": 949, "get_": 950, "art": 951, "arch": 952, "Retrieve": 953, "_name": 954, "()": 955, "do": 956, "s.": 957, "ure": 958, "ub": 959, "ment": 960, "fl": 961, "dat": 962, "op": 963, "reate": 964, "enum": 965, "_m": 966, "=enum": 967, "=enum(": 968, "ab": 969, "ash": 970, "ist": 971, "one": 972, "rom": 973, "list": 974, "com": 975, "numb": 976, "from": 977, "AP": 978, "MM": 979, "po": 980, "el": 981, "email": 982, "ty": 983, "loc": 984, "off": 985, "user": 986, "res": 987, "flash": 988, "formation": 989, "flashlight": 990, "API": 991, "set_": 992, "information": 993, "using": 994, "du": 995, "ect": 996, "ev": 997, "all": 998, "specific": 999, "=num": 1000, "location": 1001, "im": 1002, "number": 1003, "stat": 1004, "etch": 1005, "up": 1006, "ang": 1007, "ance": 1008, "ind": 1009, "ort": 1010, "ke": 1011, "ID": 1012, "ver": 1013, "est": 1014, "ase": 1015, "create": 1016, "ip": 1017, "Fetch": 1018, "ir": 1019, "Set": 1020, "so": 1021, "ath": 1022, "di": 1023, "au": 1024, "ph": 1025, "=int!)": 1026, "ac": 1027, "ates": 1028, "ye": 1029, "ast": 1030, "type": 1031, "coun": 1032, "vid": 1033, "day": 1034, "new": 1035, "are": 1036, "det": 1037, "ied": 1038, "ject": 1039, "yo": 1040, "format": 1041, "ON": 1042, "current": 1043, "ant": 1044, "_id=str!)": 1045, "search": 1046, "how": 1047, "tion": 1048, "specified": 1049, "cul": 1050, "tit": 1051, "Get": 1052, "TI": 1053, "event": 1054, "right": 1055, "port": 1056, "no": 1057, "ter": 1058, "ature": 1059, "ction": 1060, "AC": 1061, "=int)": 1062, "mode": 1063, "door": 1064, "dy": 1065, "vel": 1066, "lock": 1067, "Current": 1068, "ack": 1069, "title": 1070, "_s": 1071, "min": 1072, "ig": 1073, "ok": 1074, "'s": 1075, "ting": 1076, "(c": 1077, "ens": 1078, "tem": 1079, "bool": 1080, "=bool": 1081, "erv": 1082, "ek": 1083, "year": 1084, "turn": 1085, "send": 1086, "ext": 1087, "bas": 1088, "St": 1089, "ue": 1090, "data": 1091, "you": 1092, "week": 1093, "pr": 1094, "arr": 1095, "met": 1096, "Fetches": 1097, "ple": 1098, "ace": 1099, "play": 1100, "sub": 1101, "ust": 1102, "ather": 1103, "SS": 1104, "phone": 1105, "ails": 1106, "room": 1107, "In": 1108, "cl": 1109, "perature": 1110, "te": 1111, "ain": 1112, "setting": 1113, "TION": 1114, "ial": 1115, "dr": 1116, "based": 1117, "tim": 1118, "create_": 1119, "low": 1120, "level": 1121, "Id": 1122, "DD": 1123, "ard": 1124, "YYYY": 1125, "ory": 1126, "ary": 1127, "body": 1128, "TH": 1129, "-MM": 1130, "YYYY-MM": 1131, "ies": 1132, "status": 1133, "temperature": 1134, "ication": 1135, "ine": 1136, "rec": 1137, "endar": 1138, "-DD": 1139, "YYYY-MM-DD": 1140, "calendar": 1141, "utes": 1142, "ness": 1143, "che": 1144, "_name=str!": 1145, "weather": 1146, "iz": 1147, "vo": 1148, "fo": 1149, "Day": 1150, "eturn": 1151, "od": 1152, "Turn": 1153, "abo": 1154, "val": 1155, "_date": 1156, "ult": 1157, "details": 1158, "YYYY-MM-DDTH": 1159, "YYYY-MM-DDTHH": 1160, "lights": 1161, "TION_": 1162, "=arr": 1163, "_type": 1164, "about": 1165, "start": 1166, "check": 1167, "UR": 1168, "_id=str!": 1169, "_in": 1170, "sy": 1171, "ACTION_": 1172, "turn_": 1173, "ical": 1174, "able": 1175, "bright": 1176, "Th": 1177, "brightness": 1178, "T_": 1179, "ly": 1180, "av": 1181, "be": 1182, "_flashlight": 1183, "fil": 1184, "key": 1185, "sh": 1186, "open": 1187, "ma": 1188, "word": 1189, "API.": 1190, "order": 1191, "og": 1192, "ick": 1193, "count": 1194, "dur": 1195, "ign": 1196, "fun": 1197, "bot": 1198, "e.": 1199, "its": 1200, "ched": 1201, "ans": 1202, "Ad": 1203, "eld": 1204, "voice": 1205, "vol": 1206, "ume": 1207, "Re": 1208, "provid": 1209, "timer": 1210, "_number": 1211, "earch": 1212, "ud": 1213, "        ": 1214, "culate": 1215, "ight": 1216, "ition": 1217, "field": 1218, "enc": 1219, "ime": 1220, "ule": 1221, "robot": 1222, "aly": 1223, "ther": 1224, "fir": 1225, "par": 1226, "ading": 1227, "Op": 1228, "minutes": 1229, "produ": 1230, "Cal": 1231, "ob": 1232, "volume": 1233, "code": 1234, "file": 1235, "usic": 1236, "show": 1237, "chedule": 1238, "subject": 1239, "tract": 1240, "mit": 1241, "The": 1242, "ass": 1243, ")!": 1244, "serv": 1245, "duration": 1246, "return": 1247, "(body": 1248, "cess": 1249, "ock": 1250, "ics": 1251, "_p": 1252, "ener": 1253, ".\\n": 1254, "ifi": 1255, "ence": 1256, "to=str!)": 1257, "eo": 1258, "fer": 1259, "vi": 1260, "ange": 1261, "sc": 1262, "af": 1263, "place": 1264, "tar": 1265, "EN": 1266, "gr": 1267, "_c": 1268, "auth": 1269, "Che": 1270, "pa": 1271, "function": 1272, "uld": 1273, "ive": 1274, "Check": 1275, "RA": 1276, "_r": 1277, "Co": 1278, "lect": 1279, "wh": 1280, "ew": 1281, "apid": 1282, "reg": 1283, "product": 1284, "essage": 1285, "last": 1286, "ork": 1287, "br": 1288, "meters": 1289, "mat": 1290, "back": 1291, "option": 1292, "_email": 1293, "ves": 1294, "late": 1295, "Rapid": 1296, "ude": 1297, "_w": 1298, "=num!": 1299, "try": 1300, "red": 1301, "settings": 1302, "Send": 1303, "pub": 1304, "comp": 1305, "Create": 1306, "contact.": 1307, "pap": 1308, "service": 1309, "title=str!)": 1310, "Search": 1311, "Fi": 1312, "can": 1313, "dress": 1314, "map": 1315, "book": 1316, "text": 1317, "ong": 1318, "query=str!)": 1319, "first": 1320, "ert": 1321, "des": 1322, "out": 1323, "peri": 1324, "need": 1325, "This": 1326, "trans": 1327, "requ": 1328, "heading": 1329, "cam": 1330, "ach": 1331, "Add": 1332, "tal": 1333, "item": 1334, "ments": 1335, "ility": 1336, "att": 1337, "country": 1338, "incl": 1339, "wn": 1340, "ak": 1341, "Ex": 1342, "address": 1343, "analy": 1344, "find": 1345, ")!)": 1346, "Pl": 1347, "lang": 1348, "ill": 1349, "Show": 1350, "ustom": 1351, "unt": 1352, "ep": 1353, "point": 1354, "dis": 1355, "=int!": 1356, "g.": 1357, "phone_number": 1358, "city": 1359, "fe": 1360, "ateg": 1361, "IN": 1362, "total": 1363, "my": 1364, "send_email": 1365, "that": 1366, "GE": 1367, "calculate": 1368, "auto": 1369, "limit": 1370, "_event": 1371, "ify": 1372, "Wi": 1373, "mb": 1374, "Pro": 1375, "video": 1376, "ark": 1377, "author": 1378, "etime": 1379, "ally": 1380, "col": 1381, "datetime": 1382, "es.": 1383, "select": 1384, "ize": 1385, "provided": 1386, "pat": 1387, "target": 1388, "=num!)": 1389, "(query=str!)": 1390, "_map": 1391, "wo": 1392, "RapidAPI": 1393, "ater": 1394, "Retrieves": 1395, "move": 1396, "show_map": 1397, "ations": 1398, "ency": 1399, "inter": 1400, "use": 1401, "calendar_event": 1402, "create_calendar_event": 1403, "plo": 1404, "app": 1405, "ite": 1406, "und": 1407, "EX": 1408, "urs": 1409, "(s": 1410, "Con": 1411, "ient": 1412, "-Fi": 1413, "gro": 1414, "publ": 1415, "e.g.": 1416, "Wi-Fi": 1417, "turn_on": 1418, "string": 1419, "work": 1420, "turn_off": 1421, "TRA": 1422, "on.": 1423, "subject=str!": 1424, "_settings": 1425, "arm": 1426, "List": 1427, "any": 1428, "pre": 1429, "line": 1430, "Mo": 1431, "ete": 1432, "record": 1433, "Start": 1434, "result": 1435, "An": 1436, "turn_on_flashlight": 1437, "turn_off_flashlight": 1438, "schedule": 1439, "avail": 1440, "eng": 1441, "_wifi": 1442, "_name=str!)": 1443, "email.": 1444, "off.": 1445, "led": 1446, "create_contact": 1447, "EXTRA": 1448, "EXTRA_": 1449, "allow": 1450, "Open": 1451, "keyword": 1452, "pay": 1453, "Calcul": 1454, "Al": 1455, "rip": 1456, "langu": 1457, "ore": 1458, "ated": 1459, "map.": 1460, "ME": 1461, "mount": 1462, "dev": 1463, "Can": 1464, "tick": 1465, "event.": 1466, "ues": 1467, "(body=str": 1468, "open_wifi": 1469, "open_wifi_settings": 1470, "region": 1471, "top": 1472, "_by": 1473, "invoice": 1474, "Calculates": 1475, "ustomer": 1476, "datetime=str!": 1477, "medi": 1478, "mon": 1479, "Cre": 1480, "iss": 1481, "ual": 1482, "settings.": 1483, "set_lights": 1484, "Find": 1485, "(datetime=str!": 1486, "pos": 1487, "ward": 1488, "ers.": 1489, "Creates": 1490, "not": 1491, "cr": 1492, "ef": 1493, "))": 1494, "cast": 1495, "amount": 1496, "_date=str": 1497, "(brightness": 1498, "ession": 1499, "mostat": 1500, "ug": 1501, "stem": 1502, "ze": 1503, "ategory": 1504, "phone_number=str)": 1505, "thermostat": 1506, "first_name=str!": 1507, "lease": 1508, "hi": 1509, "add": 1510, "Play": 1511, "due": 1512, "report": 1513, "pol": 1514, "hist": 1515, "ata": 1516, "fields": 1517, "is_id": 1518, "_min": 1519, "ict": 1520, "zone": 1521, "old": 1522, "ancel": 1523, "fore": 1524, "music": 1525, "language": 1526, "publication": 1527, "io": 1528, "ample": 1529, "just": 1530, "TE": 1531, "s=arr": 1532, "url": 1533, "itude": 1534, "paign": 1535, "_door": 1536, "_C": 1537, "device": 1538, "Com": 1539, "stock": 1540, "Date": 1541, "_time": 1542, "ute": 1543, "(city": 1544, "page": 1545, "please": 1546, "rid": 1547, "Id=str!)": 1548, "En": 1549, "ability": 1550, "ning": 1551, "apt": 1552, "track": 1553, "tel": 1554, "ave": 1555, "period": 1556, "hic": 1557, "olog": 1558, ".com": 1559, "extract": 1560, "=bool!)": 1561, "liv": 1562, "_message": 1563, "forward": 1564, "heat": 1565, "set_timer": 1566, "account": 1567, "paper": 1568, "endor": 1569, "match": 1570, "dule": 1571, "(level": 1572, "web": 1573, "eting": 1574, "doc": 1575, "URI": 1576, "image": 1577, "IP": 1578, "get_weather": 1579, "module": 1580, "er.": 1581, "vendor": 1582, "two": 1583, "valid": 1584, "cle": 1585, "amet": 1586, "system": 1587, "cond": 1588, "value": 1589, "send_message": 1590, "locked": 1591, "cool": 1592, "duration_min": 1593, "Please": 1594, "named": 1595, "ft": 1596, "Turns": 1597, "lock_door": 1598, "mode=enum(": 1599, "era": 1600, "symb": 1601, "action": 1602, "del": 1603, "fr": 1604, "project": 1605, "ution": 1606, "air": 1607, "hoto": 1608, "part": 1609, "includ": 1610, "price": 1611, "also": 1612, "(brightness=int": 1613, "_b": 1614, "SE": 1615, "Could": 1616, "retrie": 1617, "enerate": 1618, "_music": 1619, "team": 1620, "paramet": 1621, "Tr": 1622, "filter": 1623, "mark": 1624, "over": 1625, "rate": 1626, "MA": 1627, "ven": 1628, "log": 1629, "our": 1630, "ality": 1631, "sum": 1632, "ship": 1633, "ription": 1634, "results": 1635, "Name": 1636, "ia": 1637, "s_": 1638, "_move": 1639, "set_thermostat": 1640, "_info": 1641, "their": 1642, "optional": 1643, "content": 1644, "lat": 1645, "state": 1646, "play_music": 1647, "ident": 1648, "including": 1649, "(mode=enum(": 1650, "put": 1651, "ensor": 1652, "model": 1653, "I'": 1654, "query.": 1655, "AR": 1656, "ot": 1657, "left": 1658, "service.": 1659, "_invoice": 1660, "bet": 1661, "ault": 1662, "rem": 1663, "cent": 1664, "(location": 1665, "symbol": 1666, "hod": 1667, "ument": 1668, "sup": 1669, "(level=int!)": 1670, "gen": 1671, "fin": 1672, "numbers": 1673, "color": 1674, "(door": 1675, "wer": 1676, "robot_move": 1677, "To": 1678, "camera": 1679, "ge": 1680, "icy": 1681, "allows": 1682, "ification": 1683, "_name=str": 1684, "area": 1685, "(b": 1686, "set_volume": 1687, "Stat": 1688, "available": 1689, "Text": 1690, "long": 1691, "sis": 1692, "extract_invoice": 1693, "Lock": 1694, "retrieve": 1695, "speed": 1696, "mode.": 1697, "ID.": 1698, "Ch": 1699, "|cool": 1700, "ib": 1701, "Move": 1702, "(body=str!": 1703, "kno": 1704, "alth": 1705, "ild": 1706, "(city=str!)": 1707, "net": 1708, "update": 1709, "on/": 1710, "ween": 1711, "desc": 1712, "ci": 1713, "photo": 1714, ").": 1715, "aker": 1716, "on/off": 1717, "Ac": 1718, "ai": 1719, "returns": 1720, "(email": 1721, "|cool|": 1722, "unlock": 1723, "room=str!)": 1724, "brary": 1725, "Extract": 1726, "minutes=int!)": 1727, "ll": 1728, "RE": 1729, "view": 1730, "ps": 1731, "door.": 1732, "water": 1733, "reen": 1734, "ploye": 1735, "_to": 1736, "between": 1737, "aw": 1738, "minutes.": 1739, "post": 1740, "_re": 1741, ".\\n\\n": 1742, "city.": 1743, "ination": 1744, "Ar": 1745, "like": 1746, "(due": 1747, "exist": 1748, "dates": 1749, "stand": 1750, "hel": 1751, "temperature=int!)": 1752, "ology": 1753, "|back": 1754, "URL": 1755, "Data": 1756, "ser": 1757, "Res": 1758, "org": 1759, "patient": 1760, "list.": 1761, "PM": 1762, "(minutes=int!)": 1763, "payment": 1764, "brightness.": 1765, "(due_date=str": 1766, "message": 1767, "heat|cool|": 1768, "pri": 1769, "Calculate": 1770, "speaker": 1771, "istance": 1772, "vent": 1773, "(mode=enum(heat|cool|": 1774, "comm": 1775, "fields.": 1776, "total=num!": 1777, "|back|": 1778, "Return": 1779, "vendor=str!)": 1780, "(mode=enum(heat|cool|auto": 1781, "pon": 1782, "left|": 1783, "process": 1784, "istics": 1785, "on=bool": 1786, "tri": 1787, "lish": 1788, "=enum(forward": 1789, "(mode=enum(heat|cool|auto)": 1790, "left|right": 1791, "high": 1792, "room's": 1793, "(date": 1794, "mary": 1795, "weight": 1796, "meters=num!)": 1797, "ason": 1798, "left|right)!": 1799, "heading.": 1800, "=enum(forward|back|": 1801, "(heading": 1802, "ta": 1803, "(heading=enum(forward|back|": 1804, "(heading=enum(forward|back|left|right)!": 1805, "(is_id": 1806, "Opens": 1807, "ating": 1808, "existing": 1809, "ulti": 1810, "var": 1811, "ices": 1812, "ele": 1813, "locked=bool!)": 1814, "ber": 1815, "GET_": 1816, "(door=str!": 1817, "vert": 1818, "<id": 1819, "<id>": 1820, "(place": 1821, "document": 1822, "ticket": 1823, "ployee": 1824, "then": 1825, "ank": 1826, "news": 1827, "(place=str!)": 1828, "les": 1829, "run": 1830, "ss": 1831, "ivity": 1832, "customer": 1833, "appl": 1834, "ide": 1835, "this": 1836, "analyze": 1837, "api": 1838, "papers": 1839, "company": 1840, "Med": 1841, "ENT": 1842, "audi": 1843, "ins": 1844, "_d": 1845, "fol": 1846, "max": 1847, "username": 1848, "duration_min=int": 1849, "It": 1850, "is_": 1851, "ware": 1852, "Checks": 1853, "cial": 1854, "AL": 1855, "analysis": 1856, "bl": 1857, "will": 1858, "ities": 1859, "(country": 1860, "exp": 1861, "ings": 1862, "iction": 1863, "eg": 1864, "bu": 1865, "hum": 1866, "search_": 1867, "ENT_": 1868, "policy": 1869, "ailed": 1870, "ions": 1871, "aph": 1872, "last_name=str": 1873, "oll": 1874, "def": 1875, "vir": 1876, "latest": 1877, "support": 1878, "ages": 1879, "abase": 1880, "(first_name=str!": 1881, "ing_": 1882, "charg": 1883, "key.": 1884, "hicle": 1885, "aur": 1886, "fact": 1887, "Status": 1888, "pet": 1889, "have": 1890, "curr": 1891, "clo": 1892, "med": 1893, ".get_": 1894, "US": 1895, "profile": 1896, "=num)": 1897, "atur": 1898, "anu": 1899, "alert": 1900, "DO": 1901, "request": 1902, "remind": 1903, "al_": 1904, "aim": 1905, "access": 1906, "livery": 1907, "session": 1908, "ipe": 1909, "month": 1910, "aurant": 1911, "quality": 1912, "campaign": 1913, "init": 1914, "ram": 1915, "station": 1916, "detailed": 1917, "plan": 1918, "condition": 1919, "_type=enum(": 1920, "change": 1921, "ull": 1922, "Info": 1923, "ere": 1924, "_details": 1925, "ames": 1926, "load": 1927, "ength": 1928, "Up": 1929, "after": 1930, "sensor": 1931, "gy": 1932, "test": 1933, "ric": 1934, "ization": 1935, "alarm": 1936, "attach": 1937, "ulation": 1938, "(de": 1939, "dex": 1940, "group": 1941, "cancel": 1942, "Analy": 1943, "employee": 1944, "cy": 1945, "getS": 1946, "He": 1947, "For": 1948, "Returns": 1949, "_status": 1950, "_rate": 1951, "perform": 1952, "ire": 1953, "stru": 1954, "note": 1955, "description": 1956, "sour": 1957, "sav": 1958, "Mon": 1959, "staurant": 1960, "ultiple": 1961, "vehicle": 1962, "atch": 1963, "sort": 1964, "tech": 1965, "ending": 1966, "apture": 1967, "plant": 1968, "vers": 1969, "getP": 1970, "compl": 1971, "Finds": 1972, "health": 1973, "sp": 1974, "ink": 1975, "years": 1976, "attachments": 1977, "library": 1978, "EV": 1979, "ator": 1980, "generate": 1981, "row": 1982, "(num": 1983, "go": 1984, "pass": 1985, "stination": 1986, "category": 1987, "other": 1988, "ade": 1989, "term": 1990, "recip": 1991, "obj": 1992, "verage": 1993, "TUR": 1994, "_by_": 1995, "Fin": 1996, "feed": 1997, "=obj": 1998, "limit=int": 1999, "Schedule": 2000, "calculate_": 2001, "quant": 2002, "I'm": 2003, "time_": 2004, "hold": 2005, "flag": 2006, "follow": 2007, "(end": 2008, "'.": 2009, "bal": 2010, "tt": 2011, "Bo": 2012, "check_": 2013, "_code": 2014, "history": 2015, "fic": 2016, "ench": 2017, "pres": 2018, "anges": 2019, "read": 2020, "meeting": 2021, "Det": 2022, "olution": 2023, "flo": 2024, "Also": 2025, "list_": 2026, "cur": 2027, "venue": 2028, "database": 2029, "stop": 2030, "oc": 2031, "ement": 2032, "player": 2033, "hours": 2034, "files": 2035, "orical": 2036, "ius": 2037, "ctor": 2038, "within": 2039, "dire": 2040, "Per": 2041, "hip": 2042, "contact_info": 2043, "arti": 2044, "down": 2045, "job": 2046, "percent": 2047, "restaurant": 2048, "orp": 2049, "dom": 2050, "TURE": 2051, "ont": 2052, "_type=str!)": 2053, "vest": 2054, "ights": 2055, "network": 2056, "=arr)": 2057, "forecast": 2058, "tag": 2059, "_date=str!": 2060, "New": 2061, "some": 2062, "(email=str": 2063, "Def": 2064, "market": 2065, "mic": 2066, "Sends": 2067, "house": 2068, "food": 2069, "LE": 2070, "object": 2071, "eam": 2072, "lated": 2073, "respon": 2074, "pers": 2075, "OR": 2076, "ious": 2077, "true": 2078, "game": 2079, "proper": 2080, "each": 2081, "Le": 2082, "reserv": 2083, "next": 2084, "andom": 2085, "delete": 2086, "initial": 2087, "before": 2088, "memo": 2089, "ing.": 2090, "firm": 2091, "experi": 2092, "viron": 2093, "gu": 2094, "We": 2095, "activity": 2096, "ONT": 2097, "days": 2098, "_met": 2099, "fund": 2100, "artist": 2101, "parameters.": 2102, "hotel": 2103, "research": 2104, "saved": 2105, "jo": 2106, "module.": 2107, "//": 2108, "domain": 2109, "artic": 2110, "riday": 2111, "user_id=str!)": 2112, "_level": 2113, "include": 2114, "reminder": 2115, "unit": 2116, "itch": 2117, "want": 2118, "ences": 2119, "vironment": 2120, "range": 2121, "delivery": 2122, "aily": 2123, "related": 2124, "uesday": 2125, "sho": 2126, "attery": 2127, "equ": 2128, "audio": 2129, "_data": 2130, "provide": 2131, "ring": 2132, "icate": 2133, "Ap": 2134, "Shows": 2135, "man": 2136, "target_": 2137, "fetch": 2138, "lab": 2139, "Del": 2140, "print": 2141, "De": 2142, "find_": 2143, "ST": 2144, "eth": 2145, "source": 2146, "Tuesday": 2147, "ense": 2148, "Adjust": 2149, "fig": 2150, "authors": 2151, "ventory": 2152, "Friday": 2153, "latitude": 2154, "longitude": 2155, "pointment": 2156, "Update": 2157, "name=str!)": 2158, "sample": 2159, "agram": 2160, "bench": 2161, "nel": 2162, "phone's": 2163, "itation": 2164, "opulation": 2165, "char": 2166, "_id=int!)": 2167, "rad": 2168, "Em": 2169, "shipment": 2170, "where": 2171, "pt": 2172, "mor": 2173, "Monday": 2174, "ital": 2175, "example": 2176, "zip": 2177, "TE_": 2178, "_id=str)": 2179, "APTURE": 2180, "pur": 2181, "recent": 2182, "tone": 2183, "interest": 2184, "media": 2185, "ree": 2186, "last_name=str!": 2187, "position": 2188, "ensity": 2189, "active": 2190, "_range": 2191, "olbench": 2192, "atform": 2193, "ask": 2194, "Default": 2195, "DE": 2196, "_id=str": 2197, "mod": 2198, "coord": 2199, "reservation": 2200, "_CAPTURE": 2201, "uri": 2202, "application": 2203, "currency": 2204, "refer": 2205, "udget": 2206, "(amount": 2207, "historical": 2208, "anuary": 2209, "height": 2210, "power": 2211, "pod": 2212, "method": 2213, "ed_": 2214, "aturday": 2215, "su": 2216, "January": 2217, "ake": 2218, "techn": 2219, "ticker": 2220, "ringtone": 2221, "leep": 2222, "come": 2223, "March": 2224, "ifier": 2225, "vie": 2226, "os": 2227, "estim": 2228, "platform": 2229, "Sun": 2230, "known": 2231, "number.": 2232, "ired": 2233, "Cancel": 2234, "ploy": 2235, "appointment": 2236, "stor": 2237, "performance": 2238, "quantity": 2239, "ear": 2240, "ampaign": 2241, "raph": 2242, "season": 2243, "records": 2244, "availability": 2245, "typ": 2246, "Saturday": 2247, "medium": 2248, "Val": 2249, "als": 2250, "way": 2251, "coordin": 2252, "nes": 2253, "az": 2254, "organ": 2255, "daily": 2256, "statistics": 2257, "Un": 2258, "ACTION_V": 2259, "gram": 2260, "standard": 2261, "CH": 2262, "dial": 2263, "Comp": 2264, "claim": 2265, "fix": 2266, "ursday": 2267, "chan": 2268, "front": 2269, "dif": 2270, "orig": 2271, "ednes": 2272, "cons": 2273, "cord": 2274, "_type=str!": 2275, "ednesday": 2276, "hn": 2277, "length": 2278, "build": 2279, "human": 2280, "lig": 2281, "Lights": 2282, "during": 2283, "interv": 2284, "origin": 2285, "near": 2286, "selected": 2287, "_uri": 2288, "pot": 2289, "Wh": 2290, "Thursday": 2291, "sm": 2292, "ile": 2293, "present": 2294, "ority": 2295, "route": 2296, "trol": 2297, "erial": 2298, "person": 2299, "bre": 2300, "Wednesday": 2301, "IS": 2302, "sk": 2303, "htt": 2304, "By": 2305, "vis": 2306, "random": 2307, "Spe": 2308, "factor": 2309, "site": 2310, "olar": 2311, "Sunday": 2312, "Trans": 2313, "cre": 2314, "soci": 2315, "pick": 2316, "home": 2317, "IMA": 2318, "adjust": 2319, "Finally": 2320, "Dis": 2321, "location=str!": 2322, "species": 2323, "ational": 2324, "help": 2325, "Gener": 2326, "Report": 2327, "ou": 2328, "Toolbench": 2329, "ender": 2330, "oo": 2331, "ann": 2332, "iter": 2333, "names": 2334, "Delete": 2335, "environment": 2336, "cert": 2337, "IMAGE": 2338, "ipeline": 2339, "commend": 2340, "pto": 2341, "LA": 2342, "miss": 2343, "Inst": 2344, "transfer": 2345, "tell": 2346, "car": 2347, "playlist": 2348, "Corp": 2349, "_size": 2350, "Id=str!": 2351, "Ver": 2352, "energy": 2353, "Jo": 2354, "fect": 2355, "sur": 2356, "CA": 2357, "channel": 2358, "experiment": 2359, "enable": 2360, "roll": 2361, "topic": 2362, "https": 2363, "ry": 2364, "summary": 2365, "movie": 2366, "gest": 2367, "size": 2368, "tax": 2369, "user.": 2370, "Book": 2371, "epis": 2372, "Perform": 2373, "new_": 2374, "MENT": 2375, "what": 2376, "various": 2377, "sequ": 2378, "strict": 2379, "Tok": 2380, "Do": 2381, "MI": 2382, "tern": 2383, "iness": 2384, "cycle": 2385, "cel": 2386, "udy": 2387, "vestment": 2388, "ah": 2389, "tracking": 2390, "know": 2391, "_method": 2392, "design": 2393, "rop": 2394, "tra": 2395, "on|": 2396, "response": 2397, "que": 2398, "(category": 2399, "syn": 2400, "Generates": 2401, "-se": 2402, "ode": 2403, "DA": 2404, "ote": 2405, "password": 2406, "endpoint": 2407, "look": 2408, "memb": 2409, "would": 2410, "start_": 2411, "CU": 2412, "of_": 2413, "ball": 2414, "index": 2415, "property": 2416, "ACT": 2417, "transaction": 2418, "gg": 2419, "ific": 2420, "start_date": 2421, "time=str!)": 2422, "confirm": 2423, "thes": 2424, "SET_": 2425, "review": 2426, "Log": 2427, "percentage": 2428, "isk": 2429, "getC": 2430, "engine": 2431, "_type=str": 2432, "(d": 2433, "_f": 2434, "more": 2435, "D_": 2436, "bus": 2437, "case": 2438, "lation": 2439, "rics": 2440, "cli": 2441, "recording": 2442, "into": 2443, "Name=str!)": 2444, "user's": 2445, "_time=str!": 2446, "curity": 2447, "Generate": 2448, "(is_id=str)": 2449, "der": 2450, "ping": 2451, "charact": 2452, "Or": 2453, "example.com": 2454, "integ": 2455, "publish": 2456, "authent": 2457, "EVENT_": 2458, "sim": 2459, "\\n\\n": 2460, "=arr!": 2461, "sign": 2462, "MS": 2463, "RapidAPI.": 2464, "location.": 2465, "Str": 2466, "events": 2467, "grow": 2468, "oft": 2469, "mer": 2470, "ential": 2471, "ONTACT": 2472, "ivid": 2473, "module_name": 2474, "appro": 2475, "Requ": 2476, "currently": 2477, "types": 2478, "Eng": 2479, "Qu": 2480, "Record": 2481, "=arr!)": 2482, "aning": 2483, "pair": 2484, "version": 2485, "reshold": 2486, "hour": 2487, "ken": 2488, "itor": 2489, "ole": 2490, "ise": 2491, "living": 2492, "pace": 2493, "gre": 2494, "uggest": 2495, "pose": 2496, "screen": 2497, "sport": 2498, "struct": 2499, "float": 2500, "gar": 2501, "aft": 2502, "ING": 2503, "AM": 2504, "s=arr)": 2505, "make": 2506, "_search": 2507, "ces": 2508, "time_period": 2509, "cook": 2510, "coordinates": 2511, "your": 2512, "destination": 2513, "sn": 2514, "s=str": 2515, "printer": 2516, "tier": 2517, "sal": 2518, "aset": 2519, "full": 2520, "optionally": 2521, "average": 2522, "Details": 2523, "element": 2524, "annual": 2525, "mime": 2526, "getM": 2527, "(order": 2528, "population": 2529, "une": 2530, "press": 2531, "ation.": 2532, "default": 2533, "supported": 2534, "=bool)": 2535, "genre": 2536, "getF": 2537, "=float": 2538, "card": 2539, "parated": 2540, "ER": 2541, "(location=str!": 2542, "booking": 2543, "sequence": 2544, "comma": 2545, "conne": 2546, "sleep": 2547, "verify": 2548, "comma-se": 2549, "comma-separated": 2550, "Av": 2551, "ate_": 2552, "capture": 2553, "agent": 2554, "following": 2555, "Of": 2556, "olor": 2557, "sing": 2558, "dataset": 2559, "_to_": 2560, "Time": 2561, "redict": 2562, "multiple": 2563, "ibility": 2564, "=bool!": 2565, "itations": 2566, "ACTION_S": 2567, "battery": 2568, "garage": 2569, "ian": 2570, "Pub": 2571, "IDE": 2572, "head": 2573, "task": 2574, "er_": 2575, "items": 2576, "ride": 2577, "(location=str!)": 2578, "trial": 2579, "ACTION_GET_": 2580, "You": 2581, "ium": 2582, "bin": 2583, "ish": 2584, "ral": 2585, "hey": 2586, "contain": 2587, "rating": 2588, "let": 2589, "ines": 2590, "|medium": 2591, "|medium|": 2592, "ases": 2593, "John": 2594, "year=str)": 2595, "Addition": 2596, "parameters": 2597, "contact_uri": 2598, "lu": 2599, "imum": 2600, "pipeline": 2601, "inten": 2602, "pre-": 2603, "second": 2604, "intenance": 2605, "(f": 2606, "locity": 2607, "Au": 2608, "getL": 2609, "ament": 2610, "inst": 2611, "security": 2612, "tor": 2613, "issue": 2614, "cholar": 2615, "Avail": 2616, "mach": 2617, "ative": 2618, "detail": 2619, "erg": 2620, "What": 2621, "TIME": 2622, "module_name.": 2623, "DOCU": 2624, "ip_": 2625, "IL": 2626, "ms": 2627, "DOCUMENT": 2628, "vari": 2629, "ply": 2630, "Sub": 2631, "label": 2632, "velocity": 2633, "_de": 2634, "growth": 2635, "has": 2636, "differ": 2637, "York": 2638, "output": 2639, "gender": 2640, "reat": 2641, "episode": 2642, "threshold": 2643, "priority": 2644, "board": 2645, "duct": 2646, ".org": 2647, "require": 2648, "get_contact_info": 2649, "stract": 2650, "ee": 2651, "asure": 2652, "material": 2653, "Ho": 2654, "brand": 2655, "arning": 2656, "non": 2657, "E.": 2658, "lection": 2659, "Valid": 2660, "machine": 2661, "(customer": 2662, "subsc": 2663, "resolution": 2664, "type.": 2665, "REA": 2666, "venues": 2667, "gs": 2668, "cost": 2669, "_list": 2670, "publicationDate": 2671, "balance": 2672, "time.": 2673, "config": 2674, "recommend": 2675, "CK": 2676, "IDEO": 2677, "Ty": 2678, "Change": 2679, "radius": 2680, "cred": 2681, "song": 2682, "Analyze": 2683, "video.": 2684, "ummary": 2685, "language=str": 2686, "ech": 2687, "adata": 2688, "SK": 2689, "dig": 2690, "now": 2691, "emant": 2692, "Ro": 2693, "bon": 2694, "ing|": 2695, "HO": 2696, "bed": 2697, "Num": 2698, "math": 2699, "oper": 2700, "inc": 2701, "Rem": 2702, "requency": 2703, "distance": 2704, "ACTION_VIDEO": 2705, "lights.": 2706, "social": 2707, "IDs": 2708, "ague": 2709, "charging": 2710, "sever": 2711, "pli": 2712, "acy": 2713, "chain": 2714, "feature": 2715, "ax": 2716, "could": 2717, "(item": 2718, "ranges": 2719, "istr": 2720, "ism": 2721, "wr": 2722, "geo": 2723, "special": 2724, "ik": 2725, "on|off": 2726, "ube": 2727, "verification": 2728, "ural": 2729, "stream": 2730, "LO": 2731, "uses": 2732, "(text": 2733, "resour": 2734, "scal": 2735, "itchen": 2736, "ures": 2737, "prob": 2738, "Verify": 2739, "tourn": 2740, "drone": 2741, "IV": 2742, "Pr": 2743, "Lo": 2744, "ich": 2745, "recipient": 2746, "June": 2747, "sel": 2748, "ployment": 2749, "they": 2750, "getG": 2751, "dow": 2752, "indow": 2753, "AT": 2754, "monthly": 2755, "ooth": 2756, "etooth": 2757, "ites": 2758, "prefer": 2759, "addition": 2760, "chem": 2761, "loy": 2762, "getB": 2763, "_path": 2764, "warehouse": 2765, "s/": 2766, "stricts": 2767, "a.": 2768, "cap": 2769, "kitchen": 2770, "idity": 2771, "urance": 2772, "inventory": 2773, "Number": 2774, "dri": 2775, "L_": 2776, "Type": 2777, "angle": 2778, "sent": 2779, "users": 2780, "CID": 2781, "base": 2782, "notes": 2783, "another": 2784, "tomor": 2785, "Let": 2786, "attachments.": 2787, "patent": 2788, "complet": 2789, "_l": 2790, "reading": 2791, "name=str!": 2792, "ited": 2793, "journ": 2794, "enabled": 2795, "cc": 2796, "Init": 2797, "suggest": 2798, "step": 2799, "partic": 2800, "soft": 2801, "coming": 2802, "Access": 2803, "anc": 2804, "_type=str)": 2805, "citations": 2806, "startDate": 2807, "used": 2808, "interval": 2809, "Hi": 2810, "ety": 2811, "it.": 2812, "Restricts": 2813, "ding": 2814, "emantic": 2815, "tomorrow": 2816, "there": 2817, "_v": 2818, "=enum(low": 2819, "Scholar": 2820, "cor": 2821, "investment": 2822, "don": 2823, "table": 2824, "cry": 2825, "Semantic": 2826, "stud": 2827, "cept": 2828, "custom": 2829, "And": 2830, "different": 2831, "location=str!)": 2832, "ership": 2833, "running": 2834, "iteria": 2835, "mov": 2836, "quote": 2837, "viation": 2838, "AME": 2839, "single": 2840, "=enum(on|off": 2841, "arter": 2842, "s=str)": 2843, "MIME": 2844, "but": 2845, "loan": 2846, "audiobook": 2847, "bi": 2848, "CREA": 2849, "Se": 2850, "user_": 2851, "published": 2852, "input": 2853, "production": 2854, "User": 2855, "_order": 2856, "public": 2857, "pm": 2858, "info": 2859, "building": 2860, "Me": 2861, "insurance": 2862, "Im": 2863, "getD": 2864, "data.": 2865, "INT": 2866, "complete": 2867, "close": 2868, "articles": 2869, "edu": 2870, "_of_": 2871, "cour": 2872, "IMAGE_CAPTURE": 2873, "response.": 2874, "ACTION_IMAGE_CAPTURE": 2875, "EXTRA_EVENT_": 2876, "Par": 2877, "Project": 2878, "filtered": 2879, "YouT": 2880, "Convert": 2881, "pre-fil": 2882, "Process": 2883, "Cent": 2884, "(date=str!": 2885, "business": 2886, "fan": 2887, "namespace": 2888, "Rev": 2889, "pickup": 2890, "box": 2891, "amp": 2892, "points": 2893, "quare": 2894, "green": 2895, "_multiple": 2896, "dep": 2897, "Count": 2898, "blind": 2899, "Initi": 2900, "who": 2901, "ange.": 2902, "arah": 2903, "ause": 2904, "certain": 2905, "Po": 2906, "(age": 2907, "podcast": 2908, "ular": 2909, "ograph": 2910, "class": 2911, "matches": 2912, "DOI": 2913, "zipcode": 2914, "ayment": 2915, "soil": 2916, "Capture": 2917, "refund": 2918, "ique": 2919, "journal": 2920, "Instagram": 2921, "these": 2922, "mal": 2923, "options": 2924, "YouTube": 2925, "(amount=num!": 2926, "_from": 2927, "path": 2928, "a_": 2929, "orth": 2930, "alind": 2931, "CREATE_": 2932, "valu": 2933, "fields=str": 2934, "ACTION_SET_": 2935, "Stop": 2936, "Args": 2937, "Rate": 2938, "optim": 2939, "(duration": 2940, "under": 2941, "real": 2942, "son": 2943, "isture": 2944, "common": 2945, "s=arr!": 2946, "setLights": 2947, "cu": 2948, "_date_range": 2949, "offset": 2950, "_file": 2951, "idence": 2952, "ippet": 2953, "|medium|high": 2954, "MAG": 2955, "budget": 2956, "ctions": 2957, "s=int": 2958, "Then": 2959, "publication_date_range": 2960, "crypto": 2961, "ily": 2962, "website": 2963, "=enum(low|medium|high": 2964, "usage": 2965, "detect": 2966, "measure": 2967, "T_C": 2968, "quick": 2969, "SER": 2970, "sych": 2971, "pause": 2972, "(country=str!": 2973, "aining": 2974, "photo.": 2975, "ervice": 2976, "abstract": 2977, "num_": 2978, "ONE": 2979, "snippet": 2980, "string.": 2981, "delay": 2982, "local": 2983, "(n": 2984, "PubMed": 2985, "ys": 2986, "ner": 2987, "ww": 2988, "today": 2989, "Ident": 2990, "frame": 2991, "references": 2992, "CC": 2993, "fit": 2994, "Hist": 2995, "draw": 2996, "student": 2997, "ACL": 2998, "ples": 2999, "thro": 3000, "_con": 3001, "ipment": 3002, "usId": 3003, "_numbers": 3004, "PMID": 3005, "ARX": 3006, "PMCID": 3007, "CorpusId": 3008, "ARXIV": 3009, "her": 3010, "binary": 3011, "AGE": 3012, "take": 3013, "Health": 3014, "(region": 3015, "posit": 3016, "(campaign": 3017, "metrics": 3018, "character": 3019, "Order": 3020, "year=int)": 3021, "ories": 3022, "grade": 3023, "ption": 3024, "Available": 3025, "aptic": 3026, "guest": 3027, "(is_id=int)": 3028, "such": 3029, "verse": 3030, "care": 3031, "Level": 3032, "hash": 3033, "location=str": 3034, "gener": 3035, "Searches": 3036, "icro": 3037, "util": 3038, "_CAME": 3039, "_CAMERA": 3040, "Af": 3041, "As": 3042, "id=str)": 3043, "blue": 3044, "agement": 3045, "(author": 3046, "(destination": 3047, "ane": 3048, "INTENT_": 3049, "lic": 3050, "severity": 3051, "Central": 3052, "duration_minutes": 3053, "program": 3054, "ACTION_CREATE_": 3055, "--": 3056, "_number=str!)": 3057, "synaptic": 3058, "years=int)": 3059, "ED": 3060, "king": 3061, "acity": 3062, "technology": 3063, "(account": 3064, "should": 3065, "Additionally": 3066, "assess": 3067, "ror": 3068, "Tem": 3069, "playback": 3070, "vey": 3071, "iew": 3072, "UI": 3073, "RING": 3074, "ized": 3075, "Spec": 3076, "estimate": 3077, "which": 3078, "order.": 3079, "ibrary": 3080, "organization": 3081, "_get_": 3082, "store": 3083, "Mark": 3084, "ation_": 3085, "exchange": 3086, "probability": 3087, "(data": 3088, "chase": 3089, "format=str": 3090, "ancial": 3091, "codes": 3092, "block": 3093, "sorted": 3094, "ld": 3095, "ous": 3096, "plac": 3097, "Id=int!)": 3098, "elect": 3099, "documents": 3100, "non-": 3101, "score": 3102, "metric": 3103, "criteria": 3104, "END_": 3105, "link": 3106, "Sarah": 3107, "flight": 3108, "upcoming": 3109, "affic": 3110, "products": 3111, "@example.com": 3112, "depart": 3113, "Track": 3114, "symbol=str)": 3115, "array": 3116, "night": 3117, "drug": 3118, "Cont": 3119, "direct": 3120, "Performs": 3121, "mar": 3122, "dit": 3123, "reason": 3124, "lighting": 3125, "_api": 3126, "equipment": 3127, "Sm": 3128, "Hel": 3129, "name=str)": 3130, "String": 3131, "league": 3132, "aphic": 3133, "Sh": 3134, "otes": 3135, "username=str)": 3136, "phr": 3137, "(device": 3138, "Hey": 3139, "maintenance": 3140, "temp": 3141, "state=enum(on|off": 3142, "After": 3143, "ister": 3144, "ALAR": 3145, "TONE": 3146, "RINGTONE": 3147, "Met": 3148, "anch": 3149, "ible": 3150, "tournament": 3151, "allow_multiple": 3152, "ules": 3153, "Provid": 3154, "requirements": 3155, "forest": 3156, "face": 3157, "(page": 3158, "conditions": 3159, "white": 3160, "required": 3161, "graph": 3162, "alerts": 3163, "risk": 3164, "MESS": 3165, "MESSAGE": 3166, "lot": 3167, "ron": 3168, "ends": 3169, "striction": 3170, "luetooth": 3171, "diction": 3172, "submit": 3173, "afety": 3174, "ed.": 3175, "ipant": 3176, "sius": 3177, "movies": 3178, "object.\\n": 3179, "E.g": 3180, "compli": 3181, "discount": 3182, "cat": 3183, "locations": 3184, "Submit": 3185, "past": 3186, "vac": 3187, "range.": 3188, "sound": 3189, "tl": 3190, "live": 3191, "date.": 3192, "Name=str!": 3193, "ACTION_CREATE_DOCUMENT": 3194, "ior": 3195, "marketing": 3196, "ients": 3197, "numbers.": 3198, "anim": 3199, "groc": 3200, "goal": 3201, "fac": 3202, "charge": 3203, "EXTRA_MESSAGE": 3204, "NA": 3205, "dim": 3206, "minute": 3207, "metadata": 3208, "Sy": 3209, "window": 3210, "Sets": 3211, "(id": 3212, "hand": 3213, "velo": 3214, "itical": 3215, "ference": 3216, "Ass": 3217, "(fields=str": 3218, "T_CONTACT": 3219, "ie": 3220, "both": 3221, "ties": 3222, "unch": 3223, "(keyword": 3224, "_payment": 3225, "=obj!": 3226, "income": 3227, "United": 3228, "intent": 3229, "s=arr!)": 3230, "lon": 3231, "uild": 3232, "math.": 3233, "times": 3234, "Art": 3235, "(country=str": 3236, "modify": 3237, "smart": 3238, "Study": 3239, "hy": 3240, "cop": 3241, "Computes": 3242, "plate": 3243, "ood": 3244, "ological": 3245, "la": 3246, "Ob": 3247, "dustr": 3248, "E_": 3249, "most": 3250, "IP_": 3251, "(limit=int": 3252, "orld": 3253, "eval": 3254, "ross": 3255, "eration": 3256, "alty": 3257, "TV": 3258, "article": 3259, "ics.": 3260, "(action": 3261, "flow": 3262, "contract": 3263, "learning": 3264, "ene": 3265, "ension": 3266, "States": 3267, "eries": 3268, "older": 3269, "commun": 3270, "quarter": 3271, "information.": 3272, "Remo": 3273, "icket": 3274, "mime_type=str!)": 3275, "convert": 3276, "ugh": 3277, "office": 3278, "Fr": 3279, "Cl": 3280, "sty": 3281, "mand": 3282, "uture": 3283, "pack": 3284, "ursor": 3285, "moisture": 3286, "CR": 3287, "craft": 3288, "sw": 3289, "ermin": 3290, "audience": 3291, "unique": 3292, "OP": 3293, "Control": 3294, "cleaning": 3295, "ACTION_VIDEO_CAPTURE": 3296, "Mod": 3297, "gress": 3298, "url=str)": 3299, "LIS": 3300, "storage": 3301, "vessel": 3302, "land": 3303, "SKIP_": 3304, "wash": 3305, "words": 3306, "completed": 3307, "URI.": 3308, "enu": 3309, "olid": 3310, "meditation": 3311, "sites": 3312, "chemical": 3313, "offee": 3314, "evalu": 3315, "Code": 3316, "scheduled": 3317, "cloud": 3318, "(contact_uri": 3319, "amples": 3320, "branch": 3321, "name.": 3322, "_k": 3323, "getE": 3324, "flu": 3325, "rain": 3326, "body=str!": 3327, "ound": 3328, "ACTION_IN": 3329, "space": 3330, "max_": 3331, "accel": 3332, "ACTION_INSER": 3333, "bum": 3334, "EXTRA_SKIP_": 3335, "EXTRA_SKIP_UI": 3336, "hib": 3337, "longest": 3338, "(contact_info": 3339, "Tik": 3340, "_mode": 3341, "participant": 3342, "Run": 3343, "intensity": 3344, "AB": 3345, "ental": 3346, "scor": 3347, "schedule_": 3348, "DAY": 3349, "ease": 3350, "(color": 3351, "_item": 3352, "ggle": 3353, "cc=str": 3354, "'?": 3355, "atell": 3356, "frequency": 3357, "party": 3358, "tank": 3359, "plex": 3360, "contacts": 3361, "expense": 3362, "compose": 3363, "TikTok": 3364, "prices": 3365, "is_valid": 3366, "ires": 3367, "_card": 3368, "control": 3369, "attachments=arr!": 3370, "quest": 3371, "Dec": 3372, "rece": 3373, "ocation": 3374, "toggle": 3375, "aint": 3376, "ember": 3377, "integers.": 3378, "grocery": 3379, "ries": 3380, "financial": 3381, "(attachments=arr!": 3382, "DF": 3383, "_speed": 3384, "traffic": 3385, "ling": 3386, "degre": 3387, "fieldsOf": 3388, "fieldsOfStudy": 3389, "rot": 3390, "_area": 3391, "cover": 3392, "_value": 3393, "sales": 3394, "industr": 3395, "LIST_": 3396, "fee": 3397, "issues": 3398, "USD": 3399, "(allow_multiple": 3400, "(allow_multiple=bool": 3401, "ays": 3402, "_name=str)": 3403, "(product": 3404, "Y_": 3405, "ren": 3406, "was": 3407, "(event": 3408, "humidity": 3409, "OpenAccess": 3410, "subject=str!)": 3411, "lang=str": 3412, "year.\\n\\n": 3413, "_group": 3414, "tldr": 3415, "isOpenAccess": 3416, "uring": 3417, "_id=int)": 3418, "quir": 3419, "images": 3420, "recipe": 3421, "authenticate": 3422, ".\\n\\nArgs": 3423, "ergy": 3424, "treat": 3425, "predict": 3426, "(enabled": 3427, "future": 3428, "Clo": 3429, "server": 3430, "expir": 3431, "airport": 3432, "Micro": 3433, "acceleration": 3434, "-time": 3435, "travel": 3436, "subscription": 3437, "mate": 3438, "_sc": 3439, "(cl": 3440, "Pause": 3441, "start_date=str!)": 3442, "depend": 3443, "phys": 3444, "EXTRA_MESSAGE=str": 3445, "EXTRA_SKIP_UI=bool!": 3446, "ering": 3447, "medical": 3448, "ademic": 3449, "phrase": 3450, "hot": 3451, "helps": 3452, "y.": 3453, "IE": 3454, "Smith": 3455, "give": 3456, "descending": 3457, "credit": 3458, "CO": 3459, "(date=str": 3460, "time_period=str)": 3461, "stamp": 3462, "restriction": 3463, "tein": 3464, "(a": 3465, "Est": 3466, "ars": 3467, "calcul": 3468, "_amount": 3469, "ways": 3470, "xiv": 3471, "irth": 3472, "_id=int!": 3473, "EMA": 3474, "xiv.org": 3475, "_by_id": 3476, "igital": 3477, "reference": 3478, "AN": 3479, "density": 3480, "SMS": 3481, "_sub": 3482, "(employee": 3483, "associ": 3484, "AI": 3485, "pect": 3486, "neur": 3487, "Pol": 3488, "style": 3489, "pan": 3490, "ters": 3491, "effic": 3492, "keywords": 3493, "standings": 3494, "mission": 3495, "payment_method": 3496, "EMAIL": 3497, "egr": 3498, "Email": 3499, "compliance": 3500, "(ip": 3501, "ku": 3502, "leg": 3503, "getW": 3504, "integr": 3505, "actor": 3506, "own": 3507, "confirmation": 3508, "I’": 3509, "numer": 3510, "via": 3511, "endDate": 3512, "study": 3513, "plic": 3514, "represent": 3515, "purchase": 3516, "PDF": 3517, "getIn": 3518, "uration": 3519, "weekly": 3520, "find_m": 3521, "y|": 3522, "prefix": 3523, "client": 3524, "album": 3525, "type=str)": 3526, "called": 3527, "ividend": 3528, "English": 3529, "lines": 3530, "(category=str": 3531, "through": 3532, "disable": 3533, "structure": 3534, "variant": 3535, "TS": 3536, "connect": 3537, "ergency": 3538, "bedroom": 3539, "associated": 3540, "rix": 3541, "matic": 3542, "estimated": 3543, "lead": 3544, "TA": 3545, "inj": 3546, "elig": 3547, "pre-filled": 3548, "zon": 3549, "Des": 3550, "cryptocurrency": 3551, "getT": 3552, "Weather": 3553, "cooking": 3554, "Ph": 3555, "ogle": 3556, "(message": 3557, "complex": 3558, "Last": 3559, "encies": 3560, "(limit": 3561, "Enable": 3562, "changes": 3563, "degrees": 3564, "(name=str!)": 3565, "December": 3566, "sports": 3567, "Paris": 3568, "Read": 3569, "_address": 3570, "seconds": 3571, "Fl": 3572, "lobal": 3573, "dialer": 3574, "andid": 3575, "Fir": 3576, "tual": 3577, "ump": 3578, "Dr": 3579, "asset": 3580, "(num=int)": 3581, "statist": 3582, "Specific": 3583, "atellite": 3584, "erve": 3585, "status=enum(": 3586, "disp": 3587, "_url": 3588, "(s).": 3589, "error": 3590, "collection": 3591, "arri": 3592, "state=enum(on|off)!)": 3593, "City": 3594, "main": 3595, "still": 3596, "ismic": 3597, "overn": 3598, "type(s).": 3599, "year=str!)": 3600, "acci": 3601, "bonacci": 3602, "Fe": 3603, "ended": 3604, "bill": 3605, "pound": 3606, "alance": 3607, "floor": 3608, "ummary=str!)": 3609, "year.": 3610, "only": 3611, "_number=str!": 3612, "Aug": 3613, "(text=str)": 3614, "me?": 3615, "cho": 3616, "key=str!": 3617, "scan": 3618, "final": 3619, "lev": 3620, "trip": 3621, "validate": 3622, "cation": 3623, "years.": 3624, "free": 3625, "Energy": 3626, "ted": 3627, "iment": 3628, "ibr": 3629, "Product": 3630, "Go": 3631, "translate": 3632, "activ": 3633, "nam": 3634, "imate": 3635, "watering": 3636, "ec": 3637, "heart": 3638, "Remove": 3639, "etic": 3640, "remove": 3641, "monitor": 3642, "_rate=num": 3643, "sed": 3644, "sage": 3645, "transfer_to_": 3646, "ais": 3647, "urrency": 3648, "(destination=str!": 3649, "On": 3650, "ced": 3651, "titude": 3652, "ZIP": 3653, "services": 3654, "deployment": 3655, "evidence": 3656, "name=str": 3657, "titled": 3658, "warm": 3659, "ilar": 3660, "pact": 3661, "Dep": 3662, "icture": 3663, "(latitude": 3664, "Object": 3665, "Sc": 3666, "aries": 3667, "anufact": 3668, "SetLights": 3669, "rome": 3670, "videos": 3671, "system.": 3672, "reverse": 3673, "Bluetooth": 3674, "scores": 3675, "(ip=str)": 3676, "below": 3677, "assistance": 3678, "_history": 3679, "TR": 3680, "all_": 3681, "train": 3682, "save": 3683, "description=str!": 3684, "shipping": 3685, "History": 3686, "utils.": 3687, "assist": 3688, "identifier": 3689, "period.": 3690, "ten": 3691, "Alert": 3692, "loyalty": 3693, "pression": 3694, "cancel_": 3695, "August": 3696, "mil": 3697, "Index": 3698, "course": 3699, "dec": 3700, "return.": 3701, "defin": 3702, "always": 3703, "TO": 3704, "ividual": 3705, "ful": 3706, "status.": 3707, "sha": 3708, "when": 3709, "token": 3710, "Meeting": 3711, "uch": 3712, "larg": 3713, "pharm": 3714, "values": 3715, "(sensor": 3716, "(area": 3717, "resource": 3718, "progress": 3719, "hashtag": 3720, "ifact": 3721, "micro": 3722, "_a": 3723, "(count": 3724, "law": 3725, "First": 3726, "zo": 3727, "Accept": 3728, "velop": 3729, "df": 3730, "Pat": 3731, "device.": 3732, "(numbers": 3733, "Converts": 3734, "ince": 3735, "lookup": 3736, "TIME=str": 3737, "membership": 3738, "logs": 3739, "foot": 3740, "digital": 3741, "individual": 3742, "ets": 3743, "stats": 3744, "redi": 3745, "playing": 3746, "personal": 3747, "(al": 3748, "coin": 3749, "Act": 3750, "Air": 3751, "provides": 3752, "Temperature": 3753, "recipients": 3754, "ingredi": 3755, "wid": 3756, "life": 3757, "uistics": 3758, "ale": 3759, "MIN": 3760, "(company": 3761, "rg": 3762, "MP": 3763, "zes": 3764, "cer": 3765, "_year": 3766, "start_time": 3767, "early": 3768, "(customer_id=str!": 3769, "lights.set": 3770, "ved": 3771, "delete_": 3772, "y_": 3773, "mail": 3774, "side": 3775, "incident": 3776, "levels": 3777, "photos": 3778, "potential": 3779, "holid": 3780, "dam": 3781, "(e.g.": 3782, "Tokyo": 3783, "alse": 3784, "_category": 3785, "notification": 3786, "for.\\n\\n": 3787, "details.": 3788, "bor": 3789, "=obj!)": 3790, "id=int)": 3791, "rig": 3792, "user_id": 3793, "elements": 3794, "factorial": 3795, "Escal": 3796, "hipment": 3797, "real-time": 3798, "arxiv.org": 3799, "CE": 3800, "ified": 3801, "effect": 3802, "_CONTACT": 3803, "Modify": 3804, "gas": 3805, "_schedule": 3806, "same": 3807, "Request": 3808, "survey": 3809, "Microsoft": 3810, "matrix": 3811, "units": 3812, "Result": 3813, "configuration": 3814, "VI": 3815, "urb": 3816, "disease": 3817, "min_": 3818, "(address": 3819, "Hand": 3820, "Tri": 3821, "from_": 3822, "cir": 3823, "players": 3824, "options.": 3825, "coding": 3826, "returned": 3827, "cell": 3828, "description=str": 3829, "download": 3830, "JS": 3831, "|blue": 3832, "automatic": 3833, "sv": 3834, "planning": 3835, "mem": 3836, "fre": 3837, "wind": 3838, "anagram": 3839, "add_": 3840, "(speed": 3841, "directory": 3842, "urg": 3843, "_sum": 3844, "three": 3845, "Net": 3846, "potify": 3847, "_token": 3848, "coverage": 3849, "register": 3850, "them": 3851, "Down": 3852, "Lastly": 3853, "lower": 3854, "feedback": 3855, "QR": 3856, "get.": 3857, "enses": 3858, "snippets": 3859, "ng": 3860, "Reg": 3861, "grid": 3862, "_types": 3863, "|green": 3864, "numerical": 3865, "assign": 3866, "election": 3867, "palind": 3868, "IEW": 3869, "(key=str!": 3870, "gor": 3871, "etes": 3872, "(order_id=str!)": 3873, "treatment": 3874, "eligibility": 3875, "see": 3876, "wel": 3877, "title=str)": 3878, "scre": 3879, "usive": 3880, "(nums=arr)": 3881, "guid": 3882, "Predict": 3883, "Digital": 3884, "stage": 3885, "Place": 3886, "strateg": 3887, "mediate": 3888, "human_": 3889, "safety": 3890, "/v": 3891, "CONT": 3892, "translation": 3893, "listed": 3894, "Team": 3895, "nearest": 3896, "quarterly": 3897, "picture": 3898, "manufact": 3899, "lient": 3900, "cus": 3901, "conom": 3902, "_mon": 3903, "results.": 3904, "patient_id=str!)": 3905, "bat": 3906, "mass": 3907, "it's": 3908, "validation": 3909, "identify": 3910, "shop": 3911, "maximum": 3912, "Auth": 3913, "profit": 3914, "dynam": 3915, "|f": 3916, "RO": 3917, "I'd": 3918, "Beg": 3919, "AAP": 3920, "comments": 3921, "Comput": 3922, "Tech": 3923, "(days": 3924, "suggestions": 3925, "gorith": 3926, "TES": 3927, "Graph": 3928, "industry": 3929, "hor": 3930, "Sim": 3931, "ethics": 3932, "minimum": 3933, "quotes": 3934, "AAPL": 3935, "(end_date=str!": 3936, "azz": 3937, "exhib": 3938, "query=str)": 3939, "capt": 3940, "menu": 3941, "town": 3942, "_report": 3943, "virtual": 3944, "velopment": 3945, "orders": 3946, "Validate": 3947, "driver": 3948, "emergency": 3949, "short": 3950, "Robot": 3951, "STAT": 3952, "Initiates": 3953, "getV": 3954, "json": 3955, "amily": 3956, "false": 3957, "edit": 3958, "alog": 3959, "allowing": 3960, "update_": 3961, "CK_": 3962, "Type=enum(": 3963, "screens": 3964, "tics": 3965, "posts": 3966, "rank": 3967, "defect": 3968, "medication": 3969, "Transfer": 3970, "(summary=str!)": 3971, "Ling": 3972, "fixed": 3973, "timestamp": 3974, "width": 3975, "JSON": 3976, "Tw": 3977, "erc": 3978, "level.": 3979, "(book": 3980, "first_name": 3981, "gene": 3982, "Acme": 3983, "doi": 3984, "_location": 3985, "ports": 3986, "'t": 3987, "Alice": 3988, "seismic": 3989, "mun": 3990, "artwork": 3991, "prem": 3992, "psych": 3993, "(duration_minutes": 3994, "Hello": 3995, "jazz": 3996, "annual_": 3997, "ae": 3998, "ision": 3999, "pop": 4000, "hav": 4001, "transfer_to_human_": 4002, "ey": 4003, "w.": 4004, "direction": 4005, "interface": 4006, "coffee": 4007, "legal": 4008, "upper": 4009, "neuron": 4010, "LL_": 4011, "rock": 4012, "series": 4013, "sensor.": 4014, "registr": 4015, "|s": 4016, "cri": 4017, "agno": 4018, "(location=str": 4019, "Stats": 4020, "less": 4021, "ticker=str!)": 4022, "Contact": 4023, "DNA": 4024, "Linguistics": 4025, "liz": 4026, "region.": 4027, "unit=str)": 4028, "ji": 4029, "q=str)": 4030, "omet": 4031, "Qual": 4032, "matching": 4033, "endpoint.": 4034, "ACTION_GET_CONT": 4035, "seg": 4036, "_user": 4037, "finance": 4038, "motor": 4039, "deviation": 4040, "_service": 4041, "ashion": 4042, "_title": 4043, "rooms": 4044, "null": 4045, "inner": 4046, "todo": 4047, "wifi": 4048, "ternal": 4049, "Policy": 4050, "PI": 4051, "GB": 4052, "getR": 4053, "proto": 4054, "chart": 4055, "_module.": 4056, "ablish": 4057, "gger": 4058, "page=int": 4059, "strength": 4060, "ursor=str": 4061, "ACTION_VIEW": 4062, "inclusive": 4063, "ACTION_GET_CONTENT": 4064, "emon": 4065, "books": 4066, "bound": 4067, "many": 4068, "(title=str!)": 4069, "categ": 4070, "pattern": 4071, "TILL_": 4072, "TILL_IMAGE": 4073, "clin": 4074, "login": 4075, "Campaign": 4076, "Escalate": 4077, "identity": 4078, "INTENT_ACTION_S": 4079, "INTENT_ACTION_STILL_IMAGE": 4080, "INTENT_ACTION_STILL_IMAGE_CAMERA": 4081, "gather": 4082, "open-": 4083, "_model": 4084, "_profile": 4085, "artifact": 4086, "Display": 4087, "mut": 4088, "member": 4089, "Review": 4090, "satellite": 4091, "zone=str!)": 4092, "_code=str": 4093, "'d": 4094, "wever": 4095, "providing": 4096, "_price": 4097, "Analyzes": 4098, "_id=int": 4099, "ifies": 4100, "been": 4101, "authentication": 4102, "ton": 4103, "mood": 4104, "writ": 4105, "ix": 4106, "enef": 4107, "api.": 4108, "memos": 4109, "entials": 4110, "postal": 4111, "(enabled=bool!)": 4112, "ACTION_VIEW_CONTACT": 4113, "bit": 4114, "ilities": 4115, "vious": 4116, "mess": 4117, "shar": 4118, "last_name": 4119, "appli": 4120, "(condition": 4121, "ography": 4122, "license": 4123, "filters": 4124, "symbol=str!)": 4125, "well": 4126, "subscri": 4127, "resources": 4128, "lay": 4129, "promo": 4130, "lind": 4131, "starts": 4132, "_city": 4133, "(hours": 4134, "while": 4135, "protein": 4136, "Begin": 4137, "ell": 4138, "Each": 4139, "priate": 4140, "countdown": 4141, "News": 4142, "ether": 4143, "appropriate": 4144, "basic": 4145, "cities": 4146, "(include": 4147, "getLibrary": 4148, "gorithm": 4149, "open-ended": 4150, "alk": 4151, "nia": 4152, "Research": 4153, "ogram": 4154, "web_search": 4155, "values.": 4156, "(initial": 4157, "plies": 4158, "pdf": 4159, "So": 4160, "_deviation": 4161, "uel": 4162, "park": 4163, "generate_": 4164, "Price": 4165, "capacity": 4166, "Design": 4167, "stant": 4168, "corp": 4169, ".rg": 4170, "brow": 4171, "celsius": 4172, "Fil": 4173, "folio": 4174, "environmental": 4175, "Associ": 4176, "Accepts": 4177, "watch": 4178, "optimize": 4179, "Identifier": 4180, "world": 4181, "Examples": 4182, "straint": 4183, "spection": 4184, "avor": 4185, "_pap": 4186, "Plan": 4187, "color=enum(": 4188, "pump": 4189, "(inclusive": 4190, "reated": 4191, "plicate": 4192, "_month": 4193, "(inclusive)": 4194, "treated": 4195, "Sk": 4196, "code.": 4197, "vector": 4198, "ALARM": 4199, "however": 4200, "IT": 4201, "/N": 4202, "gall": 4203, "Logs": 4204, "ET": 4205, "My": 4206, "ifor": 4207, "pok": 4208, "format.\\n": 4209, "year.\\n": 4210, "RATE": 4211, "filter\\n": 4212, "present.\\n": 4213, "TIMER": 4214, "publicationDate.": 4215, "ranges.\\n": 4216, "<startDate": 4217, "shorth": 4218, "expiration": 4219, "<endDate": 4220, "prefixes": 4221, "previous": 4222, "(inclusive).\\n": 4223, "treated\\n": 4224, "ifornia": 4225, "<startDate>": 4226, "shorthand": 4227, "<endDate>": 4228, "sell": 4229, "(date=str)": 4230, "brew": 4231, "may": 4232, "ead": 4233, "/ab": 4234, "paper_id": 4235, "insert": 4236, "_distance": 4237, "pressure": 4238, "deploy": 4239, "healthcare": 4240, "quirer": 4241, "external": 4242, "Association": 4243, "itter": 4244, "write": 4245, "OPEN": 4246, "around": 4247, "Eth": 4248, "diab": 4249, "/Med": 4250, "HOUR": 4251, "_quality": 4252, "draft": 4253, "Map": 4254, "ike": 4255, "\\nSearch": 4256, "languages": 4257, "file_path": 4258, "Academic": 4259, "premium": 4260, "l.": 4261, "mag": 4262, "process.": 4263, "Thank": 4264, "transactions": 4265, "(claim": 4266, "to_": 4267, "pag": 4268, "prec": 4269, "simul": 4270, "sumption": 4271, "arX": 4272, "current_": 4273, "verify_": 4274, "//arxiv.org": 4275, "Computational": 4276, "/abs/": 4277, "arXiv": 4278, "//arxiv.org/abs/": 4279, "ony": 4280, "\\nGet": 4281, "s=int)": 4282, "strong": 4283, "approval": 4284, "placement": 4285, "pric": 4286, "<url": 4287, "(n=int)": 4288, "impact": 4289, "<sha": 4290, "<doi": 4291, "aef": 4292, "duplicate": 4293, "PubMed/Med": 4294, "arXiv.rg": 4295, "<url>": 4296, "<sha>": 4297, "<doi>": 4298, "b\\n": 4299, "PubMed/Medline": 4300, "aster": 4301, "type=enum(": 4302, "film": 4303, "prime": 4304, "CHE": 4305, "nearby": 4306, "department": 4307, "animal": 4308, "critical": 4309, "Estimate": 4310, "www.": 4311, "uf": 4312, "host": 4313, "(artist": 4314, "xy": 4315, "es=int": 4316, "(contact": 4317, "author's": 4318, "_string": 4319, "chedules": 4320, "holidays": 4321, "emp": 4322, "Stand": 4323, "(domain": 4324, "whether": 4325, "adv": 4326, "fare": 4327, "App": 4328, "Google": 4329, "text=str!)": 4330, "(base": 4331, "EVENT": 4332, "Requires": 4333, "prove": 4334, "Sup": 4335, "sci": 4336, "(username=str)": 4337, "compound": 4338, "education": 4339, "_count": 4340, "compare": 4341, "Respon": 4342, "Lon": 4343, "vertis": 4344, "(booking": 4345, "ACTION_GET_RINGTONE": 4346, "receiv": 4347, "relev": 4348, "comput": 4349, "raphic": 4350, "question": 4351, "TC": 4352, "Min": 4353, "Mem": 4354, "transport": 4355, "pending": 4356, "morning": 4357, "(s)": 4358, "=float!": 4359, "diabetes": 4360, "iat": 4361, "entist": 4362, "again": 4363, "isine": 4364, "trending": 4365, "(action=enum(": 4366, "STATUS": 4367, "constraint": 4368, "_for": 4369, "device's": 4370, "distr": 4371, "constru": 4372, "good": 4373, "ensit": 4374, "solution": 4375, "Validates": 4376, "folder": 4377, "I’m": 4378, "andidate": 4379, "Br": 4380, "seat": 4381, "steps": 4382, "PO": 4383, "R_": 4384, "dock": 4385, "skill": 4386, "CATION": 4387, "cases": 4388, "distrib": 4389, "DB": 4390, "MO": 4391, "lin": 4392, "Web": 4393, "wa": 4394, "getPh": 4395, "climate": 4396, "Response": 4397, "gn": 4398, "Hum": 4399, "ving": 4400, "citation": 4401, "(appointment": 4402, "IG": 4403, "ivers": 4404, "filing": 4405, "properties": 4406, "capturing": 4407, "bn": 4408, "adline": 4409, "Media": 4410, "(user_id=str!)": 4411, "cards": 4412, "Number=str!)": 4413, "ABC": 4414, "Deploy": 4415, "iency": 4416, "Quality": 4417, "pg": 4418, "EG": 4419, "ket": 4420, "compet": 4421, "ropoff": 4422, "assessment": 4423, "establish": 4424, "(category=enum(": 4425, "Initiate": 4426, "clinical": 4427, "OPEN_": 4428, "ler": 4429, "trading": 4430, "time=num)": 4431, "olve": 4432, "mob": 4433, "rower": 4434, "games": 4435, "(experiment": 4436, "enroll": 4437, "UTES": 4438, "browser": 4439, "rat": 4440, "(day": 4441, "izz": 4442, "mult": 4443, "ground": 4444, "median": 4445, "ilos": 4446, "copy": 4447, "say": 4448, "itect": 4449, "admin": 4450, "provider": 4451, "text.": 4452, "ACTION_SET_ALARM": 4453, "against": 4454, "c.": 4455, "SH": 4456, "(check": 4457, "POR": 4458, "_population": 4459, "timeframe": 4460, "Provide": 4461, "Location": 4462, "memory": 4463, "MINUTES": 4464, "ilosop": 4465, "l=str": 4466, "to.": 4467, "rates": 4468, "excl": 4469, "atabase": 4470, "adjust_": 4471, "container": 4472, "preferred": 4473, "hr": 4474, "N.": 4475, "passeng": 4476, "Ticket": 4477, "physical": 4478, "EXTRA_HOUR": 4479, "EXTRA_MINUTES": 4480, "nut": 4481, "tage": 4482, "Stre": 4483, "missing": 4484, "year=int!)": 4485, "feeding": 4486, "Download": 4487, "rout": 4488, "abc": 4489, "cup": 4490, "zone.": 4491, "LE_": 4492, "ethical": 4493, "deposit": 4494, "Gets": 4495, "clean": 4496, "(activity": 4497, "software": 4498, "Flag": 4499, "Spotify": 4500, "jur": 4501, "duration.": 4502, "dict": 4503, "countries": 4504, "demo": 4505, "perfect": 4506, "role": 4507, "AA": 4508, "to-": 4509, "emails": 4510, "break": 4511, "characters": 4512, "EDI": 4513, "extension": 4514, "econom": 4515, "empty": 4516, "vin": 4517, "sun": 4518, "aging": 4519, "remaining": 4520, "calibr": 4521, "expenses": 4522, "chat": 4523, "asc": 4524, ".search": 4525, "Assess": 4526, "uid": 4527, "tock": 4528, "share": 4529, "_weight": 4530, "_code=str!)": 4531, "package": 4532, "cogn": 4533, "istent": 4534, "casting": 4535, "Employee": 4536, "ermine": 4537, "_utils.": 4538, "W_": 4539, "ape": 4540, "ift": 4541, "pha": 4542, "utical": 4543, "(url=str)": 4544, "independ": 4545, "p|": 4546, "appe": 4547, "lists": 4548, "cult": 4549, "stick": 4550, "(s=str)": 4551, "(is_id=str": 4552, "CH_": 4553, "pH": 4554, "play_": 4555, "(content": 4556, "node": 4557, "weather.": 4558, "rovert": 4559, "scale": 4560, "ographic": 4561, ".t": 4562, "qr": 4563, "ople": 4564, "across": 4565, "ya": 4566, "tool": 4567, "alle": 4568, "Test": 4569, "permit": 4570, "batch": 4571, "creation": 4572, "crop": 4573, "(password": 4574, "eral": 4575, "ones": 4576, "_sy": 4577, "needs": 4578, "Experi": 4579, "(lat": 4580, "diagno": 4581, "messages": 4582, "tok": 4583, "siz": 4584, "transit": 4585, "(text=str!)": 4586, "(message=str!": 4587, "similar": 4588, "segment": 4589, "gallery": 4590, "ales": 4591, "found": 4592, "value.": 4593, "engine.": 4594, "exec": 4595, "a@": 4596, "No": 4597, "opens": 4598, "attend": 4599, "Inventory": 4600, "Doe": 4601, "mobile": 4602, "tain": 4603, "Detect": 4604, "_element": 4605, "immediate": 4606, "ulty": 4607, "stations": 4608, "filtering": 4609, "Analysis": 4610, "_income": 4611, "plier": 4612, "electric": 4613, "aceutical": 4614, "portion": 4615, "checkout": 4616, "_palind": 4617, "apter": 4618, "workout": 4619, "Law": 4620, "purifier": 4621, "trials": 4622, "(engine": 4623, "govern": 4624, "dosage": 4625, "leap": 4626, "All": 4627, "football": 4628, "portfolio": 4629, "Speed": 4630, "(annual_": 4631, "transfer_to_human_agent": 4632, "ican": 4633, "rediction": 4634, "apacity": 4635, "protocol": 4636, "London": 4637, "ACTION_EDI": 4638, "code=str)": 4639, "phone_number=str!)": 4640, "keyword.": 4641, "TLE": 4642, "source_": 4643, "intake": 4644, "start_date=str)": 4645, "J.": 4646, "country=str": 4647, "(author=str": 4648, "DAYS": 4649, "bact": 4650, "time=str)": 4651, "(word": 4652, "initi": 4653, "_hours": 4654, "ringtone.": 4655, "mpto": 4656, "making": 4657, "blockchain": 4658, "(numbers=arr)": 4659, "ACTION_EDIT_CONTACT": 4660, "(user": 4661, "indic": 4662, "(new": 4663, "_cast": 4664, "posal": 4665, "atures": 4666, "methods": 4667, "(contact_uri=str!)": 4668, "red|green": 4669, "exerc": 4670, "multil": 4671, "allet": 4672, "resume": 4673, "wire": 4674, "evaluate": 4675, "ACTION_SET_TIMER": 4676, "EXTRA_DAYS": 4677, "sl": 4678, "Gr": 4679, "voter": 4680, "URIs": 4681, "-term": 4682, "database.": 4683, "(name=str)": 4684, "CHECK_": 4685, "ficulty": 4686, "uum": 4687, "graphic": 4688, "file(s)": 4689, "multilple": 4690, "’s": 4691, "Man": 4692, "specify": 4693, "contin": 4694, "odes": 4695, "intern": 4696, "Handle": 4697, "PICK": 4698, "LOCATION": 4699, "voltage": 4700, "eter": 4701, "key=str!)": 4702, "atten": 4703, "selecting": 4704, "director": 4705, "consult": 4706, "aintenance": 4707, "instance": 4708, "INTENT_ACTION_VIDEO": 4709, "birth": 4710, "pokemon": 4711, "INTENT_ACTION_VIDEO_CAMERA": 4712, "|S": 4713, "_water": 4714, "(email=str)": 4715, "SCR": 4716, "ations.": 4717, "iture": 4718, "angu": 4719, "calendar.": 4720, "_session": 4721, "ensions": 4722, "(tracking": 4723, "preferences": 4724, ".j": 4725, "peak": 4726, "buy": 4727, "connection": 4728, "lets": 4729, "trends": 4730, "FI": 4731, "diet": 4732, "facility": 4733, "ACTION_INSERT_CONTACT": 4734, "|E": 4735, "format=enum(": 4736, "walk": 4737, "May": 4738, "tive": 4739, "ables": 4740, "court": 4741, "locale": 4742, "(symbol=str)": 4743, "people": 4744, "s?": 4745, "clust": 4746, "patient_id=str!": 4747, "entry": 4748, "Library": 4749, "ACTION_OPEN_": 4750, "FT": 4751, "PS": 4752, "get_contact_info_from": 4753, "Edit": 4754, "EXTRA_RINGTONE": 4755, "System": 4756, "assistant": 4757, "get_contact_info_from_uri": 4758, "BO": 4759, "ula": 4760, "Coun": 4761, "_time=str": 4762, "_test": 4763, "Config": 4764, "_square": 4765, "catalog": 4766, "IM": 4767, "s|": 4768, "poly": 4769, "_roll": 4770, "john": 4771, "formatted": 4772, "Database": 4773, "Nature": 4774, "atory": 4775, "nitude": 4776, "search_location": 4777, "tier=enum(": 4778, "criteria.": 4779, "represented": 4780, "injas": 4781, "nor": 4782, "mean": 4783, "ili": 4784, "road": 4785, "phone_number=str!": 4786, "selecte": 4787, "devices": 4788, "picker.": 4789, "_investment": 4790, "global": 4791, "romic": 4792, "ycle": 4793, "reservation_id=str!)": 4794, "_color": 4795, "ly.": 4796, "(player": 4797, "merge": 4798, "Jane": 4799, "establishment": 4800, "vacuum": 4801, "Evalu": 4802, "----": 4803, "closed": 4804, "dynamics": 4805, "ACTION_PICK": 4806, "least": 4807, "IN_": 4808, "(analysis": 4809, "num_years=int)": 4810, "expect": 4811, "BRATE": 4812, "race": 4813, "Ama": 4814, "substation": 4815, ".get": 4816, "nums": 4817, "Ins": 4818, "_common": 4819, "management": 4820, "rotation": 4821, "registered": 4822, "(engine=str": 4823, "ster": 4824, "Bre": 4825, "light_": 4826, "File": 4827, "upload": 4828, "(flag": 4829, "ALL_": 4830, "(name=str!": 4831, "advertis": 4832, "_t": 4833, "desired": 4834, "Look": 4835, "Authent": 4836, "tiliz": 4837, "getN": 4838, "Cel": 4839, "display": 4840, "patents": 4841, "linear": 4842, "convers": 4843, "EXTRA_VI": 4844, "long-term": 4845, "EXTRA_VIBRATE": 4846, "getA": 4847, "choo": 4848, "they'd": 4849, "Instead": 4850, "ogg": 4851, "duration=str!)": 4852, "_rating": 4853, "(initial_name=str!": 4854, "c_": 4855, "Id=int!": 4856, "Prem": 4857, "alarms.": 4858, "skip": 4859, "large": 4860, "query=str!": 4861, "I'll": 4862, "haz": 4863, "consid": 4864, "to=arr!)": 4865, "SKU": 4866, "choose": 4867, "stro": 4868, "campaign.": 4869, "consent": 4870, "DP": 4871, "ret": 4872, "(current": 4873, "hosp": 4874, "ligence": 4875, "surance": 4876, "Compose": 4877, "correspon": 4878, "uilding": 4879, "Food": 4880, "(state=enum(on|off)!)": 4881, "mime_types": 4882, "sensit": 4883, "ACTION_OPEN_DOCUMENT": 4884, "Ninjas": 4885, "useum": 4886, "(brightness=int!": 4887, "measurement": 4888, "ascending": 4889, "phase": 4890, "recommendations": 4891, "inbox": 4892, "currencies": 4893, "reserve": 4894, "Experiment": 4895, "UN": 4896, "usion": 4897, "rib": 4898, "auto-": 4899, "specifications": 4900, "_photo": 4901, "PA": 4902, "neg": 4903, "tions": 4904, "Lists": 4905, "located": 4906, "titles": 4907, "visual": 4908, "SCRIP": 4909, "tour": 4910, "riend": 4911, "maj": 4912, "hits": 4913, "aff": 4914, "Water": 4915, "tickets": 4916, "meetings": 4917, "initial_": 4918, "Environment": 4919, "Translate": 4920, "Apply": 4921, "Power": 4922, "tical": 4923, "ALARMS": 4924, "csv": 4925, "TITLE": 4926, "sor": 4927, "ago": 4928, "Park": 4929, "Arch": 4930, "_from_": 4931, "sentiment": 4932, "distribution": 4933, "cos": 4934, "(temperature": 4935, "prink": 4936, "_forecast": 4937, "(genre": 4938, "conduct": 4939, "owner": 4940, "HOW_": 4941, "CS": 4942, "Sum": 4943, "fees": 4944, "ip_address": 4945, "Provides": 4946, "inspection": 4947, "iatric": 4948, "EXTRA_HOUR=int!": 4949, "EXTRA_MINUTES=int!": 4950, "(EXTRA_DAYS": 4951, "EXTRA_RINGTONE=str": 4952, "EXTRA_VIBRATE=bool)": 4953, "(EXTRA_DAYS=str": 4954, "SP": 4955, "lst": 4956, "expl": 4957, "order_id=str!)": 4958, "processing": 4959, "=obj)": 4960, "(season": 4961, "Service": 4962, "BCC": 4963, "bcc=str": 4964, "geographic": 4965, "SCRIPTION": 4966, "por": 4967, "lem": 4968, "every": 4969, "section": 4970, "meter": 4971, "Simul": 4972, "ives": 4973, "timezone": 4974, "Model": 4975, ".\\n\\nReturns": 4976, "interested": 4977, "looking": 4978, "Image": 4979, "Commun": 4980, "twe": 4981, "exper": 4982, "open_settings": 4983, "Med.": 4984, "feeder": 4985, "queue": 4986, "Additional": 4987, "E.g.": 4988, "venues=str)": 4989, "Engl.": 4990, "T_EVENT": 4991, "Amazon": 4992, "ed|": 4993, ".com/": 4994, "ilution": 4995, "statistics.": 4996, "Inquirer": 4997, "negative": 4998, "and_": 4999, "apply": 5000, "module.get_": 5001, "reviews": 5002, "(color=enum(": 5003, "(client": 5004, "urer": 5005, "Geo": 5006, "bio": 5007, "symbols": 5008, "leaning": 5009, "DESCRIPTION": 5010, "ript": 5011, "(end_date=str": 5012, "is_valid_": 5013, "(phone_number=str!)": 5014, "dash": 5015, "subst": 5016, "issing": 5017, "Form": 5018, "streaming": 5019, "ACTION_INSERT_EVENT": 5020, "bt": 5021, "dog": 5022, "_text": 5023, "limit=int)": 5024, "EXTRA_EVENT_B": 5025, "(contact_info=str!": 5026, "predict_": 5027, "dividend": 5028, "EVENT_LOCATION": 5029, "EGIN_": 5030, "ACTION_SHOW_": 5031, "EXTRA_EVENT_BEGIN_": 5032, "QU": 5033, "gon": 5034, "force": 5035, "report.": 5036, "standard|": 5037, "triangle": 5038, "damage": 5039, "ACTION_SHOW_ALARMS": 5040, "'re": 5041, "Tim": 5042, "(invoice": 5043, "Account": 5044, "recipes": 5045, "modification": 5046, "contact_uri=str!)": 5047, "get_user_": 5048, "pre-fill": 5049, "scene": 5050, "(contact_uri=str!": 5051, "Insert": 5052, "Togg": 5053, "thing": 5054, "indicator": 5055, "conting": 5056, "iments": 5057, "Size": 5058, "(app": 5059, "child": 5060, "followers": 5061, "evolution": 5062, "manag": 5063, "Cloud": 5064, "//www.": 5065, "REPOR": 5066, "chapter": 5067, "PR": 5068, "lor": 5069, "aste": 5070, "lete": 5071, "(image": 5072, "elines": 5073, "aircraft": 5074, "sympto": 5075, "instr": 5076, "Address": 5077, "achine": 5078, "addresses": 5079, "region=str": 5080, "applic": 5081, "EXTRA_EVENT_END_": 5082, "contingency": 5083, "fili": 5084, "sure": 5085, "hab": 5086, "(max": 5087, "grams": 5088, "pause_": 5089, "categories": 5090, "ids": 5091, "heet": 5092, "location=str)": 5093, "room|": 5094, "-api": 5095, "pull": 5096, "trade": 5097, "is_power": 5098, "pairs": 5099, "ivis": 5100, "analyze_": 5101, "(age=str!": 5102, "ographical": 5103, "improve": 5104, "corresponding": 5105, "Vol": 5106, "akes": 5107, "Customer": 5108, "\\n\\nReturns": 5109, "Celsius": 5110, "(k": 5111, "_of": 5112, "itions": 5113, "Optim": 5114, "check_b": 5115, "communication": 5116, "(such": 5117, "rigation": 5118, "California": 5119, "difficulty": 5120, "iqu": 5121, "bial": 5122, "WiFi": 5123, "parameter": 5124, "sources": 5125, "pin": 5126, "hard": 5127, "models": 5128, "experience": 5129, "(language=str": 5130, "|blue|": 5131, "ield": 5132, "archive": 5133, "gression": 5134, "(EXTRA_MESSAGE=str": 5135, "izza": 5136, "gage": 5137, "ifier.": 5138, "idential": 5139, "_document": 5140, "invest": 5141, "contains": 5142, "geocode": 5143, "size.": 5144, "rition": 5145, "zone=enum(": 5146, "symbol.": 5147, "airplan": 5148, "end_date=str!": 5149, "recommended": 5150, "Remind": 5151, "directions": 5152, "(contact_info=str!)": 5153, "arrival": 5154, "getEnergy": 5155, "(q=str)": 5156, "stre": 5157, "address)": 5158, "stock_": 5159, "page=int)": 5160, "standing": 5161, "_ride": 5162, "(country=str!)": 5163, "(endDate": 5164, "(label": 5165, "milk": 5166, "bacterial": 5167, "affili": 5168, "IDs.": 5169, "Amer": 5170, "_detail": 5171, "Counts": 5172, "ca": 5173, "aces": 5174, "release": 5175, "occurr": 5176, "radio": 5177, "torch": 5178, "batting": 5179, "anguage": 5180, "athlete": 5181, "project.": 5182, "_summary": 5183, "Results": 5184, "initial_velocity": 5185, "fast": 5186, "Information": 5187, "ccess": 5188, "another.": 5189, "(data_type=str)": 5190, "fuel": 5191, "na": 5192, "Pre": 5193, "emat": 5194, "lood": 5195, "Profile": 5196, "(note": 5197, "Doc": 5198, "target_audience": 5199, "_g": 5200, "If": 5201, "uit": 5202, "ensive": 5203, "due_date": 5204, "isdiction": 5205, "ingredient": 5206, "development": 5207, "popular": 5208, "persistent": 5209, "model=str": 5210, "unit=str": 5211, "dictionary": 5212, "headlines": 5213, "(include_": 5214, "instrument": 5215, "stic": 5216, "-value": 5217, "earning": 5218, "How": 5219, "square": 5220, "Score": 5221, "find_missing": 5222, "HT": 5223, "Sw": 5224, "ulting": 5225, "ensure": 5226, "click": 5227, "address.": 5228, "speech": 5229, "genetic": 5230, "manufacturer": 5231, "jurisdiction": 5232, "fill": 5233, "=float!)": 5234, "training": 5235, "(description=str": 5236, "downtown": 5237, "science": 5238, "ban": 5239, "icity": 5240, "Budget": 5241, "PLA": 5242, "=enum(low|medium|high))": 5243, "audit": 5244, "Fibonacci": 5245, "_token=str!": 5246, "ip-api": 5247, "ip-api.com": 5248, "zz": 5249, "spect": 5250, "_by_name": 5251, "(new_": 5252, "sentence": 5253, "modify_": 5254, "community": 5255, "replic": 5256, "prais": 5257, "ier": 5258, "resistance": 5259, "efficiency": 5260, "non-negative": 5261, "enter": 5262, "s=str!": 5263, "Dem": 5264, "format.": 5265, "assword": 5266, "integer.": 5267, "baseball": 5268, "normal": 5269, "reatest": 5270, "sous": 5271, "sender": 5272, "Bob": 5273, "top_": 5274, "updates": 5275, "Delivery": 5276, "usiness": 5277, "_growth": 5278, "havior": 5279, "Twitter": 5280, "mime_types=arr!)": 5281, "xt": 5282, "(setting": 5283, "getRe": 5284, "(brand": 5285, "getHealth": 5286, "iversity": 5287, "Ber": 5288, "anak": 5289, "actions": 5290, "SEAR": 5291, "Historical": 5292, "renew": 5293, "architect": 5294, "-to-": 5295, "EXTRA_EVENT_ALL_": 5296, "EXTRA_EVENT_ALL_DAY": 5297, "sid": 5298, "trend": 5299, "_temperature": 5300, "end_date": 5301, "open|": 5302, "use.": 5303, "Reserv": 5304, "Availability": 5305, "since": 5306, "ponsor": 5307, "ds": 5308, "aj": 5309, "query=str": 5310, "account.": 5311, "away": 5312, "things": 5313, "_size=int": 5314, "topic=str)": 5315, "what's": 5316, "theme": 5317, "tele": 5318, "region=str)": 5319, "_time=str!)": 5320, "launch": 5321, "fibonacci": 5322, "lex": 5323, "infl": 5324, "valve": 5325, "I've": 5326, "customer_id=str!": 5327, "topic=str!)": 5328, "ificial": 5329, "greater": 5330, "NS": 5331, "UP": 5332, "unk": 5333, "vide": 5334, "Pok": 5335, "set_temperature": 5336, "cancellation": 5337, "integers": 5338, "Auto": 5339, "organism": 5340, "(setting_type=str!)": 5341, "Ve": 5342, "ica": 5343, "cope": 5344, "_duration": 5345, "(city=str!": 5346, "_size=str": 5347, "configure": 5348, "general": 5349, "ref": 5350, "Out": 5351, "Job": 5352, "aterial": 5353, "round": 5354, "flags": 5355, "labor": 5356, "(dataset": 5357, "(path": 5358, "algorithm": 5359, "favor": 5360, "K_": 5361, "mom": 5362, "(case": 5363, "Green": 5364, "missions": 5365, "gender=str": 5366, "family": 5367, "enefits": 5368, "dentist": 5369, "Stock": 5370, "Premium": 5371, "CT": 5372, "ped": 5373, "quar": 5374, "Main": 5375, "Ang": 5376, "language=str!": 5377, "postcode": 5378, "hotel_": 5379, "digits": 5380, "getDr": 5381, "Network": 5382, "basket": 5383, "HS": 5384, "pract": 5385, "align": 5386, "geol": 5387, "shot": 5388, "EXTRA_EMAIL": 5389, "Techn": 5390, "search_pap": 5391, "(password=str": 5392, "Environmental": 5393, "mp": 5394, "Su": 5395, "target=int)": 5396, "payroll": 5397, "structural": 5398, "sort_numbers": 5399, "-minute": 5400, "(latitude=num!": 5401, "vation": 5402, "Pri": 5403, "age_": 5404, "routes": 5405, "video_": 5406, "session.": 5407, "bedroom|": 5408, "altitude": 5409, "fashion": 5410, "Toggle": 5411, "basketball": 5412, "ration": 5413, "dice": 5414, "ipal": 5415, "udi": 5416, "count_": 5417, "regul": 5418, "VIN": 5419, "(state": 5420, "vacy": 5421, "demand": 5422, "Feed": 5423, "CM": 5424, "rient": 5425, "backup": 5426, "DER": 5427, "finance.": 5428, "polygon": 5429, "Be": 5430, "oring": 5431, "aments": 5432, "Item": 5433, "Inter": 5434, "ongo": 5435, "(limit=int)": 5436, "BA": 5437, "meal": 5438, "river": 5439, "recurr": 5440, "(period": 5441, "stop_": 5442, "ACTION_SEND_": 5443, "(page=int)": 5444, "pagination": 5445, "BTC": 5446, "mits": 5447, "_pat": 5448, "ledge": 5449, "parking": 5450, "pharmacy": 5451, "YZ": 5452, "D)": 5453, "Mar": 5454, "Work": 5455, "get_ip_": 5456, "TITLE=str!)": 5457, "(DESCRIPTION": 5458, "(DESCRIPTION=str!": 5459, "date=str!": 5460, "_per": 5461, "(from": 5462, "-up": 5463, "observ": 5464, "_image": 5465, "clear": 5466, "_pair": 5467, "(access": 5468, "(episode": 5469, "Command": 5470, "EVENT_LOCATION=str": 5471, "EXTRA_EVENT_BEGIN_TIME=str": 5472, "EXTRA_EVENT_END_TIME=str": 5473, "EXTRA_EVENT_ALL_DAY=bool": 5474, "EXTRA_EMAIL=arr": 5475, "ipt": 5476, "_sh": 5477, "compan": 5478, "Player": 5479, "|other": 5480, "-hour": 5481, "supply": 5482, "Rest": 5483, "avig": 5484, "file.": 5485, "overall": 5486, "(num_": 5487, "sector": 5488, "sociology": 5489, "Post": 5490, "Bill": 5491, "genres": 5492, "patient_id": 5493, "documentation": 5494, "offset=int)": 5495, "(format=str": 5496, "graphy": 5497, "focus": 5498, "ilosophy": 5499, "pharmaceutical": 5500, "ogy": 5501, "later": 5502, "dispute": 5503, "consumption": 5504, "features": 5505, "museum": 5506, "OS": 5507, "rief": 5508, "_sort": 5509, "auto_": 5510, "analysis.": 5511, "simulation": 5512, "blinds": 5513, "Class": 5514, "Skip": 5515, "deadline": 5516, "AS": 5517, "s.get_": 5518, "abol": 5519, "Invoice": 5520, "(robot": 5521, "rules": 5522, "Ef": 5523, "itality": 5524, "geno": 5525, "Updates": 5526, "plant_name=str!)": 5527, "departure": 5528, "strategy": 5529, "permut": 5530, "histogram": 5531, "staff": 5532, "-S": 5533, "FO": 5534, "std": 5535, "_format": 5536, "callback": 5537, "end_date=str": 5538, "ural_": 5539, "vehicle_id=str!)": 5540, "origin=str!)": 5541, "credentials": 5542, "(room": 5543, "Proper": 5544, "visit": 5545, "League": 5546, "template": 5547, "switch": 5548, "rental": 5549, "registration": 5550, "trigger": 5551, "geographical": 5552, "x_": 5553, "than": 5554, "yout": 5555, "compens": 5556, "(channel": 5557, "Authenticate": 5558, "greatest": 5559, "Bl": 5560, "-day": 5561, "blu": 5562, "validation.": 5563, "paused": 5564, "Johnson": 5565, "geocoding": 5566, "ortgage": 5567, "uro": 5568, "Sign": 5569, "ERA": 5570, "_work": 5571, "_song": 5572, "employe": 5573, "coordinates.": 5574, "anced": 5575, "_monthly": 5576, "saying": 5577, "considering": 5578, "occurrences": 5579, "best": 5580, "category.": 5581, "_factor": 5582, "signific": 5583, "EDU": 5584, "decay": 5585, "relevant": 5586, "obtain": 5587, "Di": 5588, "idd": 5589, "remo": 5590, "(di": 5591, "specifically": 5592, "got": 5593, "Finance": 5594, "Compute": 5595, "hourly": 5596, "lst=arr)": 5597, "icies": 5598, "cription": 5599, "_percent": 5600, "(budget": 5601, "_availability": 5602, "mile": 5603, "_dividend": 5604, "olved": 5605, "NO": 5606, "room.": 5607, "track_": 5608, "(namespace": 5609, "lng": 5610, "Predicts": 5611, "_palindrome": 5612, "companies": 5613, "bluetooth": 5614, "s!": 5615, "ses": 5616, "_information": 5617, "paren": 5618, "grad": 5619, "amera": 5620, "example.com/": 5621, "contacts/": 5622, "symptoms": 5623, "parenthes": 5624, "calor": 5625, "title.": 5626, "compat": 5627, "(batch": 5628, "_sms": 5629, "Street": 5630, "ml": 5631, "Ger": 5632, "conse": 5633, "order_id=str!": 5634, "_return": 5635, "bank": 5636, "instru": 5637, "playlists": 5638, "_score": 5639, "authenticate_user": 5640, "Minutes": 5641, "CHEDU": 5642, "ush": 5643, "west": 5644, "ustain": 5645, "(team": 5646, "log_": 5647, "bib": 5648, "shel": 5649, "signal": 5650, "destination=str!": 5651, "World": 5652, "is_anagram": 5653, "analytics": 5654, "ename": 5655, "arding": 5656, "ex.com": 5657, "(ticket": 5658, "_index": 5659, "stories": 5660, "ollection": 5661, "(patient_id=str!)": 5662, "GR": 5663, "q=str": 5664, "|de": 5665, "apy": 5666, "izes": 5667, "reschedule": 5668, "Event": 5669, "certification": 5670, "BMI": 5671, "m/": 5672, "sit": 5673, "query_": 5674, "cure": 5675, "chedul": 5676, "limit=str": 5677, "username=str!)": 5678, "Year": 5679, "sku": 5680, "repair": 5681, "princ": 5682, "Projects": 5683, "TSLA": 5684, "zoom": 5685, "(altitude": 5686, "prinkler": 5687, "Reminder": 5688, "tw": 5689, "GA": 5690, "his": 5691, "ubes": 5692, "bath": 5693, "arma": 5694, "viol": 5695, "GET": 5696, "teams": 5697, "lat=int": 5698, "_input": 5699, "members": 5700, "ALER": 5701, "detection": 5702, "interior": 5703, "exercise": 5704, "star": 5705, "rol": 5706, "id=str": 5707, "deck": 5708, "(con": 5709, "offic": 5710, "liver": 5711, "(search": 5712, "phone=str)": 5713, "(game": 5714, "rolling": 5715, "offset=int": 5716, "fidence": 5717, "proced": 5718, "dinner": 5719, "Standard": 5720, "enrollment": 5721, "ivisor": 5722, "ucl": 5723, "substring": 5724, "idean": 5725, "positive": 5726, "tournaments": 5727, "uclidean": 5728, "   ": 5729, ".set": 5730, "arran": 5731, "ainment": 5732, "reach": 5733, "Starts": 5734, "(city=str)": 5735, "_period": 5736, "_by_year": 5737, "set_reminder": 5738, "sible": 5739, "(id=int!)": 5740, "getFood": 5741, "background": 5742, "success": 5743, "Poké": 5744, "NG": 5745, "ury": 5746, "iff": 5747, "upon": 5748, "paris": 5749, "_title=str!)": 5750, "INV": 5751, "_char": 5752, "technical": 5753, "arian": 5754, "(issue": 5755, "(keyword=str)": 5756, "ongoing": 5757, "auto|": 5758, "poll": 5759, "pages": 5760, "Match": 5761, "pense": 5762, "friend": 5763, "calorie": 5764, "hop": 5765, "exact": 5766, "Save": 5767, "center": 5768, "(application": 5769, "types.": 5770, "exhibition": 5771, "ray": 5772, "doe": 5773, "plication": 5774, "rule": 5775, "parti": 5776, "reality": 5777, "(pet": 5778, "_file=str!": 5779, "calculation": 5780, "Key": 5781, "arranty": 5782, "Ur": 5783, "HL": 5784, "too": 5785, "Red": 5786, "Sort": 5787, "entert": 5788, "Adds": 5789, "arket": 5790, "language=str)": 5791, "area.": 5792, "LED": 5793, "Load": 5794, "(page=int": 5795, "_currency": 5796, "GDP": 5797, "ML": 5798, "CP": 5799, "lip": 5800, "comment": 5801, "lations": 5802, "scription": 5803, "weekly|": 5804, "palindrome": 5805, "passenger": 5806, "Country": 5807, "Volume": 5808, "Berlin": 5809, "entertainment": 5810, "cean": 5811, "Dev": 5812, "shows": 5813, "collect": 5814, "plot": 5815, "itution": 5816, "answer": 5817, "think": 5818, "(job": 5819, "(patent": 5820, "(region=str!)": 5821, "handle": 5822, "_km": 5823, "influ": 5824, "consecu": 5825, "ats": 5826, "Gen": 5827, "gan": 5828, "imal": 5829, "kind": 5830, "CAL": 5831, "dedu": 5832, "find_longest": 5833, "loginuser": 5834, "(k=int": 5835, "compensation": 5836, "AV": 5837, "ention": 5838, "retrieves": 5839, "voices": 5840, "ready": 5841, "tags": 5842, "_inventory": 5843, "Los": 5844, "(acceleration": 5845, "Verifies": 5846, "dietary": 5847, "iques": 5848, "replicas": 5849, "house.": 5850, "Angel": 5851, "ACTION_SEND_EMAIL": 5852, "_sorted_": 5853, "principal": 5854, "oh": 5855, "cod": 5856, "Cost": 5857, "payments": 5858, "ventor": 5859, "slot": 5860, "(query=str)": 5861, "(direction": 5862, "attende": 5863, "quarium": 5864, "date=str": 5865, "cheme": 5866, "_condition": 5867, "network.": 5868, "_sleep": 5869, "install": 5870, "ingredients": 5871, "Shipment": 5872, "layout": 5873, "exclud": 5874, "determine": 5875, "aquarium": 5876, "San": 5877, "accom": 5878, "'The": 5879, "along": 5880, "(station": 5881, "_level=str": 5882, "Apple": 5883, "homepage": 5884, "=enum(low|medium|high)": 5885, "toggle_": 5886, "definition": 5887, "wels": 5888, "pu": 5889, "Game": 5890, "turnout": 5891, "ator.": 5892, "dialog": 5893, "Required": 5894, "Room": 5895, "(account_id=str!": 5896, "LI": 5897, "getH": 5898, "_ml": 5899, "title=str!": 5900, "inary": 5901, "savings": 5902, "unit=enum(": 5903, "relig": 5904, "digit": 5905, "accept": 5906, "_match": 5907, "Reserve": 5908, "Human": 5909, "palindromic": 5910, "recurring": 5911, "plit": 5912, "Chic": 5913, "(trial": 5914, "LOG": 5915, "fluid": 5916, "laws": 5917, "ening": 5918, "ardo": 5919, "(project": 5920, "Confirm": 5921, "small": 5922, "breed": 5923, "kitchen|": 5924, "start_time=str!)": 5925, "constraints": 5926, "_cleaning": 5927, "structural_": 5928, "vowels": 5929, "EA": 5930, "quad": 5931, "_date=str!)": 5932, "requests": 5933, "fixt": 5934, "proposal": 5935, "apprais": 5936, "hospitality": 5937, "|w": 5938, "deal": 5939, "erses": 5940, "abin": 5941, "compon": 5942, "(date=str!)": 5943, "(depart": 5944, "(ticker": 5945, "(route": 5946, "AM.": 5947, "getEth": 5948, "Phone": 5949, "(appointment_id=str!": 5950, "magnitude": 5951, "experiments": 5952, "bri": 5953, "hex": 5954, "doub": 5955, "intel": 5956, "plants": 5957, "classification": 5958, "expression": 5959, "independent": 5960, "appears": 5961, "episodes": 5962, "cosine": 5963, "**": 5964, "lear": 5965, "tik": 5966, "tile": 5967, "gam": 5968, "alice": 5969, "data_": 5970, "(email=str!": 5971, "revenue": 5972, "moder": 5973, "sBy": 5974, "autocomplete": 5975, "calories": 5976, "Assign": 5977, "albums": 5978, "eco": 5979, "ival": 5980, "times.": 5981, "reports": 5982, "paper_": 5983, "quantities": 5984, "(distance": 5985, "North": 5986, "(description=str!": 5987, "(duration_minutes=int!": 5988, "written": 5989, "abilities": 5990, "construction": 5991, "bibli": 5992, "SU": 5993, "ana": 5994, "lob": 5995, "amb": 5996, "grant": 5997, "dark": 5998, "rate.": 5999, "(database": 6000, "manual": 6001, "cording": 6002, "Close": 6003, "auto_complete": 6004, "_pro": 6005, "farm": 6006, "notice": 6007, "arehouse": 6008, "Door": 6009, "candidate": 6010, "initial_velocity=num": 6011, "geolocation": 6012, "regarding": 6013, "(acceleration=num": 6014, "Chicago": 6015, "lix": 6016, "kil": 6017, "order_": 6018, "ached": 6019, "Give": 6020, "report_": 6021, "_todo": 6022, "_news": 6023, "cycl": 6024, "liter": 6025, "validate_": 6026, "_group=str": 6027, "anagrams": 6028, "urgent": 6029, "urniture": 6030, "El": 6031, "won": 6032, "reh": 6033, "opening": 6034, "ason.": 6035, "online": 6036, "Fore": 6037, "(document": 6038, "ById": 6039, "_risk": 6040, "whose": 6041, "marize": 6042, "Balance": 6043, "interest_rate=num": 6044, "ilibri": 6045, "tiktok": 6046, "compreh": 6047, "ilibrium": 6048, "i.": 6049, "very": 6050, "Conne": 6051, "ancy": 6052, "organiz": 6053, "whole": 6054, "according": 6055, "a|": 6056, "iring": 6057, "checking": 6058, "jud": 6059, "Scan": 6060, "acility": 6061, "tak": 6062, "finally": 6063, "commer": 6064, "_random": 6065, "_density": 6066, "operation": 6067, "_window": 6068, "(nums=str)": 6069, "publication_date_range=str": 6070, "string.\\n\\nReturns": 6071, "irrigation": 6072, "abolism": 6073, "ino": 6074, "kth": 6075, "Path": 6076, "okes": 6077, "service_": 6078, "ORD": 6079, "Merg": 6080, "substance": 6081, "_password": 6082, "aS": 6083, "ose": 6084, "(arr": 6085, "autom": 6086, "alleng": 6087, "stocks": 6088, "intervals": 6089, "letter": 6090, "reason=enum(": 6091, "_reference": 6092, "rotated": 6093, "getRobot": 6094, "_title=str!": 6095, "_constant": 6096, "nutrition": 6097, "comprehensive": 6098, "pth": 6099, "igh": 6100, "argo": 6101, "story": 6102, "purpos": 6103, "zipcode=str)": 6104, "Activ": 6105, "circle": 6106, "displacement": 6107, "Merges": 6108, "NE": 6109, "_al": 6110, "qual": 6111, "(light": 6112, "without": 6113, "s_list": 6114, "camera.": 6115, "issions": 6116, "terms": 6117, "domain.": 6118, "oftware": 6119, "stractor": 6120, "now.": 6121, "places": 6122, "(branch": 6123, "_screen": 6124, "_balance": 6125, "(ticker=str!)": 6126, "(dropoff": 6127, "GPS": 6128, "red|green|blue|": 6129, "navig": 6130, "_monthly_income": 6131, "ES": 6132, "TX": 6133, "Call": 6134, "_sim": 6135, "context": 6136, "ices.": 6137, "Alarm": 6138, "End": 6139, "composition": 6140, "original": 6141, "materials": 6142, "convert_": 6143, "zoid": 6144, "neuronal_": 6145, "veter": 6146, "attrib": 6147, "DI": 6148, "s_get_": 6149, "coordinate": 6150, "length=int": 6151, "trape": 6152, "Motor": 6153, "supplier": 6154, "chunk": 6155, "trapezoid": 6156, "Page": 6157, "offers": 6158, "Cons": 6159, "start_date=str!": 6160, "Hotel": 6161, "corre": 6162, "esla": 6163, "Claim": 6164, "billing": 6165, "don't": 6166, "Downloads": 6167, "culture": 6168, "brief": 6169, "inct": 6170, "cash": 6171, "(number": 6172, "Id=str)": 6173, "awn": 6174, "timeline": 6175, "region=str!)": 6176, "getTr": 6177, "policy.": 6178, "spot": 6179, "ances": 6180, "salary": 6181, "Off": 6182, "particular": 6183, "engagement": 6184, "Helper": 6185, "(sensor_id=str!)": 6186, "synaptic_input": 6187, "synaptic_input_rate": 6188, "lit": 6189, "id=int": 6190, "Station": 6191, "needed": 6192, "transform": 6193, "final_": 6194, "(delivery": 6195, "font": 6196, "(year=int)": 6197, "_probability": 6198, "Evaluate": 6199, "(label=str": 6200, "requiring": 6201, "bar": 6202, "restaurants": 6203, "height=int": 6204, "(environment": 6205, "size=int": 6206, "fitness": 6207, "links": 6208, "urban": 6209, "recogn": 6210, "roverts=int": 6211, "pizza": 6212, "earnings": 6213, "Reverses": 6214, "GG": 6215, "apan": 6216, "erver": 6217, "working": 6218, "get_paper": 6219, "STAR": 6220, "shipment_id=str!)": 6221, "stock_get_": 6222, "_format=str": 6223, "copies": 6224, "cricket": 6225, "year.\\n\\nReturns": 6226, "scho": 6227, "psychology": 6228, "getEthics": 6229, "CI": 6230, "reset": 6231, "lug": 6232, "model.": 6233, "tips": 6234, "conditions.": 6235, "solar": 6236, "tasks": 6237, "process_payment": 6238, "cluster": 6239, "Euro": 6240, "Angeles": 6241, "Ne": 6242, "(list": 6243, "mbol": 6244, "(restaurant": 6245, "claims": 6246, "Risk": 6247, "depth": 6248, "takeoff": 6249, "lunch": 6250, "horse": 6251, "borrower": 6252, "synaptic_weight": 6253, "residential": 6254, "studi": 6255, "limits": 6256, "_subscription": 6257, "equilibrium": 6258, "UK": 6259, "BI": 6260, "ceed": 6261, "nest": 6262, ".list": 6263, "_key": 6264, "start_date=str": 6265, "fold": 6266, "calculate_standard": 6267, "carri": 6268, "heart_rate": 6269, "computing": 6270, "official": 6271, "bibliography": 6272, "xl": 6273, "Sur": 6274, "vents": 6275, "aud": 6276, "export": 6277, "ellow": 6278, "get_order": 6279, "accounts": 6280, "_code=str!": 6281, "_range=str": 6282, "quantity=int!": 6283, "_api.": 6284, "requires": 6285, "integration": 6286, "freight": 6287, "constant": 6288, "cuisine": 6289, "significance": 6290, "Pa": 6291, "itle": 6292, "til": 6293, "chang": 6294, "check_out": 6295, "publication_date_range=str)": 6296, "Alex": 6297, "neuronal_activity": 6298, "m.": 6299, "VAC": 6300, "getEx": 6301, "_customer": 6302, "posure": 6303, "tracks": 6304, "IPv": 6305, "Sensor": 6306, "startTime": 6307, "instagram": 6308, "_path=str!)": 6309, "white|": 6310, "questions": 6311, "efficient": 6312, "floor_numbers": 6313, "Array": 6314, "structural_analysis": 6315, "quadrat": 6316, "calculate_standard_deviation": 6317, "neuronal_activity_rate": 6318, "lest": 6319, "querying": 6320, "offer": 6321, "days.": 6322, "import": 6323, "flights": 6324, "oute": 6325, "conversion": 6326, "audiobooks": 6327, "soil_": 6328, "getArt": 6329, "academic": 6330, "imony": 6331, "pricing": 6332, "(domain=str)": 6333, "tweet": 6334, "behavior": 6335, "FC": 6336, "mus": 6337, "emb": 6338, "fire": 6339, "Back": 6340, "(filter": 6341, "URLs": 6342, "jane": 6343, "Dr.": 6344, "affiliations": 6345, "Document": 6346, "intelligence": 6347, "season.": 6348, "quadratic": 6349, "lie": 6350, "Block": 6351, "ains": 6352, "vehic": 6353, "containing": 6354, "(item=str!)": 6355, "(region=str": 6356, "(cursor=str": 6357, "Tell": 6358, "optical": 6359, "waste": 6360, "hardware": 6361, "deliver": 6362, "|F": 6363, "EL": 6364, "AU": 6365, "iveness": 6366, "ird": 6367, "_pri": 6368, "Chem": 6369, "_location=str!": 6370, "species=str!)": 6371, "variable": 6372, "verification.": 6373, "(age=str": 6374, "\\n\\nArgs": 6375, "cuit": 6376, "variants": 6377, "RGB": 6378, "inserted": 6379, "Ethical": 6380, "Capacity": 6381, "dimensions": 6382, "NBA": 6383, "SCHEDU": 6384, "'S": 6385, "db": 6386, "t-": 6387, "fle": 6388, "states": 6389, "ensic": 6390, "Line": 6391, "starting": 6392, "count\\n": 6393, "wards": 6394, "language.": 6395, "PM.": 6396, "_job": 6397, "Performance": 6398, "ultural": 6399, "biology": 6400, "cancel_order": 6401, "washing": 6402, "Alpha": 6403, "advertising": 6404, "sheet": 6405, "//contacts/": 6406, "techniques": 6407, "agents": 6408, "amen": 6409, "getAn": 6410, "flict": 6411, "(city=str": 6412, "currency=str": 6413, "central": 6414, "Audi": 6415, "(customer_id=str!)": 6416, "(deployment": 6417, "getEmployee": 6418, "inventor": 6419, "attached": 6420, "tv": 6421, "Vid": 6422, "termin": 6423, "s=bool": 6424, "checks": 6425, "Session": 6426, "Adjusts": 6427, "ed_before": 6428, "personality": 6429, "_endpoint": 6430, "thropol": 6431, "severity=enum(": 6432, "Market": 6433, "screenshot": 6434, "_celsius": 6435, "IDs.\\n": 6436, "SEARCH_": 6437, "XYZ": 6438, "std_deviation": 6439, "compatibility": 6440, "inserted_before": 6441, "At": 6442, "OL": 6443, "bob": 6444, "cale": 6445, "_call": 6446, "(match": 6447, "command": 6448, "objects": 6449, "(count=int": 6450, "mix": 6451, "manager": 6452, "policies": 6453, "possible": 6454, "Sorts": 6455, "challeng": 6456, "plates": 6457, "(file": 6458, "redit": 6459, "(session": 6460, "news_": 6461, "Not": 6462, "_description": 6463, "_days": 6464, "_range=str)": 6465, "ER_": 6466, "cause": 6467, "ahren": 6468, "(currency": 6469, "_stats": 6470, "uisine": 6471, "yield": 6472, "identifier.": 6473, "getDrug": 6474, "partial": 6475, "those": 6476, "ahrenhe": 6477, "Ge": 6478, "..": 6479, "get_product": 6480, "REC": 6481, "set_alarm": 6482, "Link": 6483, "Battery": 6484, "origin=str!": 6485, "resolution=enum(": 6486, "conference": 6487, "(descending": 6488, "payment_method_id=str!": 6489, "Trigger": 6490, "(checkin": 6491, "ematical": 6492, "Billboard": 6493, "/B": 6494, "vate": 6495, "repe": 6496, "uck": 6497, "statement": 6498, "(api": 6499, "testing": 6500, "(memo": 6501, "district": 6502, "printer.": 6503, "self": 6504, "Content": 6505, "_mode=str": 6506, "largest": 6507, "freq": 6508, "(format=enum(": 6509, "applicant": 6510, "Cr": 6511, "(g": 6512, "HI": 6513, "tro": 6514, "sil": 6515, "aged": 6516, "wers": 6517, "oney": 6518, "duction": 6519, "b=int)": 6520, "Plant": 6521, "(zone": 6522, "longitude=num!)": 6523, "Task": 6524, "Movie": 6525, "daily|": 6526, "Records": 6527, "operating": 6528, "operational": 6529, "measurements": 6530, "restrictions": 6531, "representation": 6532, "conversation": 6533, "Thanks!": 6534, "ardous": 6535, "ambient": 6536, "(descending=bool": 6537, "itat": 6538, "Gro": 6539, "seconds=int!)": 6540, "entiment": 6541, "hashtags": 6542, "(company_name=str!": 6543, "sponsor": 6544, "(target_": 6545, "toolbench": 6546, "express": 6547, "carbon": 6548, "specialist": 6549, "graphics": 6550, "vacc": 6551, "(status=enum(": 6552, "much": 6553, "Register": 6554, "ometry": 6555, "is_perfect": 6556, "is_perfect_square": 6557, "FL": 6558, "isco": 6559, "ada": 6560, "Uplo": 6561, "issu": 6562, "ping_": 6563, "_by_title": 6564, "joke": 6565, "traits": 6566, "visitor": 6567, "Emily": 6568, "Sound": 6569, "Usage": 6570, "(country_code=str": 6571, "Insurance": 6572, "guidelines": 6573, "artificial": 6574, "Upload": 6575, "|B": 6576, "TP": 6577, "win": 6578, "ming": 6579, "ased": 6580, "idents": 6581, "sex": 6582, "die": 6583, "start=int)": 6584, "leave": 6585, "s_with": 6586, "overview": 6587, "loss": 6588, "Coverage": 6589, "Lead": 6590, "getDis": 6591, "Note": 6592, "(printer": 6593, "ulner": 6594, "drawing": 6595, "cross": 6596, "(a=int": 6597, "activate": 6598, "(booking_id=str!": 6599, "strobe": 6600, "regulations": 6601, "final_velocity": 6602, "Japan": 6603, "hazardous": 6604, "GC": 6605, "Equ": 6606, "liqu": 6607, "sus": 6608, "sending": 6609, "arden": 6610, "ia.": 6611, "patient_": 6612, "(library": 6613, "Query": 6614, "regular": 6615, "View": 6616, "received": 6617, "competition": 6618, "yth": 6619, "Over": 6620, "-year": 6621, "ube.": 6622, "Gold": 6623, "(sample": 6624, "ervices": 6625, "manent": 6626, "user_id=str)": 6627, "costs": 6628, "_shipment": 6629, "(age_group=str": 6630, "AD": 6631, "Pet": 6632, "ari": 6633, "_id_": 6634, "calling": 6635, "parent": 6636, "attle": 6637, "quantum": 6638, "funds": 6639, "startDate=str!)": 6640, "_usage": 6641, "government": 6642, "dilution": 6643, "check_battery": 6644, "architectural": 6645, "(str": 6646, "Next": 6647, "brid": 6648, "valid.": 6649, "spin": 6650, "(crop": 6651, "songs": 6652, "additional": 6653, "_value=num": 6654, "doku": 6655, "Schedules": 6656, "(patient_id=str!": 6657, "(distractor": 6658, "aper": 6659, "n=int)": 6660, "newspaper": 6661, "start_time=str!": 6662, "filament": 6663, "covered": 6664, "personalized": 6665, "mail.com": 6666, "Title": 6667, "Oh": 6668, "type=str": 6669, "motion": 6670, "ulture": 6671, "_word": 6672, "finding": 6673, "is_from": 6674, "reminders": 6675, "(tag": 6676, "SEND_": 6677, "dimension": 6678, "ermines": 6679, "ildlife": 6680, "neuronal": 6681, "simulate_": 6682, "(artist=str": 6683, "is_leap": 6684, "city_from_": 6685, "secure": 6686, "ahrenheit": 6687, "ancisco": 6688, "is_leap_year": 6689, "city_from_zipcode": 6690, "Is": 6691, "recr": 6692, "validity": 6693, "cident": 6694, "updated": 6695, "Leg": 6696, "(policy": 6697, "obile": 6698, "vision": 6699, "hours.": 6700, "warehouse_id=str!)": 6701, "get_current_": 6702, "schedules": 6703, "is_valid_ip_address": 6704, "find_pair": 6705, "s_with_sum": 6706, "find_pairs_with_sum": 6707, "escal": 6708, "contacts.": 6709, "fly": 6710, "ETH": 6711, "TER": 6712, "greenhouse": 6713, "(duration_": 6714, "_kg": 6715, "(address=str!": 6716, "MSFT": 6717, "expected": 6718, "Forecast": 6719, "(depth": 6720, "recruit": 6721, "La": 6722, "lik": 6723, "date=str)": 6724, "ither": 6725, "Chain": 6726, "groups": 6727, "stored": 6728, "warehouse.": 6729, "fixtures": 6730, "FF": 6731, "uct": 6732, "roid": 6733, "Pay": 6734, "hood": 6735, "(point": 6736, "is_id=str)": 6737, "root": 6738, "-related": 6739, "_position": 6740, "_method=enum(": 6741, "relation": 6742, "drone's": 6743, "Queries": 6744, "French": 6745, "apply_": 6746, "(days=int": 6747, "_maintenance": 6748, "Configure": 6749, "ignoring": 6750, "ff": 6751, "T-": 6752, "lean": 6753, "lost": 6754, "er_id=str!)": 6755, "portun": 6756, "State": 6757, "product_id": 6758, "Arm": 6759, "entire": 6760, "_code=str)": 6761, "cement": 6762, "ificate": 6763, "Monitor": 6764, "Express": 6765, "Print": 6766, "ception": 6767, "evaluation": 6768, "find_max": 6769, "activities": 6770, "to_account": 6771, "calculate_median": 6772, "coupon": 6773, "(ticker=str)": 6774, "(h": 6775, "WA": 6776, "ero": 6777, "icates": 6778, "Charg": 6779, "(interval": 6780, "Psych": 6781, "(region=str!": 6782, "animals": 6783, "swim": 6784, "TER_": 6785, "reserve_": 6786, "lorine": 6787, "outstanding": 6788, "//example.com/": 6789, "warranty": 6790, "veterinary": 6791, "drawn": 6792, "Determines": 6793, "is.": 6794, "omar": 6795, "Flow": 6796, "user_id=str!": 6797, "Music": 6798, "oot": 6799, "authorization": 6800, "(end_time=str!": 6801, "_larg": 6802, "subarray": 6803, "(charge": 6804, "administr": 6805, ".jpg": 6806, "(client_id=str!": 6807, "sprinkler": 6808, "Tesla": 6809, "exposure": 6810, "Video": 6811, "oral": 6812, "cas": 6813, "slo": 6814, "iver": 6815, "resh": 6816, "_dis": 6817, "Here": 6818, "getSo": 6819, "Reports": 6820, "_frequency": 6821, "readings": 6822, "Hi!": 6823, "time_frame": 6824, "(lang=str": 6825, "Protein": 6826, "zones": 6827, "Once": 6828, "verified": 6829, "color=enum(warm": 6830, "odds": 6831, "A/B": 6832, "me.": 6833, "eric": 6834, "news.": 6835, "mak": 6836, "_pop": 6837, "text=str)": 6838, "interaction": 6839, "Your": 6840, "ernet": 6841, "Statistics": 6842, "_access": 6843, "_refund": 6844, "Take": 6845, "Recommend": 6846, "ride_id=str!)": 6847, "calculate_grade": 6848, "urchase": 6849, "_subarray": 6850, "panish": 6851, "(duration_minutes=int": 6852, "FET": 6853, "economic": 6854, "BOO": 6855, "Vehicle": 6856, "find_max_subarray": 6857, "find_max_subarray_sum": 6858, "SI": 6859, "Car": 6860, "fem": 6861, "tail": 6862, "omy": 6863, "wine": 6864, "four": 6865, "analyz": 6866, "topics": 6867, "publications": 6868, "multi": 6869, "networks": 6870, "firmware": 6871, "meaning": 6872, "fish": 6873, "Conduct": 6874, "assess_": 6875, "_prices": 6876, "scape": 6877, "initiate": 6878, "ython": 6879, "Francisco": 6880, "bs": 6881, "ali": 6882, "tle": 6883, "_form": 6884, "light.": 6885, "areas": 6886, "formats": 6887, "(code": 6888, "_page": 6889, "_wash": 6890, "kill": 6891, "regions": 6892, "conci": 6893, "male": 6894, "(folder": 6895, "submission": 6896, "google": 6897, "solutions.": 6898, "calibration": 6899, "prediction": 6900, "weight_kg": 6901, "either": 6902, "orate": 6903, "entity": 6904, "_light": 6905, "prof": 6906, "tect": 6907, "Just": 6908, "Song": 6909, "_minutes": 6910, "weighted": 6911, "completion": 6912, "items=arr!": 6913, "=dict": 6914, "international": 6915, "debt": 6916, "Organ": 6917, "Connect": 6918, "precinct": 6919, "HVAC": 6920, "e-": 6921, "chi": 6922, "bro": 6923, "atis": 6924, "stag": 6925, "lout": 6926, "byid": 6927, "hello": 6928, "highest": 6929, "fiction": 6930, "station.": 6931, "accur": 6932, "_ship": 6933, "fetch_": 6934, "longitude=num!": 6935, "_percentage": 6936, "Moisture": 6937, "_group_": 6938, "etc.": 6939, "_prediction": 6940, "output_format": 6941, "dn": 6942, "pen": 6943, "-based": 6944, "Id=str": 6945, "team.": 6946, "color=str": 6947, "Value": 6948, "=enum(living": 6949, "machine.": 6950, "getPsych": 6951, "reason=str)": 6952, "Safety": 6953, "(employee_id=str!)": 6954, "produced": 6955, "identified": 6956, "constructor": 6957, "(path=str!)": 6958, "apshot": 6959, "Euclidean": 6960, "cf": 6961, "ado": 6962, "static": 6963, "_sup": 6964, "apple": 6965, "brate": 6966, "ments.": 6967, "humans": 6968, "employee_id": 6969, "meeting_": 6970, "_data=str!": 6971, "find_n": 6972, "Quant": 6973, "Quick": 6974, "_bluetooth": 6975, "uppercase": 6976, "redentials": 6977, "(source_": 6978, "major": 6979, "Geocoding": 6980, "Timer": 6981, "remote": 6982, "dem": 6983, "utor": 6984, "artment": 6985, "igne": 6986, "Apr": 6987, "few": 6988, "_content": 6989, "gross": 6990, "equation": 6991, "manage": 6992, "Compare": 6993, "ING_": 6994, "(orderId=str!)": 6995, "Hours": 6996, "Summary": 6997, "customers": 6998, "set_fan": 6999, "Build": 7000, "(count=str": 7001, "skills": 7002, "ratio": 7003, "CN": 7004, "kg": 7005, "|re": 7006, "const": 7007, "hoo": 7008, "with_": 7009, "Zone": 7010, "spo": 7011, "day.": 7012, "narr": 7013, "_review": 7014, "ators": 7015, "cott": 7016, "platform.": 7017, "quantity=int)": 7018, "genre=str": 7019, "recipient=str!)": 7020, "est_numbers": 7021, "States.": 7022, "USDT": 7023, "from_account": 7024, "non-profit": 7025, "string_utils.": 7026, "blood": 7027, "find_n_larg": 7028, "find_n_largest_numbers": 7029, "plus": 7030, "time=str": 7031, "ailure": 7032, "Top": 7033, "(card": 7034, "eway": 7035, "stock.": 7036, "compute": 7037, "systems": 7038, "SE_": 7039, "USA": 7040, "_restaurant": 7041, "history.": 7042, "CAN": 7043, "Engine": 7044, "istry": 7045, "(author=str!": 7046, "develo": 7047, "(keyword=str": 7048, "promotion": 7049, "roster": 7050, "Formula": 7051, "(search=str)": 7052, "influenc": 7053, "component": 7054, "(department": 7055, "April": 7056, "istic": 7057, "astic": 7058, "ies.": 7059, "check_in": 7060, "anime": 7061, "Export": 7062, "recorded": 7063, "_change": 7064, "stops": 7065, "suit": 7066, "environment.": 7067, "Books": 7068, "_table": 7069, "=enum(low|medium|high)!)": 7070, "(n=int": 7071, "France": 7072, "CRM": 7073, "orrower": 7074, "qr_code": 7075, "normal|": 7076, "(zipcode=str)": 7077, "afeway": 7078, "Gu": 7079, "_as": 7080, "iso": 7081, "boat": 7082, "tun": 7083, "bits": 7084, "_read": 7085, "cycle.": 7086, "(item=str!": 7087, "Metadata": 7088, "Alerts": 7089, "(numbers=str)": 7090, "automatically": 7091, "set_wifi": 7092, "(symbol=str!)": 7093, "(current_time=str!": 7094, "sensitive": 7095, "(lst=arr)": 7096, "Software": 7097, "kin": 7098, "ons": 7099, "umn": 7100, "asy": 7101, "ements": 7102, "tray": 7103, "plement": 7104, "phone=str!)": 7105, "itive": 7106, "Chi": 7107, "(location=str)": 7108, "get_customer": 7109, "alarms": 7110, "getPub": 7111, "time_of_": 7112, "mole": 7113, "gender=str!": 7114, "several": 7115, "transit.": 7116, "monitoring": 7117, "discus": 7118, "investig": 7119, "room|bedroom|": 7120, "resolved": 7121, "religion": 7122, "amenities": 7123, "_call_": 7124, "Vis": 7125, "conti": 7126, "ollow": 7127, "entence": 7128, "fault": 7129, "_reason": 7130, "requested": 7131, "Percent": 7132, "Company": 7133, "_average": 7134, "startDate=str)": 7135, "cursor=str": 7136, "getEnvironmental": 7137, "m/s": 7138, "holidays_by_year": 7139, "weekly|monthly": 7140, "ubernet": 7141, "DR": 7142, "(O": 7143, "above": 7144, "_start": 7145, "scr": 7146, "happ": 7147, "(month": 7148, "Grow": 7149, "LATE_": 7150, "rypto": 7151, "(sku": 7152, "defined": 7153, "Social": 7154, "Simulates": 7155, "thropology": 7156, "Ali": 7157, "to=str)": 7158, "fight": 7159, "done": 7160, "b=num": 7161, "setup": 7162, "eria": 7163, "Changes": 7164, "researcher": 7165, "Unlock": 7166, "interval=str": 7167, "_all_": 7168, "boundary": 7169, "facilities": 7170, "geocode_city": 7171, "Switch": 7172, "(period=enum(": 7173, "moderate": 7174, "Europe": 7175, "Events": 7176, "Spanish": 7177, "API_call_": 7178, "contigu": 7179, "contiguous": 7180, "(ad": 7181, "week.": 7182, "alary": 7183, "ters.": 7184, "ager.": 7185, "logo": 7186, "pipe": 7187, "case.": 7188, "(a=num": 7189, "microbial": 7190, "mortgage": 7191, "_symbol": 7192, "yellow": 7193, "soil_moisture": 7194, "(seconds=int!)": 7195, "Growth": 7196, "ga": 7197, "at-": 7198, "exam": 7199, "open_": 7200, "(service": 7201, "nodes": 7202, "ages.": 7203, "music.": 7204, "logistics": 7205, "api.get_": 7206, "reads": 7207, "Make": 7208, "(campaign_id=str!": 7209, "getMicro": 7210, "queries": 7211, "forest_area": 7212, "shopping": 7213, "air_quality": 7214, "you're": 7215, "inflation": 7216, "|entertainment": 7217, "cabin": 7218, "predict_forest_area": 7219, "arth": 7220, "id=str!)": 7221, "ney": 7222, "allocation": 7223, "daylight": 7224, "that?": 7225, "at_b": 7226, "insights": 7227, "patterns": 7228, "subscriber": 7229, "dropoff": 7230, "execute": 7231, "permissions": 7232, "vehicles": 7233, "m|": 7234, "NY": 7235, "astr": 7236, "rent": 7237, "ged": 7238, "once": 7239, "dates.": 7240, "ences.": 7241, "(line": 7242, "finish": 7243, "weight_l": 7244, "pie": 7245, "ERY_": 7246, "panel": 7247, "reverse_": 7248, "Twitch": 7249, "privacy": 7250, "Seattle": 7251, "enh": 7252, "inger": 7253, "Mom": 7254, "being": 7255, "_length": 7256, "random_": 7257, "ancellation": 7258, "signature": 7259, "(data=str!": 7260, "(article": 7261, "(event_id=str!": 7262, "statistical": 7263, "Ethics": 7264, "shift": 7265, "sticker": 7266, "sensitivity": 7267, "dashcam": 7268, "Optimize": 7269, "(endDate=str!": 7270, "benefits": 7271, "therapy": 7272, "schedul": 7273, "split": 7274, "Activate": 7275, "gl": 7276, "cular": 7277, "Pod": 7278, "fern": 7279, "Mode": 7280, "url=str!)": 7281, "pts": 7282, "skip_": 7283, "utilities": 7284, "Metrics": 7285, "entries": 7286, "physics.": 7287, "TRI": 7288, "reverse_string": 7289, "_intake": 7290, "wallet": 7291, "demographic": 7292, "appraisal": 7293, "geometry": 7294, "forcement": 7295, "staging|": 7296, "ubernetes": 7297, "_x": 7298, "|C": 7299, "``": 7300, "esh": 7301, "_end": 7302, "mind": 7303, "beg": 7304, "afe": 7305, "trim": 7306, "(source": 7307, "prise": 7308, "Suggest": 7309, "mime_type": 7310, "drive": 7311, "Identify": 7312, "fertiliz": 7313, "flix": 7314, "oration": 7315, "get_user": 7316, "VID": 7317, "_check": 7318, "EUR": 7319, "_inch": 7320, "scen": 7321, "function=str": 7322, "rapid": 7323, "country=str!": 7324, ".net": 7325, "high-": 7326, "getMed": 7327, "nums=arr)": 7328, "student_id=str!)": 7329, "(course": 7330, "getPharm": 7331, "consulting": 7332, "NHL": 7333, "youtube.": 7334, "UV": 7335, "eta": 7336, "veget": 7337, "erson": 7338, "Face": 7339, "ribe": 7340, "_part": 7341, "last_": 7342, "map?": 7343, "timeout": 7344, "keyword=str": 7345, "liability": 7346, "campaigns": 7347, "figure": 7348, "recently": 7349, "FLA": 7350, "_metrics": 7351, "sports.": 7352, "make=str": 7353, "ultiply": 7354, "change.": 7355, "tempor": 7356, "exhibit": 7357, "anji": 7358, "strike": 7359, "Support": 7360, "Maintenance": 7361, "_tier=enum(": 7362, "get_user_profile": 7363, "(BMI": 7364, "en|": 7365, "listing": 7366, "order_id": 7367, "annot": 7368, "ource": 7369, "were": 7370, "URL.": 7371, "next_": 7372, "shipment.": 7373, "species=str!": 7374, "High": 7375, "upgrade": 7376, "Share": 7377, "ACTION_LIST_": 7378, "dependence": 7379, "precision": 7380, "calibrate": 7381, "immediately": 7382, "governance": 7383, "consultation": 7384, "favorite": 7385, "(amount_ml": 7386, "cell_density": 7387, "ootball": 7388, "height_inch": 7389, ".'": 7390, "ny": 7391, "eno": 7392, "uth": 7393, "rel": 7394, "dance": 7395, "club": 7396, "set_brightness": 7397, "Jav": 7398, "Range": 7399, "keep": 7400, "keyword=str!": 7401, "_results": 7402, "raw": 7403, "What's": 7404, "building_id=str": 7405, "Syn": 7406, "allel": 7407, "Summer": 7408, "triangle_area": 7409, "principal=num": 7410, "_similar": 7411, "(analysis_mode=str": 7412, "relationship": 7413, "ra": 7414, "proof": 7415, "Edu": 7416, "made": 7417, "duration=str": 7418, "sensors": 7419, "(movie": 7420, "draws": 7421, "limate": 7422, "(area=str!": 7423, "writing": 7424, "occup": 7425, "Guid": 7426, "mineral": 7427, "_rolls": 7428, "REPORT": 7429, "renewable": 7430, "START_": 7431, "Hz": 7432, "ano": 7433, "icle": 7434, "sam": 7435, "ever": 7436, "hall": 7437, "vely": 7438, "ed=bool": 7439, "foc": 7440, "prepar": 7441, "uge": 7442, "_move_info": 7443, "(position": 7444, "optimal": 7445, "characteristics": 7446, "_ids=arr!)": 7447, "_sku": 7448, "Govern": 7449, "dictionaries": 7450, "TEMP": 7451, "open|close": 7452, "invoices": 7453, "diabetes_risk": 7454, "purposes": 7455, "Struct": 7456, "filters.": 7457, "pokemon_move_info": 7458, "assess_diabetes_risk": 7459, "Oc": 7460, "pend": 7461, "bel": 7462, "east": 7463, "essert": 7464, "overdue": 7465, "_diction": 7466, "presentation": 7467, "infect": 7468, "_threshold": 7469, "investment.": 7470, "generated": 7471, "_description=str!": 7472, "having": 7473, "getLanguage": 7474, "utrient": 7475, "_screen_cast": 7476, "sets": 7477, "tab": 7478, "From": 7479, "rights": 7480, "pring": 7481, "icine": 7482, "Chen": 7483, "(dec": 7484, "_ranges": 7485, "Free": 7486, "Marketing": 7487, "_for_": 7488, "isbn": 7489, "Machine": 7490, "parentheses": 7491, "institution": 7492, "taken": 7493, "habitat": 7494, "chi_square": 7495, "find_missing_ranges": 7496, "LP": 7497, "Ken": 7498, "ese": 7499, "thum": 7500, "ises": 7501, "trols": 7502, "specific_": 7503, "data/": 7504, "Aust": 7505, "speak": 7506, "Resume": 7507, "Loc": 7508, "_zip": 7509, "sequence=str!)": 7510, "(league": 7511, "patron": 7512, "arrier": 7513, "Development": 7514, "file_path=str!)": 7515, "continent": 7516, "num_hits": 7517, "airplanes": 7518, "Technology": 7519, "Dispense": 7520, "ocean": 7521, "emissions": 7522, "(cuisine": 7523, "search_paper": 7524, "batting_average": 7525, "at-bat": 7526, "_independence": 7527, "search_paper_by_title": 7528, "chi_square_independence": 7529, "chi_square_independence_test": 7530, "(L": 7531, "Ag": 7532, "ond": 7533, "Fun": 7534, "Use": 7535, "ADD": 7536, "Ann": 7537, "posable": 7538, "notify": 7539, "Sample": 7540, "_of_two": 7541, "Stops": 7542, "window.": 7543, "geological": 7544, "phones": 7545, "auto-complete": 7546, "REPORT_": 7547, ".txt": 7548, "knowledge": 7549, "sustain": 7550, "Psychology": 7551, "contingency_table": 7552, "is_power_of_two": 7553, "S-": 7554, "FP": 7555, "fed": 7556, "er's": 7557, "Option": 7558, "country.": 7559, "EXP": 7560, "record_": 7561, "calculate_age": 7562, "ORY": 7563, "delicate": 7564, "fake": 7565, "platform=str!": 7566, "channels": 7567, "_requirements": 7568, "electron": 7569, "_goal": 7570, "_cards": 7571, "polling": 7572, "Filter": 7573, "relevance": 7574, "analyze_social": 7575, "shelf": 7576, "Device": 7577, "generate_password": 7578, "|P": 7579, "Bi": 7580, "Db": 7581, "BR": 7582, "zy": 7583, "atin": 7584, "es|": 7585, "time=str!": 7586, "stone": 7587, "might": 7588, "functions": 7589, "ticket.": 7590, "atural": 7591, "restaurant.": 7592, "guide": 7593, "_level=str!": 7594, "connector": 7595, "recipient=str!": 7596, "(input": 7597, "place_order": 7598, "participants": 7599, "Calibr": 7600, "(name=str": 7601, "PRO": 7602, "ITY": 7603, "project_population": 7604, "independence": 7605, "Urban": 7606, "jokes": 7607, "vulner": 7608, "current_pop": 7609, "atisf": 7610, "getPublic": 7611, "lr": 7612, "sol": 7613, "searchC": 7614, "_su": 7615, "pain": 7616, "theory": 7617, "getAd": 7618, "_pay": 7619, "patch": 7620, "process_": 7621, "follows": 7622, "Ship": 7623, "crease": 7624, "Learning": 7625, "table.": 7626, "inquir": 7627, "(confirmation": 7628, "guided": 7629, "ivision": 7630, "route.": 7631, "_workout": 7632, "mathematical": 7633, "in-": 7634, "rer": 7635, "(as": 7636, "omic": 7637, "created": 7638, "Cour": 7639, "_analysis": 7640, "month.": 7641, "_plan": 7642, "Format": 7643, "vehicle.": 7644, "flags.": 7645, "purch": 7646, "Quote": 7647, "champ": 7648, "metric=enum(": 7649, "(temp": 7650, "(birth": 7651, "(employee_id=str!": 7652, "initial_population": 7653, "bacterial_growth": 7654, "opportun": 7655, "(BMI)": 7656, "can_": 7657, "limited": 7658, "_reading": 7659, "jobs": 7660, "time_period=str": 7661, "accessibility": 7662, "Subsc": 7663, "Home": 7664, "_path=str!": 7665, "_preferences": 7666, "binary_search": 7667, "Tracks": 7668, "requirements.": 7669, "(keyword=str!)": 7670, "plicit": 7671, "Analytics": 7672, "_blind": 7673, "Effect": 7674, "query_database": 7675, "procedure": 7676, "significance_level": 7677, "Vari": 7678, "Chi-S": 7679, "Chi-Square": 7680, "PH": 7681, "ges": 7682, "Given": 7683, "rup": 7684, "ester": 7685, "_sign": 7686, "_pre": 7687, "_cm": 7688, "_dam": 7689, "sessions": 7690, "preserv": 7691, "super": 7692, "Booking": 7693, "Security": 7694, "nightly": 7695, "cursor": 7696, "Global": 7697, "Exec": 7698, "crime": 7699, ".pdf": 7700, "file_path=str!": 7701, "Sales": 7702, "_center": 7703, "employees": 7704, "iffel": 7705, "generate_random": 7706, "because": 7707, "color=enum(warm|cool|": 7708, "meeting_rooms": 7709, "BL": 7710, "A-": 7711, "mis": 7712, "Lis": 7713, "Que": 7714, "Scr": 7715, "expand": 7716, "Roll": 7717, "_alert": 7718, "sort_by": 7719, "Rights": 7720, "market.": 7721, "Steam": 7722, "_energy": 7723, "radius.": 7724, "_estimate": 7725, "max_results": 7726, "integrate": 7727, "buy|": 7728, "get_all_": 7729, "effects": 7730, "lowercase": 7731, "Assessment": 7732, "_system": 7733, "_machine": 7734, "Language": 7735, "zzle": 7736, "UPDA": 7737, "Properties": 7738, "(dropoff=str!": 7739, "effectiveness": 7740, "Chemical": 7741, "chlorine": 7742, "thumbn": 7743, "simulate_query_database": 7744, "buy|sell": 7745, "opy": 7746, "num=int)": 7747, "_emails": 7748, "Ital": 7749, "Char": 7750, "_by_re": 7751, "platforms": 7752, "surg": 7753, "(category=str!": 7754, "(pipeline": 7755, "Press": 7756, "set_blind": 7757, "subscribe": 7758, "premium|": 7759, "Memo": 7760, "centration": 7761, "advanced": 7762, "merge_diction": 7763, "(decay": 7764, "min_meeting_rooms": 7765, "merge_dictionaries": 7766, "Wo": 7767, "trad": 7768, "ersion": 7769, "Tom": 7770, "getCurrent": 7771, "ursing": 7772, "(size": 7773, "shipments": 7774, "Tower": 7775, "meetings.": 7776, "ician": 7777, "_metadata": 7778, "loan_amount": 7779, "I’d": 7780, "TRAC": 7781, "calculate_distance": 7782, "solve": 7783, ".csv": 7784, "translate_text": 7785, "street": 7786, "covery": 7787, "answers": 7788, "_show": 7789, "minutes?": 7790, "Store": 7791, "cru": 7792, "weights.": 7793, "sort=str": 7794, "_term": 7795, "artists": 7796, "employment": 7797, "Payment": 7798, "binary_": 7799, "(build": 7800, "welve": 7801, "Assesses": 7802, "Determine": 7803, "TRANS": 7804, "Germany": 7805, "CALCU": 7806, "troub": 7807, "_group_dynamics": 7808, "developing": 7809, "Kubernetes": 7810, "Education": 7811, "Annual": 7812, "analyze_social_group_dynamics": 7813, "n.": 7814, "lap": 7815, "Rad": 7816, "clar": 7817, "Amount": 7818, "charger": 7819, "years=int": 7820, "percentage.": 7821, "get_sleep": 7822, "north": 7823, "_address=str!": 7824, "impression": 7825, "manufacturing": 7826, "Deployment": 7827, "(content=str!": 7828, "is_rotation": 7829, "(building": 7830, "fibonacci_numbers": 7831, "consecutive": 7832, "synaptic_input_rate=int": 7833, "synaptic_weight=num)": 7834, "constant.": 7835, "assigne": 7836, "get_customer_profile": 7837, "ingerprint": 7838, "(decay_constant": 7839, "(decay_constant=num": 7840, "ina": 7841, "Bin": 7842, "amer": 7843, "Port": 7844, "-level": 7845, "returning": 7846, "team_": 7847, "Sci": 7848, "(alert": 7849, "numbers=arr)": 7850, "getCustomer": 7851, "keywords=str": 7852, "(order_id=str!": 7853, "capital": 7854, "inventory.": 7855, "_payment_method": 7856, "dental": 7857, "plicates": 7858, "execution": 7859, "Brew": 7860, "genome": 7861, "ALERT": 7862, "Group": 7863, "is_from=str": 7864, "tebrate": 7865, "stay": 7866, "ung": 7867, "uly": 7868, "Flight": 7869, "_in_": 7870, "invol": 7871, "dish": 7872, "_time=str)": 7873, "airline": 7874, "Iss": 7875, "ISO": 7876, "Pipeline": 7877, "(property": 7878, "eases": 7879, "erboard": 7880, "Max": 7881, "getOrder": 7882, "matrix_b": 7883, "matrix_a": 7884, "simulate": 7885, "majority": 7886, "Demand": 7887, "female": 7888, "attend_all_": 7889, "can_attend_all_": 7890, "can_attend_all_meetings": 7891, "county": 7892, "_sq": 7893, "les.": 7894, "Enter": 7895, "(post": 7896, "source=str!)": 7897, "presso": 7898, "Estim": 7899, "disputes": 7900, "disease=str!": 7901, "(hours=int!)": 7902, "(expiration": 7903, "internal": 7904, "Community": 7905, "Reservation": 7906, "_scheme": 7907, "time_of_day": 7908, "Nager.": 7909, "_multiply": 7910, "IR": 7911, "'D": 7912, "ley": 7913, "uation": 7914, "alph": 7915, "pare": 7916, "iod": 7917, "beam": 7918, "etics": 7919, "paid": 7920, "enew": 7921, "frequ": 7922, "Name=str": 7923, "active|": 7924, "pipeline.": 7925, "Identification": 7926, "TAIL": 7927, "Impact": 7928, "ranked": 7929, "(cycle": 7930, "dashboard": 7931, "(endDate=str": 7932, "square.": 7933, "Tanak": 7934, "(callback": 7935, "armaco": 7936, "carrier": 7937, "money": 7938, "(intervals=arr)": 7939, "(sentence": 7940, "Facebook": 7941, "Italian": 7942, "binary_addition": 7943, "Nager.Date": 7944, "matrix_multiply": 7945, "band": 7946, "_and": 7947, "_ids": 7948, "-fi": 7949, "Word": 7950, "ael": 7951, "fall": 7952, "-specific": 7953, "|week": 7954, "ually": 7955, "water_": 7956, "Appointment": 7957, "stores": 7958, "current_time=str!": 7959, "Threshold": 7960, "running|": 7961, "riteria": 7962, "(campaign_id=str!)": 7963, "Financial": 7964, "drug_name=str!": 7965, "(scores": 7966, "getAir": 7967, "side=enum(": 7968, "Applies": 7969, "disaster": 7970, "transportation": 7971, "hl=str": 7972, "problem": 7973, "streak": 7974, "dictionary.": 7975, "filename": 7976, "staging|production": 7977, "thumbnail": 7978, "CALCULATE_": 7979, "|j": 7980, "lif": 7981, "arget": 7982, "aut": 7983, "by-": 7984, "sph": 7985, "ycl": 7986, "unte": 7987, "heater": 7988, "system_id=str!)": 7989, "olicy": 7990, "ticket_id=str!)": 7991, "anking": 7992, "include_": 7993, "platform=str": 7994, "Program": 7995, "Intern": 7996, "getGender": 7997, "_file=str!)": 7998, "returned.": 7999, "andidates": 8000, "(sensorId=str!)": 8001, "Sale": 8002, "(speed=enum(": 8003, "cribe": 8004, "tonight": 8005, "resolve": 8006, "similarity": 8007, "broad": 8008, "find_missing_number": 8009, "WEA": 8010, "dimensional": 8011, "reconci": 8012, "AliExpress": 8013, "Austin": 8014, "duplicates": 8015, "WEATH": 8016, "np": 8017, "inv": 8018, "ena": 8019, "iling": 8020, "Hub": 8021, "product.": 8022, "payout": 8023, "ridd": 8024, "symbol=str": 8025, "tober": 8026, "food|": 8027, "_historical": 8028, "Cancels": 8029, "Strateg": 8030, "pository": 8031, "(tank": 8032, "engineering": 8033, "connected": 8034, "getWeather": 8035, "strategies": 8036, "ranking": 8037, "celsius|f": 8038, "previously": 8039, "goods": 8040, "regression": 8041, "ORDER": 8042, "Zipt": 8043, "injury": 8044, "priority=enum(low|medium|high)": 8045, "generate_random_string": 8046, "Would": 8047, "celsius|fahrenheit": 8048, "Ziptastic": 8049, "HE": 8050, "P-": 8051, "Who": 8052, "vage": 8053, "Indi": 8054, "temperature=str)": 8055, "voc": 8056, "appoint": 8057, "cite": 8058, "Intel": 8059, "_ticket": 8060, "getPat": 8061, "interview": 8062, "fully": 8063, "vince": 8064, "calculate_factorial": 8065, "immediately.": 8066, "Business": 8067, "site.": 8068, "HTML": 8069, "accommo": 8070, "doubling": 8071, "issues.": 8072, "FETCH_": 8073, "accuracy": 8074, "relax": 8075, "CL": 8076, "II": 8077, "(on": 8078, "Col": 8079, "getting": 8080, "edIn": 8081, "|auto": 8082, "_bre": 8083, "_performance": 8084, "_campaign": 8085, "discre": 8086, "/home": 8087, "(bpm": 8088, "tank.": 8089, "IGH": 8090, "--------": 8091, "practices": 8092, "iOS": 8093, "permutations": 8094, "pollution": 8095, "school": 8096, "Scale": 8097, "=enum(daily|": 8098, "incidents": 8099, "h-": 8100, "VA": 8101, "JP": 8102, "ors": 8103, "vex": 8104, "stress": 8105, "flashlight.": 8106, "oir": 8107, "oter": 8108, "lock.": 8109, "avi": 8110, "_field": 8111, "_email=str!": 8112, "includes": 8113, "Name=str)": 8114, "_sensor": 8115, "edge": 8116, "_dice": 8117, "_budget": 8118, "original_": 8119, "smith": 8120, "version=str)": 8121, "cooking_": 8122, "Color": 8123, "suppli": 8124, "(intensity": 8125, "expiry": 8126, "_style": 8127, "(from_": 8128, "slug": 8129, "_cycle": 8130, "_resistance": 8131, "(mode=enum(auto|": 8132, "(direction=enum(": 8133, "LOG_": 8134, "start_wash": 8135, "set_fan_speed": 8136, "eshare": 8137, "atisfaction": 8138, "explicit": 8139, "DETAIL": 8140, "International": 8141, "PL": 8142, "ste": 8143, "rit": 8144, "chand": 8145, "ife": 8146, "wall": 8147, "Reading": 8148, "_cert": 8149, "line.": 8150, "ugar": 8151, "latest_": 8152, "alerts.": 8153, "Week": 8154, "DELE": 8155, "method.": 8156, "module_name.get_": 8157, "today.": 8158, "Bron": 8159, "space.": 8160, "dispense": 8161, "borrow": 8162, "assigned": 8163, "GBP": 8164, "America": 8165, "Standard|": 8166, "Kenji": 8167, "DETAILS": 8168, "HR": 8169, "Vi": 8170, "tur": 8171, "agr": 8172, "bers": 8173, "mall": 8174, "inno": 8175, "ctional": 8176, "mig": 8177, "encing": 8178, "webcam": 8179, "two.": 8180, "ideas": 8181, "agric": 8182, "term.": 8183, "printing": 8184, "earth": 8185, "optimization": 8186, "getWater": 8187, "Patent": 8188, "routine": 8189, "captions": 8190, "CSV": 8191, "airplane": 8192, ".tanak": 8193, "get_ip_zipcode": 8194, "piece": 8195, "October": 8196, "vexity": 8197, "ow": 8198, "d|": 8199, ".p": 8200, "nis": 8201, "age=int": 8202, "email|": 8203, "rical": 8204, "valence": 8205, "Recent": 8206, "prevent": 8207, "plant.": 8208, "spir": 8209, "OR_": 8210, "_recommend": 8211, "approx": 8212, "itative": 8213, "reasure": 8214, "specialty": 8215, "table=str)": 8216, "today?": 8217, "Notes": 8218, "is_valid_email": 8219, "(address=str": 8220, "add_contact": 8221, "toner": 8222, "(condition=str!": 8223, "Maps.": 8224, "calculate_investment": 8225, "_shar": 8226, "special_char": 8227, "(include_humans": 8228, "temporary": 8229, "is_valid_parentheses": 8230, "IMDb": 8231, "(include_humans=bool": 8232, "orem": 8233, "email=str": 8234, "enue": 8235, "must": 8236, "Ther": 8237, "book_": 8238, "Fund": 8239, "notes.": 8240, "_state": 8241, "company.": 8242, "note=str)": 8243, "Watch": 8244, "library's": 8245, "target_lang": 8246, "length=int)": 8247, "breath": 8248, "operations": 8249, "(frequency": 8250, "_slot": 8251, "iphy": 8252, "rename": 8253, "(account_number=str!": 8254, "authentication.": 8255, "(conditions=arr": 8256, "replacement": 8257, "Humidity": 8258, "SHIP": 8259, "roverts": 8260, "smalle": 8261, "(dilution": 8262, "HSL": 8263, "ERATURE": 8264, "learn": 8265, "Services": 8266, "manently": 8267, "ilMoisture": 8268, "at-bats.": 8269, "side=enum(buy|sell": 8270, "smallest": 8271, "TEMPERATURE": 8272, "(x": 8273, "Are": 8274, "pic": 8275, "rele": 8276, "eye": 8277, "volume.": 8278, "ario": 8279, "projects": 8280, "netic": 8281, "(audio": 8282, "metry": 8283, "(hour": 8284, "AMP": 8285, "refunds": 8286, "food_item": 8287, "remove_": 8288, "rais": 8289, "urbidity": 8290, "is_sum": 8291, "dynamic": 8292, "diagnosis": 8293, "SPAC": 8294, "_of_c": 8295, "forensic": 8296, "conflict": 8297, "preferences.": 8298, "QUERY_": 8299, "(action=enum(open|close": 8300, "LinkedIn": 8301, "is_sum_of_c": 8302, "is_sum_of_cubes": 8303, "in_": 8304, "on_": 8305, "love": 8306, "quis": 8307, "ips": 8308, "mac": 8309, "send_": 8310, "izing": 8311, "product_id=str!": 8312, "Message": 8313, "s=int!": 8314, "_device": 8315, "paper_id=str!)": 8316, "count_b": 8317, "available.": 8318, "_post": 8319, "customer_id": 8320, "sort=str)": 8321, "tree": 8322, "factor.": 8323, "Point": 8324, "detected": 8325, "_api.get_": 8326, "political": 8327, "(asset": 8328, "'Meeting": 8329, "(animal": 8330, "timeframe.": 8331, "getSales": 8332, "(code=str)": 8333, "operations.": 8334, "hazard": 8335, "getArch": 8336, "create_histogram": 8337, "prime_factor": 8338, "merge_sorted_": 8339, "_prime": 8340, "Mobile": 8341, "analyzing": 8342, "Football": 8343, "Twelve": 8344, "espresso": 8345, "count_bits": 8346, "prime_factorization": 8347, "merge_sorted_lists": 8348, "ba": 8349, "C-": 8350, "iles": 8351, "doors": 8352, "plans": 8353, "unread": 8354, "equity": 8355, "height.": 8356, "_max": 8357, "artifacts": 8358, "find_duplicate": 8359, "_grams": 8360, "is_hotel_": 8361, "alignment": 8362, "is_palindrome": 8363, "Pokémon": 8364, "commercial": 8365, "metabolism": 8366, "slope": 8367, "exchange.": 8368, "assignee": 8369, "-by-": 8370, "food|transport": 8371, "repository": 8372, "accommodate": 8373, "/home/": 8374, "is_prime": 8375, "is_hotel_available": 8376, "icon": 8377, "Sam": 8378, "dose": 8379, "targeting": 8380, "_by_date": 8381, "mute": 8382, "player.": 8383, "Multi": 8384, "wide": 8385, "(group": 8386, "struction": 8387, "market_": 8388, "_food": 8389, "DEP": 8390, "pods": 8391, "comedy": 8392, "Role": 8393, "seconds.": 8394, "getGame": 8395, "Processes": 8396, "(id=str!)": 8397, "|sports": 8398, "categor": 8399, "computer": 8400, "_common_d": 8401, "_material": 8402, "philosophy": 8403, "(annual_interest_rate=num": 8404, "copies=int": 8405, "find_longest_word": 8406, "profession": 8407, "protect": 8408, "room|bedroom|kitchen|": 8409, "COVID": 8410, "Governance": 8411, "FPGA": 8412, "draw_cards": 8413, "_scheme=str": 8414, "appointments": 8415, "doubling_time": 8416, "greatest_common_d": 8417, "greatest_common_divisor": 8418, "DS": 8419, "Card": 8420, "void": 8421, "Dock": 8422, "GEN": 8423, "please.": 8424, "_account": 8425, "(level=int!": 8426, "state.": 8427, "primary": 8428, "restaurant=str!)": 8429, "wants": 8430, "Transaction": 8431, "creator": 8432, "species=str": 8433, "Compound": 8434, "levance": 8435, "ANCE": 8436, "assignment": 8437, "ometric": 8438, "shares": 8439, "(tracking_number=str!)": 8440, "utiliz": 8441, "NCT": 8442, "(plant_name=str!)": 8443, "is_valid_palindrome": 8444, "CANCE": 8445, "(OD)": 8446, "-dimensional": 8447, "province": 8448, "approximate": 8449, "calculate_investment_return": 8450, "COVID-": 8451, "ts": 8452, "Ab": 8453, "_B": 8454, "VO": 8455, "/C": 8456, "Bas": 8457, "tip": 8458, "age=str": 8459, "Mart": 8460, "_man": 8461, "afting": 8462, "_cap": 8463, "backend": 8464, ".com.": 8465, "job.": 8466, "outcome": 8467, "(category=str)": 8468, "coder": 8469, "reatment": 8470, "distance.": 8471, "chema": 8472, "socc": 8473, "today's": 8474, "(limit=str": 8475, "getProduct": 8476, "Activity": 8477, "xygen": 8478, "pending|": 8479, "ority_element": 8480, "least_common": 8481, "find_maj": 8482, "search_papers": 8483, "Route": 8484, "discuss": 8485, "Follow": 8486, "(num_at_b": 8487, "find_next_": 8488, "precision=int)": 8489, "num_hits=int": 8490, "h-index": 8491, "find_duplicate_number": 8492, "least_common_multiple": 8493, "find_majority_element": 8494, "(num_at_bat": 8495, "(num_at_bats=int": 8496, "er=str": 8497, "dro": 8498, "_sid": 8499, "ickup": 8500, "Other": 8501, "(brightness=int!)": 8502, "weight=str!)": 8503, "od=num)": 8504, "spending": 8505, "Near": 8506, "azam": 8507, "factor=num": 8508, "Instance": 8509, "(playlist": 8510, "patent.": 8511, "_smal": 8512, "arily": 8513, "phrases": 8514, "STOP": 8515, "add_item": 8516, "(class": 8517, "Phase": 8518, "Specifically": 8519, "_url=str!)": 8520, "(blind": 8521, "Shuf": 8522, "Braz": 8523, "(lat=int": 8524, "Grand": 8525, "clusion": 8526, "_and_": 8527, "expand_": 8528, "count_occurrences": 8529, "maya@": 8530, "Application": 8531, "getMarket": 8532, "start_cleaning": 8533, "find_kth": 8534, "_slug": 8535, "fraud": 8536, "lest_number": 8537, "demographics": 8538, "liquid": 8539, "omar@": 8540, "rollout": 8541, "around_center": 8542, "Eiffel": 8543, "July": 8544, "diseases": 8545, "Maps.co": 8546, "(dilution=int": 8547, "maya@ex.com": 8548, "find_kth_smal": 8549, "omar@ex.com": 8550, "expand_around_center": 8551, "find_kth_smallest_number": 8552, "|D": 8553, "term=str)": 8554, "doctor": 8555, "method=str": 8556, "etry": 8557, "Sarah's": 8558, "subscription_id=str!)": 8559, "pancy": 8560, "|critical": 8561, "uuid": 8562, "specifying": 8563, "imensions": 8564, "Archive": 8565, "(genre=str": 8566, "palindrome.": 8567, "intervention": 8568, "digits.": 8569, "glob": 8570, "automated": 8571, "(credentials": 8572, "(sku=str!)": 8573, "Target": 8574, "convert_cooking_": 8575, "_by_relevance": 8576, "convert_cooking_measurements": 8577, "d.": 8578, "UU": 8579, "in.": 8580, "emo": 8581, "anti": 8582, "amic": 8583, "ely": 8584, "temperature=int)": 8585, "_number=str": 8586, "Light": 8587, "robot.": 8588, "PIN": 8589, "works": 8590, "SEO": 8591, "edia": 8592, "artist_": 8593, "_levels": 8594, "icense": 8595, "(dict": 8596, "LOY": 8597, "calculate_angle": 8598, "uid=str)": 8599, "california": 8600, "constraints.": 8601, "(genre=enum(": 8602, "conducting": 8603, "_regression": 8604, "greater_element": 8605, "receipt": 8606, "(trial_id=str!)": 8607, "kilogram": 8608, "checkEthical": 8609, "Production": 8610, "Sentiment": 8611, "Canada": 8612, "fertilizer": 8613, "Version": 8614, "search_papers_by_relevance": 8615, "find_next_greater_element": 8616, "iner": 8617, "hal": 8618, "bul": 8619, "iam": 8620, "pling": 8621, "_sp": 8622, "Stor": 8623, "field.": 8624, "commit": 8625, "_clo": 8626, "(model": 8627, "Total": 8628, "amination": 8629, "username.": 8630, "other.": 8631, "funding": 8632, "height=num)": 8633, "affect": 8634, "encry": 8635, "start_value": 8636, "recommendation": 8637, "customs": 8638, "ation_count": 8639, "electro": 8640, "array.": 8641, "Quotes": 8642, "Patents": 8643, "Patient": 8644, "calculate_quarterly": 8645, "getResearch": 8646, "xyz": 8647, "(activity=str": 8648, "Places": 8649, "total_dividend": 8650, "geometry.": 8651, "significance_level=num)": 8652, "height_cm": 8653, "turbo": 8654, "cagr": 8655, "Convexity": 8656, "calculate_quarterly_dividend": 8657, "Az": 8658, "nit": 8659, "roof": 8660, "ived": 8661, "stats.": 8662, "avel": 8663, "(ext": 8664, "words.": 8665, "_scan": 8666, "outage": 8667, "(move": 8668, "region=str!": 8669, "heating": 8670, "matric": 8671, "feeder.": 8672, "_network": 8673, "publishing": 8674, "asures": 8675, "(device_id=str!": 8676, "urgency": 8677, "docket": 8678, "advertisement": 8679, "Lookup": 8680, "book_ride": 8681, "Material": 8682, "divisor": 8683, "Keyword": 8684, "furniture": 8685, "snapshot": 8686, "(contingency_table": 8687, "(in": 8688, "lof": 8689, "trail": 8690, "email_": 8691, "ants": 8692, "tempo": 8693, "trying": 8694, "bug": 8695, "image_": 8696, "fra": 8697, "Arti": 8698, "service_type=enum(": 8699, "afterno": 8700, "Dire": 8701, "health.": 8702, "claim.": 8703, "_size=str!": 8704, "Enroll": 8705, "(agent": 8706, "now?": 8707, "(items=arr": 8708, "_plate": 8709, "getDigital": 8710, "respect": 8711, "ownership": 8712, "(lower": 8713, "(hours=int!": 8714, "nowledge": 8715, "send_sms": 8716, "Warehouse": 8717, "outputsize=int": 8718, "output_format=str)": 8719, "tutor": 8720, "|d": 8721, "VR": 8722, "Her": 8723, "stir": 8724, "search.": 8725, "verter": 8726, "timing": 8727, "vies": 8728, "cret": 8729, "getPr": 8730, "Sequ": 8731, "target_value": 8732, "_make": 8733, "threshold=num!)": 8734, "Speech": 8735, "notes=str": 8736, "audiobook.": 8737, "understand": 8738, "framework": 8739, "linked": 8740, "Method": 8741, "Feature": 8742, "cancel_print": 8743, "_service.": 8744, "economy|": 8745, "find_peak": 8746, "project_investment": 8747, "evolutionary": 8748, "cubes": 8749, "substrings.": 8750, "PokéAPI.": 8751, "correct": 8752, "(IPv": 8753, "Communicates": 8754, "Science": 8755, "Intelligence": 8756, "permutation_count": 8757, "Movies": 8758, "find_peak_element": 8759, "project_investment_growth": 8760, "ono": 8761, "nth": 8762, "vas": 8763, "b=str)": 8764, "contents": 8765, "fers": 8766, "forex": 8767, "|all": 8768, "Vir": 8769, "Night": 8770, "Date=str": 8771, "highlight": 8772, "holder": 8773, "Pinterest": 8774, "method=enum(": 8775, "synth": 8776, "episode.": 8777, "intervals.": 8778, "technique": 8779, "Smart": 8780, "_restriction": 8781, "hands": 8782, "_speed=int": 8783, "growth_rate=num": 8784, "shape": 8785, "upper=int)": 8786, "getMedia": 8787, "_capacity": 8788, "agnitude": 8789, "instructor": 8790, "_market": 8791, "i.e.": 8792, "cargo": 8793, "TOGG": 8794, "important": 8795, "_similarity": 8796, "get_pokemon_move_info": 8797, "initial_population=int": 8798, ".tanaka@": 8799, "(doubling_time": 8800, "(lower=int": 8801, "(doubling_time=num": 8802, "LL": 8803, "'B": 8804, "ston": 8805, "Rel": 8806, "locate": 8807, "(phone": 8808, "_date=str)": 8809, "urther": 8810, "product_name=str!": 8811, "schedule.": 8812, "webpage": 8813, "_request": 8814, "getSpe": 8815, "sortby": 8816, "(plant": 8817, "(enable": 8818, "summary.": 8819, "base.": 8820, "policy_number=str!)": 8821, "CE_": 8822, "_series": 8823, "proxy": 8824, "pokemon_name=str)": 8825, "predict_evolution": 8826, "American": 8827, "summarize": 8828, "Server": 8829, "garden": 8830, "get_holidays_by_year": 8831, "enforcement": 8832, "UPDATE_": 8833, "Binance": 8834, "Period": 8835, "Pokémon's": 8836, "CANCEL_": 8837, "(move_name=str": 8838, "predict_evolution_rate": 8839, "or_": 8840, "yet": 8841, "for_": 8842, "Bro": 8843, "unct": 8844, "tiation": 8845, "rul": 8846, "ams": 8847, "anger": 8848, "right=int": 8849, "weekend": 8850, "greg": 8851, "_language": 8852, "Photo": 8853, "(left": 8854, "note.": 8855, "height=str!": 8856, "parcel": 8857, "getCampaign": 8858, "Publish": 8859, "educ": 8860, "Paramet": 8861, "_ids=arr!": 8862, "(organization": 8863, "Only": 8864, "keto": 8865, "timeframe=str)": 8866, "(annual_growth": 8867, "get_ip_location": 8868, "Property": 8869, "INV-": 8870, "deductions": 8871, "aaS": 8872, "uppercase=bool)": 8873, "weight_lb": 8874, "parallel": 8875, "disposable": 8876, "current_pop=int": 8877, "leaderboard": 8878, "lofi": 8879, "(left=int": 8880, "(annual_growth=num": 8881, "weight_lbs=int)": 8882, "meet": 8883, "type=str!)": 8884, "illow": 8885, "Ids": 8886, "grab": 8887, "cano": 8888, "among": 8889, "filter.": 8890, "consum": 8891, "firmed": 8892, "_batch": 8893, "_by_username": 8894, "game.": 8895, "find_files": 8896, "interest_rate": 8897, "_statistics": 8898, "factorization": 8899, "Cases": 8900, "Great": 8901, "Tax": 8902, "pickup=str!": 8903, "(action=enum(on|off": 8904, "authenticate_": 8905, "id.\\n\\nArgs": 8906, "(enabled=bool!": 8907, "formula": 8908, "cript": 8909, "(model=str": 8910, "txt": 8911, "Reserves": 8912, "twitter": 8913, "itarian": 8914, "CPU": 8915, "red|green|blue|white": 8916, "circuit": 8917, "time_frame=str)": 8918, "corporate": 8919, "(borrower": 8920, "height_inches=int": 8921, "Controls": 8922, "|W": 8923, "stry": 8924, "stral": 8925, "tes": 8926, "metic": 8927, "servation": 8928, "Live": 8929, "bru": 8930, "top.": 8931, "is_id=str": 8932, "actions.": 8933, "Extracts": 8934, "is_arm": 8935, "campaign_id": 8936, "James": 8937, "curve": 8938, "Random": 8939, "research_": 8940, "STA": 8941, "channel_": 8942, "clip": 8943, "recitations": 8944, "garage_door": 8945, "selection": 8946, "metrics.": 8947, "|night": 8948, "vessel_": 8949, "actors": 8950, "atalog": 8951, "(gene": 8952, "shares.": 8953, "strong_number": 8954, "Inc.": 8955, "(vin": 8956, "Maria": 8957, "|other)!": 8958, "(namespace=str!": 8959, "CAGR": 8960, "evening": 8961, "count_vowels": 8962, "alice@example.com": 8963, "_reference=str!": 8964, "floor_numbers=arr)": 8965, "get_city_from_zipcode": 8966, "getMicrobial": 8967, "Java": 8968, "Guidelines": 8969, "relevance.\\n\\nArgs": 8970, "Tips": 8971, "linear_regression": 8972, "frastructure": 8973, "is_armstrong_number": 8974, "SO": 8975, "Io": 8976, "atar": 8977, "hap": 8978, "redu": 8979, "Adv": 8980, "necess": 8981, "(auth": 8982, "city=str": 8983, "value=num!)": 8984, "_block": 8985, "points_": 8986, "Rating": 8987, "here": 8988, "recipitation": 8989, "seasons": 8990, "start_x": 8991, "rise": 8992, "Time=str!": 8993, "_non": 8994, "(duration=int": 8995, "(author_id=str!": 8996, "probability_of_": 8997, "marri": 8998, "VE_": 8999, "(contract": 9000, "complaint": 9001, "Emergency": 9002, "lesson": 9003, "maybe": 9004, "copyright": 9005, "Stream": 9006, "explain": 9007, "applicable": 9008, "getCountry": 9009, "installation": 9010, "(database_name=str!": 9011, "liters": 9012, "SCHEDULE_": 9013, "to_account=str!)": 9014, "implement": 9015, "Netflix": 9016, "surgery": 9017, "matrices.": 9018, "orre": 9019, "pest": 9020, "Lab": 9021, "Hash": 9022, "locations.": 9023, "pret": 9024, "compar": 9025, "libr": 9026, "zone=str)": 9027, "|month": 9028, "station_id=str!)": 9029, "create_note": 9030, "flag.": 9031, "equal": 9032, "amaz": 9033, "_minimum": 9034, "threat": 9035, "Removes": 9036, "_substring": 9037, "approved": 9038, "(address=str!)": 9039, "json=str": 9040, "_papers": 9041, "prices.": 9042, "(check_in": 9043, "|ETH": 9044, "NFT": 9045, "_palindromic": 9046, "(include_special": 9047, "inflation_": 9048, "hotel_room": 9049, "pagesize": 9050, "judge": 9051, "tunnel": 9052, "(matrix_a": 9053, "celsius|fahrenheit))": 9054, "Multiplies": 9055, "find_longest_palindromic": 9056, "find_longest_palindromic_substring": 9057, "ki": 9058, "Fan": 9059, "atmo": 9060, "exc": 9061, "Mex": 9062, "mention": 9063, "elet": 9064, "counts.": 9065, "desk": 9066, "get_author": 9067, "Afr": 9068, "Chan": 9069, "standup": 9070, "payload": 9071, "Final": 9072, "domains": 9073, "noise": 9074, "(radius": 9075, "tomorrow?": 9076, "sounds": 9077, "(event_id=str!)": 9078, "permission": 9079, "REMIN": 9080, "elements.": 9081, "(directory": 9082, "esports": 9083, "(domain=str": 9084, "cultural": 9085, "flatten": 9086, "locale=str)": 9087, "(establishment": 9088, "Times": 9089, "print_document": 9090, "attribute": 9091, "(number=int)": 9092, "transformer": 9093, "delicate|": 9094, "color=enum(warm|cool|daylight": 9095, "consecutive_rolls": 9096, "fingerprint": 9097, "frequencies": 9098, "(i.e.": 9099, "(include_special=bool": 9100, "Channel": 9101, "probability_of_consecutive_rolls": 9102, "EM": 9103, "FE": 9104, "UE": 9105, "Bit": 9106, "hem": 9107, "Bay": 9108, "dry": 9109, "code=str": 9110, "_pack": 9111, "ticker.": 9112, "more.": 9113, "'https": 9114, "whats": 9115, "ORCID": 9116, "(a=str": 9117, "(artwork": 9118, "getRock": 9119, "vector_b": 9120, "vector_a": 9121, "(base=num": 9122, "staging": 9123, "Proposal": 9124, "continue": 9125, "=enum(BTC": 9126, "Blue": 9127, "confidence": 9128, "recognized": 9129, "Survey": 9130, "cosine_similarity": 9131, "inflation_adjust": 9132, "QA": 9133, "km": 9134, "WS": 9135, "ed=str": 9136, "_get": 9137, "coh": 9138, "Cast": 9139, "heav": 9140, "paint": 9141, "depos": 9142, "get_stock": 9143, "_team": 9144, "highlights": 9145, "weights": 9146, "_note": 9147, "hotels": 9148, "search_authors": 9149, "osage": 9150, "length_m": 9151, "_method=str": 9152, "(time=str!)": 9153, "Square": 9154, "sarah": 9155, "_contract": 9156, "ategories": 9157, "surface": 9158, "milli": 9159, "y_values": 9160, "holiday": 9161, "spotify": 9162, "(zone=str!)": 9163, "brewing": 9164, "Brand": 9165, "locale=str": 9166, "diagnostic": 9167, "practice": 9168, "x_values": 9169, "_sorted_array": 9170, "_rotated": 9171, "circle_area": 9172, "TX-": 9173, "Clean": 9174, "_support": 9175, "npj": 9176, "salvage": 9177, "num_sid": 9178, "find_minimum": 9179, "_rotated_sorted_array": 9180, "find_minimum_rotated_sorted_array": 9181, "NC": 9182, "FA": 9183, "Er": 9184, ")?": 9185, "YK": 9186, "(re": 9187, "gate": 9188, "chil": 9189, "mine": 9190, "vote": 9191, "adult": 9192, "icken": 9193, "cule": 9194, "until": 9195, "deep": 9196, "Playlist": 9197, "Date=str!": 9198, "page=str": 9199, "image.": 9200, "putation": 9201, "sensor_id": 9202, "going": 9203, "processing.": 9204, "currency.": 9205, "trait": 9206, "IND_": 9207, "getMusic": 9208, "Mich": 9209, "PAT": 9210, "get_citations": 9211, "return_rate=num": 9212, "_lookup": 9213, "_mpg": 9214, "(annual_addition": 9215, "vacuum.": 9216, "(difficulty": 9217, "_pattern": 9218, "studies": 9219, "Armstrong": 9220, "Charging": 9221, "(ride_id=str!)": 9222, "bottle": 9223, "Spring": 9224, "natural": 9225, "Estimates": 9226, "punct": 9227, "aggreg": 9228, "linear_regression_prediction": 9229, "inflation_adjusted=bool": 9230, "search_authors_by_name": 9231, "(annual_addition=num": 9232, "Us": 9233, "jan": 9234, "ble": 9235, "pir": 9236, "soon": 9237, "er_id=str!": 9238, "Oak": 9239, "Reset": 9240, "Reschedule": 9241, "black": 9242, "test_": 9243, "recitation": 9244, "(active": 9245, "factors": 9246, "crew": 9247, "events.": 9248, "Whats": 9249, "stream_": 9250, "errors": 9251, "motorcycle": 9252, "_insurance": 9253, "get_weather_forecast": 9254, "tweets": 9255, "_type=enum(standard|": 9256, "German": 9257, "excluding": 9258, "weigh": 9259, "tilt": 9260, "self-": 9261, "vaccine": 9262, "Launch": 9263, "demption": 9264, "=enum(en|": 9265, "Sync": 9266, "Article": 9267, "medicine": 9268, "zyme": 9269, "sci-fi": 9270, "unteer": 9271, "electric_field": 9272, "bruary": 9273, "reserve_hotel_room": 9274, "GS": 9275, "PJ": 9276, "cp": 9277, "Nor": 9278, "qui": 9279, "isis": 9280, "ems": 9281, "ilver": 9282, "es=int)": 9283, "ache": 9284, "format_date": 9285, "_rates": 9286, "payor": 9287, "paper_id=str!": 9288, "two-": 9289, "retrieve_": 9290, "ins=int": 9291, "(nums=arr": 9292, "_level=enum(": 9293, "method=str!": 9294, "mechan": 9295, "transfer_": 9296, "experiment.": 9297, "task=str!)": 9298, "difference": 9299, "receive": 9300, "title.\\n\\nArgs": 9301, "ICE": 9302, "Sports": 9303, "(base=int": 9304, "philosop": 9305, "visualization": 9306, "_module.get_": 9307, "Restaurant": 9308, "(facility": 9309, "Python": 9310, "narrator": 9311, "hallway": 9312, "Calibrate": 9313, "raises": 9314, "approximately": 9315, "Parameters": 9316, "Austral": 9317, "necessary": 9318, "WhatsApp": 9319, ">$": 9320, "GI": 9321, "GO": 9322, "sx": 9323, "Mor": 9324, "t=str)": 9325, "Part": 9326, "_m=num": 9327, "contest": 9328, "(minutes": 9329, "Rock": 9330, "total=int)": 9331, "strings.": 9332, "disarm": 9333, "project_id=str!)": 9334, "project_name=str!": 9335, "message=str!)": 9336, "description.": 9337, "goals": 9338, "National": 9339, "weights=arr)": 9340, "'Project": 9341, "thermal": 9342, "(region=str)": 9343, "NAS": 9344, "_timestamp": 9345, "choice": 9346, "submitted": 9347, "start_time=str": 9348, "wait": 9349, "gift": 9350, "mography": 9351, "kindly": 9352, "chunks": 9353, "introverts=int": 9354, "appears)": 9355, "Crypto": 9356, "reverse_words": 9357, "getUrban": 9358, "inquiry.": 9359, "Copy": 9360, "(scores=arr": 9361, "wire_resistance": 9362, "Aspir": 9363, "GreenMart": 9364, "(extroverts=int": 9365, "calculate_electric_field": 9366, "appears)\\n\\nArgs": 9367, "N_": 9368, "MW": 9369, "WH": 9370, "atest": 9371, "mous": 9372, "som": 9373, "Expl": 9374, "inated": 9375, "quot": 9376, "color=str)": 9377, "add_to": 9378, "prior": 9379, "(country=str)": 9380, "request_": 9381, "accessing": 9382, "get_range": 9383, "Pos": 9384, "tax.": 9385, "sale": 9386, "classify": 9387, "cancel_reservation": 9388, "TO_": 9389, "(area=str": 9390, "product_category": 9391, "download_": 9392, "Fashion": 9393, "benef": 9394, "(protein": 9395, "inquirer": 9396, "(candidate": 9397, "(container": 9398, "assistant.": 9399, "iddle": 9400, "dialog.": 9401, "Summarize": 9402, "_quadratic": 9403, "HIST": 9404, "word_frequency": 9405, "split_list": 9406, "calorie_intake": 9407, "(LCM": 9408, "=enum(staging|production": 9409, "reservoir": 9410, "Giphy": 9411, "Shuffl": 9412, "TOGGLE_": 9413, "solve_quadratic": 9414, "(LCM)": 9415, "Shuffles": 9416, "OB": 9417, "does": 9418, "subset": 9419, "Mine": 9420, "plits": 9421, "akers": 9422, "ills": 9423, "_custom": 9424, "limits.": 9425, "author_id": 9426, "authorId": 9427, "strings": 9428, "bookmark": 9429, "model=str)": 9430, "document.": 9431, "ing_status": 9432, "group.": 9433, "sorting": 9434, "category=enum(": 9435, "(amount=num": 9436, "quake": 9437, "expired": 9438, "quantity=int!)": 9439, "rating=int!": 9440, "warning": 9441, "_cost": 9442, "Quarter": 9443, "closely": 9444, "Gene": 9445, "samples": 9446, "delete_contact": 9447, "election.": 9448, "(algorithm": 9449, "(trackingNumber=str!)": 9450, "|medium|large": 9451, "SPE": 9452, "mestic": 9453, "resolution=enum(low|medium|high))": 9454, "(num_draw": 9455, "bathroom": 9456, "excludes": 9457, "alimony": 9458, "(gl=str": 9459, "ssid=str!)": 9460, "professional": 9461, "Azure": 9462, "Sequence": 9463, "calculate_calorie_intake": 9464, "small|medium|large": 9465, "(num_draw=int)": 9466, "cm": 9467, "ger": 9468, "Our": 9469, "toget": 9470, "argin": 9471, "She": 9472, "five": 9473, "arith": 9474, "pool": 9475, "acc": 9476, "lication": 9477, "book.": 9478, "ayout": 9479, "lang=str)": 9480, "Cond": 9481, "ission": 9482, "actual": 9483, "k))": 9484, "'content": 9485, "inci": 9486, "date).": 9487, "buck": 9488, "Defect": 9489, "standards": 9490, "frontend": 9491, "start_recording": 9492, "requirement": 9493, "getBattery": 9494, "a_sequence": 9495, "marine": 9496, "Conference": 9497, "_phrase": 9498, "integral": 9499, "transaction_history": 9500, "Region": 9501, "horos": 9502, "decision": 9503, "kenji": 9504, "(compound": 9505, "driving": 9506, "hrs": 9507, "tool.": 9508, "(note_id=int!)": 9509, "_unit=str": 9510, "PlayerStats": 9511, "Restart": 9512, "exactly": 9513, "replicas=int!)": 9514, "proceed": 9515, "Quantum": 9516, "(cancellation": 9517, "scheduling": 9518, "lowercase=bool": 9519, "recycl": 9520, "relaxing": 9521, "satisfaction": 9522, "DELETE_": 9523, "n-dimensional": 9524, "conclusion": 9525, "ipedia": 9526, "sampling": 9527, "va": 9528, "ic|": 9529, "eness": 9530, "contr": 9531, "listen": 9532, "Math": 9533, "END": 9534, "Cover": 9535, "meters.": 9536, "fees.": 9537, "polit": 9538, "_filter": 9539, "library.": 9540, "organic": 9541, "taxpay": 9542, "Token": 9543, "sync": 9544, "list_of_": 9545, "eggs": 9546, "cores": 9547, "|business": 9548, "Engagement": 9549, "Species": 9550, "Good": 9551, "Code=str!)": 9552, "(product_name=str!)": 9553, "payment_method=enum(": 9554, "list_all_": 9555, "excer": 9556, "grid.": 9557, "(base=str": 9558, "ficiency": 9559, "Anya": 9560, ".jp": 9561, "retail": 9562, "employee.": 9563, "rule.": 9564, "//contacts/people": 9565, "time_range=str)": 9566, "Songs": 9567, "finished": 9568, "secret": 9569, "synthetic": 9570, "Dosage": 9571, "=enum(small|medium|large": 9572, "mn": 9573, "SD": 9574, "IB": 9575, "Gre": 9576, "ici": 9577, "ded": 9578, "end_": 9579, "cose": 9580, "get_all": 9581, "liance": 9582, "dram": 9583, "maint": 9584, "wood": 9585, "TEM": 9586, "VIP": 9587, "tier.": 9588, "Exchange": 9589, "Month": 9590, "_list_": 9591, "create_reminder": 9592, "source=str": 9593, "Journ": 9594, "version=str!)": 9595, "Flu": 9596, "guest_id=str": 9597, "tracking_number=str!)": 9598, "organizational": 9599, "goals.": 9600, "lon=int)": 9601, "branch.": 9602, "stars": 9603, "_amount=num!": 9604, "survey.": 9605, "Handles": 9606, "optimize_": 9607, "Standings": 9608, "skip=int)": 9609, "script": 9610, "(digits": 9611, "Sharma": 9612, "radius_km": 9613, "cpu": 9614, "cross-se": 9615, "get_current_weather": 9616, "spouse": 9617, "TRACK_": 9618, "_criteria": 9619, "|auto)!)": 9620, "special_chars=bool": 9621, "scenario": 9622, "inerary": 9623, "atmosph": 9624, "CMYK": 9625, "//contacts/people/": 9626, "lucose": 9627, "(digits=bool": 9628, "'A": 9629, "'C": 9630, "i'": 9631, "anx": 9632, "ation=str": 9633, "     ": 9634, "ids.": 9635, "acl": 9636, "acme": 9637, "lates": 9638, "sody": 9639, "played": 9640, "_weather": 9641, "event_id=str!": 9642, "Rec": 9643, "items.": 9644, "author\\n": 9645, "_CO": 9646, "track.": 9647, "paper's": 9648, "price=num!": 9649, "rate=num": 9650, "meal_": 9651, "curities": 9652, "get_forecast": 9653, "_data=str!)": 9654, "known\\n": 9655, "daily_": 9656, "Recording": 9657, "ratings": 9658, "priority=enum(": 9659, "room_type=str)": 9660, "students": 9661, "_inbox": 9662, "paperCount": 9663, "(duration=str": 9664, "website\\n": 9665, "(delay": 9666, "generation": 9667, "(participant": 9668, "_fee": 9669, "name.\\n\\nArgs": 9670, "author.\\n\\nArgs": 9671, "adlines": 9672, "hIndex": 9673, "Active": 9674, "psychological": 9675, "citationCount": 9676, "getStock": 9677, "Celsius.": 9678, "xicity": 9679, "Tier": 9680, "nutrient": 9681, "_driver": 9682, "genotype": 9683, "attendee": 9684, "homepage\\n": 9685, "paper_fields": 9686, "paper_fields=str": 9687, "ORD-": 9688, "recipient_monthly_income": 9689, "_alimony": 9690, "musical": 9691, "getAnimal": 9692, "objects\\n\\n": 9693, "damaged": 9694, "Execute": 9695, "riddle": 9696, "GENERA": 9697, "h-index\\n": 9698, "externalIds": 9699, "(action=enum(on|off)!": 9700, "get_author_papers": 9701, "ORCID/": 9702, "=enum(BTC|ETH": 9703, "Michael": 9704, "payor_monthly_income": 9705, "Minecraft": 9706, "Quarterly": 9707, "(excludes": 9708, "california_alimony": 9709, "ORCID/DB": 9710, "ORCID/DBLP": 9711, "EP": 9712, "|N": 9713, "Ir": 9714, "toon": 9715, "_id`": 9716, "urned": 9717, "date\\n": 9718, "mental": 9719, "oph": 9720, "comes": 9721, "ette": 9722, "about\\n": 9723, "func": 9724, "Exper": 9725, "(language": 9726, "content.": 9727, "string.\\n\\n": 9728, "query.\\n\\n": 9729, "playlist.": 9730, "ivity.": 9731, "papers.\\n": 9732, "support.": 9733, "formed": 9734, "check_status": 9735, "(network": 9736, "food.": 9737, "Delay": 9738, "claims.": 9739, "thou": 9740, "experimental": 9741, "purpose": 9742, "time_period=str!)": 9743, "get_battery": 9744, "acm": 9745, "brands": 9746, "semant": 9747, "\\nabstract": 9748, "snippet_search": 9749, "vacation": 9750, "in.\\n\\nArgs": 9751, "bior": 9752, "Acceptable": 9753, "effective": 9754, "results.\\n": 9755, "industry=str!": 9756, "paper_ids": 9757, "paper_ids=str": 9758, "birthdate.": 9759, "Tempor": 9760, "YYYY\\n\\nReturns": 9761, "parentheses.": 9762, "accommod": 9763, "bibliography.\\n": 9764, "(inserted_before": 9765, "astron": 9766, "getPharmaceutical": 9767, "south": 9768, "(carrier": 9769, "atinum": 9770, "cruise": 9771, "Tanaka": 9772, "(on=bool!)": 9773, "merchand": 9774, "REMINDER": 9775, "(bins=int": 9776, "dna_sequence": 9777, "excerpts": 9778, "cross-sectional": 9779, "aclweb": 9780, "about\\nthe": 9781, "query.\\n\\nText": 9782, "acm.org": 9783, "semantics": 9784, "biorxiv.org": 9785, "bibliography.\\nIt": 9786, "(inserted_before=str": 9787, "aclweb.org": 9788, "semanticscholar": 9789, "biorxiv.org\\n\\n": 9790, "semanticscholar.org": 9791, "/to": 9792, "had": 9793, "Case": 9794, "you.": 9795, "_par": 9796, "attract": 9797, "_pub": 9798, "apps": 9799, "get_account": 9800, "serial": 9801, "thread": 9802, "data=arr)": 9803, "tag.": 9804, "ggers": 9805, "getFil": 9806, "tasks.": 9807, "trial.": 9808, "York.": 9809, "payee": 9810, "suggest_": 9811, "(phrase": 9812, "(actor": 9813, "exchanges": 9814, "statistic": 9815, "Trial": 9816, ".json": 9817, "promo_code=str": 9818, "_STATUS": 9819, "checkout_date=str": 9820, "(word=str!)": 9821, "Management": 9822, "Maya": 9823, "target_audience=str!)": 9824, "shipped": 9825, "Super": 9826, "elevation": 9827, "observation": 9828, "youtube": 9829, "(camera": 9830, "(durationMinutes": 9831, "|warning": 9832, "challenge": 9833, "sex=str": 9834, "weight_kg=num)": 9835, "(birthdate=str)": 9836, "yester": 9837, "clock.": 9838, "Boston": 9839, "(enable=bool!)": 9840, "avatar": 9841, "|marri": 9842, "minecraft": 9843, "itinerary": 9844, "hapsody": 9845, "GENERATE_": 9846, "s'": 9847, "mg": 9848, "an_": 9849, "reel": 9850, "flashlight?": 9851, "acing": 9852, "ACTI": 9853, "phone.": 9854, "create_event": 9855, "(field": 9856, "product_name": 9857, "Step": 9858, "zone=int!)": 9859, "tember": 9860, "quality=enum(": 9861, "getFor": 9862, "bread": 9863, "home|": 9864, "thresholds": 9865, "edding": 9866, "charter": 9867, "(type=str)": 9868, "leadership": 9869, "_token=str!)": 9870, "industry=str": 9871, "get_wifi": 9872, "everything": 9873, "y-value": 9874, "(vehicle_id=str!)": 9875, "attendees": 9876, "trapezoidal": 9877, "Consult": 9878, "barcode": 9879, "(checkin_date=str": 9880, "getSocial": 9881, "nightly_rate=num": 9882, "vertebrate": 9883, "prepare": 9884, "oxygen": 9885, "flatten_list": 9886, "Translates": 9887, "Sn": 9888, "⌊n": 9889, "Ya": 9890, "##": 9891, "Don": 9892, "get_by": 9893, "Lim": 9894, "anga": 9895, "formance": 9896, "mode?": 9897, "'s)": 9898, "ordered": 9899, "parag": 9900, "ces.": 9901, "string=str!)": 9902, "Compl": 9903, "web-": 9904, "(block": 9905, "boss": 9906, "BAL": 9907, "Whole": 9908, "combin": 9909, "_fish": 9910, "reply": 9911, "start_charging": 9912, "drone.": 9913, "time_interval": 9914, "num_years": 9915, "(campaignId=str!": 9916, "Trends": 9917, "handling": 9918, "Currency": 9919, "shuf": 9920, "(artist=str!": 9921, "hospital": 9922, "note_duration": 9923, "dice_roll": 9924, "PNG": 9925, "consecuti": 9926, "attributes": 9927, "SoundCloud": 9928, "BOOK": 9929, "_prefix": 9930, "nozzle": 9931, "hemian": 9932, "xlsx": 9933, "Aspirin": 9934, "Rhapsody": 9935, "consecutively": 9936, "S.": 9937, "fort": 9938, "Zip": 9939, "avid": 9940, "attem": 9941, "Aud": 9942, "separ": 9943, "(level=enum(": 9944, "etween": 9945, "set_water": 9946, "request.": 9947, "nego": 9948, "curious": 9949, "recording.": 9950, "_daily": 9951, "related_": 9952, "ethn": 9953, "ed_list": 9954, "_claim": 9955, "transaction_id=str!)": 9956, "istrib": 9957, "Measure": 9958, "discounts": 9959, "(discount": 9960, "(sound": 9961, "ids=arr!)": 9962, "_coffee": 9963, "cancel_appointment": 9964, "wind_speed": 9965, "nearby_": 9966, "(days=arr": 9967, "_provider": 9968, "(user_id=str)": 9969, "variables": 9970, "improvement": 9971, "collabor": 9972, "(language=str!": 9973, "(robot_id=str!)": 9974, "set_bluetooth": 9975, "trapezoidal_": 9976, "freight.": 9977, "coefficient": 9978, "transfer_to_human_agents": 9979, "focusing": 9980, "division": 9981, "alphan": 9982, "water_plant": 9983, "getPatent": 9984, "Viol": 9985, "agricultural": 9986, "(num_shar": 9987, "Area": 9988, "(hour=int": 9989, "remove_duplicates": 9990, "total_dividend=int)": 9991, "get_paper_batch": 9992, "February": 9993, "is_anagram_phrase": 9994, "ids.\\n\\nArgs": 9995, "nested_list": 9996, "trapezoidal_integration": 9997, "alphanum": 9998, "(num_shares=int": 9999, "alphanumeric": 10000, "M-": 10001, "ju": 10002, "yy": 10003, "VE": 10004, "calls": 10005, "format=str)": 10006, "minal": 10007, "Inno": 10008, "temperature.": 10009, "_volume": 10010, "item.": 10011, "iller": 10012, "Category": 10013, "cooling": 10014, "Age": 10015, "company_name": 10016, "_details=str!": 10017, "(end=int": 10018, "join": 10019, "latitude=num!": 10020, "(amount=str!": 10021, "cake": 10022, "advis": 10023, "_size=int!": 10024, "drop": 10025, "ographics": 10026, "Public": 10027, "summar": 10028, "reason=str!)": 10029, "_samples": 10030, "(product_id=str!)": 10031, "_amount=int": 10032, "advance": 10033, "permitivity": 10034, "mlem": 10035, "(athlete": 10036, "authenticity": 10037, "Reddit": 10038, "(comment": 10039, "organizations": 10040, "jane@example.com": 10041, "(resolution=enum(": 10042, "private": 10043, "Paper": 10044, "wildlife": 10045, "suitable": 10046, "Recip": 10047, "paragraph": 10048, "Bohemian": 10049, "(initial_amount=int": 10050, "(t": 10051, "QL": 10052, "a-": 10053, "TT": 10054, "GL": 10055, "ager": 10056, "unce": 10057, "ders": 10058, "_contact": 10059, "resist": 10060, "timer.": 10061, "movement": 10062, "scient": 10063, "set_schedule": 10064, "light_name=str!)": 10065, "ride.": 10066, "airs": 10067, "(on/off": 10068, "payment.": 10069, "platform=str!)": 10070, "employ": 10071, "getBook": 10072, "extra": 10073, "_suggest": 10074, "override": 10075, "(year=str)": 10076, "ivative": 10077, "films": 10078, "material=str)": 10079, "(state=enum(on|off": 10080, "minute=int)": 10081, "modify_order": 10082, "aways": 10083, "AIG": 10084, "_confirmation": 10085, "sharma": 10086, "Blind": 10087, "resume_": 10088, "wireless": 10089, "birthday": 10090, "_color=str": 10091, "(analysis_type=str!": 10092, "Building": 10093, ".mp": 10094, "play_song": 10095, "(arr=arr": 10096, "Need": 10097, "templates": 10098, "(session_id=str!)": 10099, "fiction|": 10100, "(url=str!)": 10101, "Structure": 10102, "disrup": 10103, "loan_term": 10104, "(callback=str": 10105, "regression.": 10106, "tennis": 10107, "license_plate": 10108, "Compliance": 10109, "securities": 10110, "|c": 10111, "d_": 10112, "in=str": 10113, "thr": 10114, "liation": 10115, "forget": 10116, "prom": 10117, "Field": 10118, "disk": 10119, "Allow": 10120, "speed.": 10121, "cipe": 10122, "(email=str!)": 10123, "plant_name": 10124, "basement": 10125, "(pair": 10126, "labels": 10127, "recipient.": 10128, "podcasts": 10129, "_from=str": 10130, "(chemical": 10131, "_preference": 10132, "getTeam": 10133, "getGlobal": 10134, "cancer": 10135, "delete_note": 10136, "(experimentId=str!)": 10137, "breaking": 10138, "alpha": 10139, "checkout=str": 10140, "(aircraft": 10141, "get_stock_": 10142, "(trialId=str!)": 10143, "commerce": 10144, "navigation": 10145, "services.": 10146, "Audience": 10147, "(checkin=str": 10148, "roots": 10149, "penalty": 10150, "chemistry": 10151, "dessert": 10152, "Function": 10153, "potential_energy": 10154, "Radio": 10155, "rideshare": 10156, "macron": 10157, "Position": 10158, "Mer": 10159, "Den": 10160, "oil": 10161, "hock": 10162, "user/": 10163, "Stage": 10164, "Cook": 10165, "really": 10166, "wave": 10167, "price=int": 10168, "artial": 10169, "Leet": 10170, "source=str)": 10171, "headlights": 10172, "figures": 10173, "_points": 10174, "terior": 10175, "coeffic": 10176, "definite": 10177, "itecoin": 10178, "Author": 10179, "john.": 10180, "|closed": 10181, "getNe": 10182, "get_directions": 10183, "sentence.": 10184, "interactions": 10185, "idden": 10186, "(budget=str": 10187, "fr|de": 10188, "getHuman": 10189, "embly": 10190, "_credit": 10191, "(GC": 10192, "(tag=str)": 10193, "failure": 10194, "yoga": 10195, "exercises": 10196, "turbidity": 10197, "rules.": 10198, "CNPJ": 10199, "Temporarily": 10200, "eptember": 10201, "LeetCode": 10202, "coefficients": 10203, "(GCD)": 10204, "pi": 10205, "UC": 10206, ".v": 10207, "Sof": 10208, "Land": 10209, "enda": 10210, "tir": 10211, "user-": 10212, "imag": 10213, "_day": 10214, "omain": 10215, "_rid": 10216, "products.": 10217, "parts": 10218, "_log": 10219, "getSub": 10220, "flood": 10221, "create_memo": 10222, "ilitation": 10223, "DAQ": 10224, "_flow": 10225, "getMet": 10226, "WHO": 10227, "_lon": 10228, "number_of_": 10229, "ip_zipcode": 10230, "offset=str": 10231, "goal=str": 10232, "(product_id=str!": 10233, "_address=str!)": 10234, "(identifier": 10235, "(loyalty": 10236, "cern": 10237, "delete_memo": 10238, "(speed=int!)": 10239, "|blue|green": 10240, "_location=str)": 10241, "strength=enum(": 10242, "Flags": 10243, "FILE": 10244, "catalogue": 10245, "sid=str!)": 10246, "instructions": 10247, "sku=str!)": 10248, "find_equilibrium": 10249, "Audio": 10250, "per_page": 10251, "mark_as": 10252, "|utilities": 10253, "target_value=int)": 10254, "someth": 10255, "macronutrient": 10256, "NASDAQ": 10257, "WHOIS": 10258, "find_equilibrium_index": 10259, "WI": 10260, "Km": 10261, "it?": 10262, "Git": 10263, "Coin": 10264, "thermostat.": 10265, "nums=arr": 10266, "state=str)": 10267, "patient's": 10268, "ssil": 10269, "parities": 10270, "spent": 10271, "readable": 10272, "hotel=str)": 10273, "target_language": 10274, "position.": 10275, "_records": 10276, "rolls.": 10277, "destination.": 10278, "creative": 10279, "ergent": 10280, "ancer": 10281, "there's": 10282, "(campaignId=str!)": 10283, "Temp": 10284, "(equipment": 10285, "playback_speed": 10286, "eligible": 10287, "Pump": 10288, "Draft": 10289, "_summary=str!)": 10290, "(latitude=int": 10291, "trained": 10292, "onyms": 10293, "Grant": 10294, "(num_roll": 10295, "getBuilding": 10296, "cancel_ride": 10297, "(access_token=str!": 10298, "_camera": 10299, "tml": 10300, "procedures": 10301, "Consulting": 10302, "input_format=str": 10303, "authenticate_customer": 10304, "repeating": 10305, "Inception": 10306, "cotton|": 10307, "_restaurants": 10308, "get_air_quality": 10309, "begin": 10310, "champion": 10311, "technician": 10312, "(duration_years=int": 10313, "soccer": 10314, "num_sides=int": 10315, "portrait": 10316, "arithmetic": 10317, "recipient_monthly_income=int)": 10318, "payor_monthly_income=int": 10319, "giveaways": 10320, "habilitation": 10321, "(num_rolls=int": 10322, "hl": 10323, "Bu": 10324, "Har": 10325, "al|": 10326, "olf": 10327, "formul": 10328, "ivan": 10329, "exas": 10330, "com.": 10331, "Bright": 10332, "Kick": 10333, "Theory": 10334, "Compar": 10335, "team=str)": 10336, "findings": 10337, "_station": 10338, "household": 10339, "_level=int": 10340, "sample_id=str!)": 10341, "positions": 10342, "uation.": 10343, "s_detail": 10344, "allerg": 10345, "getBio": 10346, "delays": 10347, "delayed": 10348, "windows": 10349, "Progress": 10350, "billboard": 10351, "tenant": 10352, "getShipment": 10353, "getVol": 10354, "list_memos": 10355, "advice": 10356, "bnb": 10357, "(lat=str": 10358, "hsl": 10359, "(flag_name=str!)": 10360, "(query=str": 10361, "scope": 10362, "Feedback": 10363, "get_order_status": 10364, "repeat": 10365, "truck": 10366, "ADD_": 10367, "troubles": 10368, "Strategy": 10369, "quisition": 10370, "search_for_": 10371, "(ssid=str!)": 10372, "ivanew": 10373, "Ed": 10374, "|p": 10375, "($": 10376, "-in": 10377, "ern": 10378, "fline": 10379, "itness": 10380, "Real": 10381, "(target": 10382, "open_door": 10383, "ologies": 10384, "Train": 10385, "latte": 10386, "Ride": 10387, "quality.": 10388, "Sleep": 10389, "password.": 10390, "Space": 10391, "label=str)": 10392, "(machine": 10393, "(account_id=str!)": 10394, "miles": 10395, "notifications": 10396, "(mass": 10397, "query_for": 10398, "Configures": 10399, "conversions": 10400, "IGHT": 10401, "gradient": 10402, "slots": 10403, "double": 10404, "Office": 10405, "SCHEDULE": 10406, "check_soil_moisture": 10407, "Optionally": 10408, "opportunities": 10409, "_damage": 10410, "Pressure": 10411, "Life": 10412, "(action=enum(open|close)!": 10413, "(CAGR": 10414, "MTX-": 10415, "childr": 10416, "inciples": 10417, "path/to": 10418, "Audit": 10419, "_between": 10420, "path/to/": 10421, "stack": 10422, "TIONS": 10423, "temperature=str!)": 10424, "subject=str": 10425, "outdoor": 10426, "(song": 10427, "propos": 10428, "cast.": 10429, "-old": 10430, "indices": 10431, "JUS": 10432, "Weight": 10433, "supported_": 10434, "(person": 10435, "creens": 10436, "start_print": 10437, "Time=str": 10438, "(material": 10439, "TICK": 10440, "(angle": 10441, "Second": 10442, "namespace=str!)": 10443, "podcast.": 10444, "(website": 10445, "(audience": 10446, "credit_card": 10447, "freeze": 10448, "isturb": 10449, "Trials": 10450, "(artifact": 10451, "layer": 10452, "Consumption": 10453, "passengers": 10454, "stickers": 10455, "Now": 10456, "pause_playback": 10457, "laboratory": 10458, "cology": 10459, "grades": 10460, "Rename": 10461, "(ticket_id=str!)": 10462, "comparis": 10463, "log_sleep": 10464, "getPlant": 10465, "Sudoku": 10466, "(sentence=str)": 10467, "sugar": 10468, "_license": 10469, "Artist": 10470, "(directory=str": 10471, "Splits": 10472, "non-repeating": 10473, "(CAGR)": 10474, "ADJUS": 10475, "creenshot": 10476, "HD": 10477, "en-": 10478, "far": 10479, "sion": 10480, "ad_": 10481, "quart": 10482, "email=str!": 10483, "ardi": 10484, "dies": 10485, "counter": 10486, "ategor": 10487, "orders.": 10488, "added": 10489, "internet": 10490, "_repe": 10491, "thank": 10492, "customer's": 10493, "_rate=str": 10494, "'.'": 10495, "_game": 10496, "find_first": 10497, "reservation.": 10498, "applications": 10499, "CH_C": 10500, "synthes": 10501, "pair.": 10502, "urvey": 10503, "English.": 10504, "urgery": 10505, "quotes_by_": 10506, "(pump": 10507, "adjust_volume": 10508, "(year=int!)": 10509, "packaging": 10510, "attendance": 10511, "walking|": 10512, "purifier.": 10513, "violation": 10514, "ating_char": 10515, "doe@example.com": 10516, "getWarehouse": 10517, "order_total": 10518, "nested": 10519, "instagram.": 10520, "third": 10521, "_celsius=num!)": 10522, "(end_value=num": 10523, "Resource": 10524, "electronics": 10525, "dispatch": 10526, "Effects": 10527, "LeBron": 10528, "start_value=num": 10529, "canvas": 10530, "(phone_id=str)": 10531, "Bitcoin": 10532, "chicken": 10533, "FIND_": 10534, "erformance": 10535, "a.sharma": 10536, "offline": 10537, "_non_repe": 10538, "find_first_non_repe": 10539, "find_first_non_repeating_char": 10540, "C_": 10541, "|m": 10542, "s)": 10543, "hg": 10544, "War": 10545, "ison": 10546, "byname": 10547, "getuser": 10548, "x=num": 10549, "Fast": 10550, "searches": 10551, "grind": 10552, "that's": 10553, "es.get_": 10554, "app.": 10555, "ugby": 10556, "_bill": 10557, "lat=str": 10558, "latency": 10559, "entities": 10560, "@example": 10561, "review.": 10562, "getCl": 10563, "confirmation.": 10564, "trial_id=str!)": 10565, "util.": 10566, "exchange=str": 10567, "calculate_discount": 10568, "live_": 10569, "patients": 10570, "restrictions.": 10571, "_standings": 10572, "_data=obj!)": 10573, "Downtown": 10574, "vectors.": 10575, "pallet": 10576, "check_water": 10577, "longest_common": 10578, "(temperature=num!": 10579, "symbols=str)": 10580, "report.pdf": 10581, "Diagno": 10582, "geocod": 10583, "ighbor": 10584, "(chunk": 10585, "ircuit": 10586, "toolbench.": 10587, "occas": 10588, "=dict!)": 10589, "predefined": 10590, "(end_x": 10591, "ugees": 10592, "Subscribe": 10593, "(filename": 10594, "candidates": 10595, "electrical": 10596, "Treatment": 10597, "discrepancy": 10598, "(vin=str)": 10599, "IoT": 10600, "start_x=int)": 10601, "(vector_a": 10602, "redemption": 10603, "HISTORY": 10604, "category=enum(food|transport": 10605, "Yahoo": 10606, "mark_as_read": 10607, "-year-old": 10608, "longest_common_prefix": 10609, "(chunk_size=int": 10610, "(end_x=int": 10611, "Nu": 10612, "on-": 10613, "itic": 10614, "ging": 10615, "pep": 10616, "moti": 10617, "she": 10618, "set_light": 10619, "pron": 10620, "body.": 10621, "ENS": 10622, "item=str": 10623, "(video": 10624, "match.": 10625, "color.": 10626, "amps": 10627, "held": 10628, "employee's": 10629, "|tech": 10630, "versions": 10631, "profiles": 10632, "Daily": 10633, "LAB": 10634, "security_": 10635, "(board": 10636, "embed": 10637, "feature_": 10638, "driv": 10639, "programs": 10640, "(drug": 10641, "=enum(rain": 10642, "getInventory": 10643, "Drug": 10644, "(count=int)": 10645, "_client": 10646, "_cursor=str": 10647, "Detects": 10648, "voltage.": 10649, "cryptocurrencies": 10650, "Artificial": 10651, "DNS": 10652, "violations": 10653, "TING": 10654, "deduction": 10655, "exceed": 10656, "...": 10657, "process_refund": 10658, "room=enum(living": 10659, "column": 10660, "EXPER": 10661, "iami": 10662, "height_cm=num": 10663, "measures": 10664, "yesterday": 10665, "_h": 10666, "K-": 10667, "U.": 10668, "rear": 10669, "atic": 10670, "ID=str!)": 10671, "uster": 10672, "Elect": 10673, "(cert": 10674, "aches": 10675, "top-": 10676, "_zone": 10677, "atio": 10678, "usability": 10679, "unlock_door": 10680, "(door_id=str!)": 10681, "Child": 10682, "pson": 10683, "get_post": 10684, "(is_id=int": 10685, "run.": 10686, "get_company": 10687, "tests": 10688, "getSup": 10689, "vehicle_id": 10690, "getPo": 10691, "tag=str)": 10692, "target_sum": 10693, "radi": 10694, "Composition": 10695, "height=str": 10696, "Income": 10697, "quantity=int": 10698, "ISB": 10699, "revis": 10700, "distance=int": 10701, "(item_id=str!": 10702, "_quote": 10703, "getUser": 10704, "alking": 10705, "codes.": 10706, "Bible": 10707, "riends": 10708, "study_id=str!)": 10709, "_by_city": 10710, "Resolve": 10711, "(words=arr)": 10712, "(instance": 10713, "(reservation_id=str!)": 10714, "Options": 10715, "analytical": 10716, "manufacturer=str": 10717, "_collection": 10718, "kilomet": 10719, "newsletter": 10720, "ping_address": 10721, "likes": 10722, "(charge=int": 10723, "Kanji": 10724, "preserving": 10725, "premium|xl": 10726, "american": 10727, "Docker": 10728, "unit=enum(celsius|fahrenheit))": 10729, "Limit": 10730, "shuffle": 10731, "permitivity=num)": 10732, "Denver": 10733, "formula.": 10734, "occasion": 10735, "x^": 10736, "Hor": 10737, "Mal": 10738, "tic": 10739, "King": 10740, "Pur": 10741, "forms": 10742, "phon": 10743, "elace": 10744, "yard": 10745, "therap": 10746, "astew": 10747, "product_id=str!)": 10748, "_out": 10749, "aking": 10750, "_limit": 10751, "mber": 10752, "project_id=str!": 10753, "price.": 10754, "filings": 10755, "anually": 10756, "workload": 10757, "LEV": 10758, "food_level": 10759, "methods.": 10760, "check_availability": 10761, "human-": 10762, "create_playlist": 10763, "secondary": 10764, "(output": 10765, "Ethere": 10766, "fanity": 10767, "guests": 10768, "submit_": 10769, "(humidity": 10770, "activate_": 10771, "Results=int": 10772, "guidance": 10773, "(book_id=str!": 10774, "getContact": 10775, "measure_distance": 10776, "Mike": 10777, "(current_": 10778, "(dosage": 10779, "initiate_": 10780, "subdirector": 10781, "owner_id=str!": 10782, "psychiatric": 10783, "(season=str)": 10784, "(app_id=str!": 10785, "follow-up": 10786, "(username=str!)": 10787, "_currency=str!": 10788, "slip": 10789, "cycling|": 10790, "silent": 10791, "bridge": 10792, "Monitors": 10793, "etc.)": 10794, "|USDT": 10795, "drafting": 10796, "tempo.": 10797, "|week|month": 10798, "length_m=int": 10799, "molecule": 10800, "(area_sq": 10801, "kenji.tanaka@": 10802, "Monthly": 10803, "Irrigation": 10804, "dice_roll_probability": 10805, "resistivity.": 10806, "Recipe": 10807, "calculate_order_total": 10808, "astewater": 10809, "(area_sq_m=num": 10810, "i_": 10811, "BU": 10812, "OD": 10813, "aring": 10814, "us_": 10815, "wap": 10816, "right.": 10817, "counts": 10818, "Mass": 10819, "set_auto": 10820, "limit.": 10821, "_site": 10822, "Playback": 10823, "page.": 10824, "price=num!)": 10825, "s_order": 10826, "relat": 10827, "_ref": 10828, "c=num)": 10829, "volume=num)": 10830, "ingInfo": 10831, "booking.": 10832, "joint": 10833, "_delivery": 10834, "_pipeline": 10835, "balance.": 10836, "NAME": 10837, "_required": 10838, "parental": 10839, "complexity": 10840, "(area=str!)": 10841, "registry": 10842, "make_model": 10843, "prime.": 10844, "lines.": 10845, "verification_code=str!)": 10846, "Laws": 10847, "capture_photo": 10848, "competitions": 10849, "Documents": 10850, "x-value": 10851, "PLAY": 10852, "prescription": 10853, "Shop": 10854, "check_out_date=str!": 10855, "fleet": 10856, "winning": 10857, "_purchase": 10858, "multi-": 10859, "vegetation": 10860, "(bpm=int": 10861, "whole_food": 10862, "Shazam": 10863, "detect_language": 10864, "confirmed": 10865, "transcript": 10866, "margin": 10867, "BALANCE": 10868, "coefficients.": 10869, "synonyms": 10870, "getShipmentStatus": 10871, "KE": 10872, "N-": 10873, "Gh": 10874, "or.": 10875, "inem": 10876, "leag": 10877, "bose": 10878, "vs.": 10879, "event_id": 10880, "big": 10881, "_phone": 10882, "Sav": 10883, "(open": 10884, "Jud": 10885, "files.": 10886, "point_b": 10887, "cleot": 10888, "Seg": 10889, "months": 10890, "performs": 10891, "Calculator": 10892, "Body": 10893, "venue_id=str!)": 10894, "vestig": 10895, "get_market": 10896, "agos": 10897, "CHA": 10898, "Alig": 10899, "concert": 10900, "version.": 10901, "great": 10902, "(fan": 10903, "FIL": 10904, "label_": 10905, "threshold.": 10906, "_class": 10907, "chron": 10908, "parties": 10909, "_url=str!": 10910, "(evidence": 10911, "SetTemperature": 10912, "tournamentid=int)": 10913, "timestamp=str)": 10914, "n't": 10915, "watchlist": 10916, "Website": 10917, "future_investment": 10918, "PAY": 10919, "explore": 10920, "utrition": 10921, "(driver": 10922, "INFO": 10923, "_mortgage": 10924, "solved": 10925, "collected": 10926, "(accept": 10927, "banana": 10928, "constructors": 10929, "from_account=str!": 10930, "molecular": 10931, "(course_id=str!": 10932, "Locate": 10933, "Enterprise": 10934, "transcribe": 10935, "Treasure": 10936, "conservation": 10937, "(activity_level=int": 10938, "_between_": 10939, "(target_x=num": 10940, "verbose": 10941, "Align": 10942, "future_investment_value": 10943, "o.": 10944, "ux": 10945, "mes": 10946, "ion.": 10947, "agre": 10948, "mart": 10949, "comb": 10950, "parse": 10951, "_email=str!)": 10952, "text=str": 10953, "cater": 10954, "getCon": 10955, "Mount": 10956, "result.": 10957, "device_id": 10958, "available_": 10959, "_to=str": 10960, "exists": 10961, "venture": 10962, "Side": 10963, "pet.": 10964, "_by_keyword": 10965, "|stop": 10966, "Emma": 10967, "quantity=num": 10968, "_channel": 10969, "size=str": 10970, "num_f": 10971, "getFe": 10972, "ahead": 10973, "streaming_": 10974, "search_notes": 10975, "=enum(low|": 10976, "customization": 10977, "rpm": 10978, "Levels": 10979, "Lunch": 10980, "=enum(USD": 10981, "airports": 10982, "DATA": 10983, "_address=str": 10984, "assets": 10985, "Seismic": 10986, "(mood": 10987, "_favor": 10988, "to_unit=str)": 10989, "(query=str!": 10990, "take_photo": 10991, "cache": 10992, "getHealthcare": 10993, "getHistorical": 10994, "trending_": 10995, "Output": 10996, "Expense": 10997, "plications": 10998, "(library_name=str!)": 10999, "Culture": 11000, "Legends": 11001, "/data/": 11002, "Issue": 11003, "(from_unit=str": 11004, "SoilMoisture": 11005, "avoid": 11006, "sortby=str)": 11007, "onomous": 11008, "func=str": 11009, "ethnicity": 11010, "=enum(cotton|": 11011, "children": 11012, "LEVEL": 11013, "Ethereum": 11014, "whole_foods_order": 11015, "cleotide": 11016, "JF": 11017, "or|": 11018, "Pan": 11019, "aid": 11020, "Sus": 11021, "His": 11022, "tili": 11023, "cep": 11024, "erse": 11025, "ades": 11026, "Hex": 11027, "ithub": 11028, "Wind": 11029, "orant": 11030, "status=str": 11031, "beh": 11032, "_number=int": 11033, "Turnout": 11034, "transmit": 11035, "theater": 11036, "please?": 11037, "periods": 11038, "HIP": 11039, "project_id": 11040, "water.": 11041, "velength": 11042, "range=str)": 11043, "media.": 11044, "_size=str)": 11045, "CAST": 11046, "engineer": 11047, "esian": 11048, "rating=int!)": 11049, "urnament": 11050, "namespace=str!": 11051, "_url=str": 11052, "mutual": 11053, "remember": 11054, "(category=enum(world": 11055, "|EUR": 11056, "objectives": 11057, "getRelig": 11058, "pagination.": 11059, "translations": 11060, "Ocean": 11061, "beats": 11062, "celest": 11063, "muscle": 11064, "t-test": 11065, "(applicant": 11066, "recruiting|": 11067, "toff": 11068, "_identity": 11069, "orderbyid": 11070, "anthropology": 11071, "max_results=int": 11072, "concentration": 11073, "Revenue": 11074, "Permanently": 11075, "magnetic": 11076, "comedy|": 11077, "encrypt": 11078, "deposits": 11079, "upstream_": 11080, "maintain": 11081, "feed_fish": 11082, "Distrib": 11083, "September": 11084, "check_food_level": 11085, "Lagos": 11086, "HIPAA": 11087, "celestial": 11088, "upstream_bas": 11089, "(>": 11090, "UM": 11091, "oni": 11092, "Bar": 11093, "stery": 11094, "|lo": 11095, "rif": 11096, "uted": 11097, "Cam": 11098, "Tho": 11099, "Wash": 11100, "drum": 11101, "_number=str)": 11102, "text_": 11103, "feel": 11104, "rated": 11105, "invoice.": 11106, "_stock": 11107, "value=str!)": 11108, "featur": 11109, "getSy": 11110, "get_player": 11111, "source.": 11112, "Density": 11113, "availability.": 11114, "http": 11115, "national": 11116, "forces": 11117, "ugee": 11118, "chains": 11119, "Select": 11120, "track_order": 11121, "student_id=str!": 11122, "INE_": 11123, "(max_": 11124, "save_": 11125, "token=str": 11126, "'Team": 11127, "Contacts": 11128, "getFashion": 11129, "Memory": 11130, "extension=str)": 11131, "(password=str!": 11132, "red|green|blue": 11133, "RUN": 11134, "PAU": 11135, "(app_name=str!": 11136, "A|B": 11137, "|Gold": 11138, "Legal": 11139, "Android": 11140, "Conducts": 11141, "(room=enum(living": 11142, "```": 11143, "preparing": 11144, "is_valid_su": 11145, "Shipping": 11146, "matrix_b=arr)": 11147, "prevalence": 11148, "schema": 11149, "(contingency_table=arr": 11150, "(matrix_a=arr": 11151, "(radius=num)": 11152, "read_inbox": 11153, "brew_coffee": 11154, "exterior": 11155, "Brightness": 11156, "subdirectories.": 11157, "Nucleotide": 11158, "A|B|C": 11159, "is_valid_sudoku": 11160, "_on": 11161, "(name": 11162, "sect": 11163, "lens": 11164, "-out": 11165, "icated": 11166, "yota": 11167, "_rank": 11168, "blink": 11169, "tracking.": 11170, "=enum(front": 11171, "ByName": 11172, "_events": 11173, "_role": 11174, "ources": 11175, "Validator": 11176, "axis": 11177, "CCS": 11178, "placed": 11179, "footprint": 11180, "setTemperature": 11181, "Client": 11182, "workshop": 11183, "(defect": 11184, "width=int)": 11185, "artworks": 11186, "Supply": 11187, "_count=int!": 11188, "blockchain.": 11189, "(substation": 11190, "set_light_": 11191, "Pizza": 11192, "favorites": 11193, "push": 11194, "reaching": 11195, "(patentId=str!)": 11196, "atsby": 11197, "already": 11198, "crm.": 11199, "BOOK_": 11200, "cognitive": 11201, "sustainable": 11202, "log_workout": 11203, "impressions": 11204, "bulk": 11205, "electrostatic": 11206, "volunteer": 11207, "paginated": 11208, "taxpayer": 11209, "criminal": 11210, "/home/user/": 11211, "Airbnb": 11212, "ADJUST_": 11213, "getPerformance": 11214, "pepper": 11215, "wavelength": 11216, "bb": 11217, "%.": 11218, "oth": 11219, "Pal": 11220, "Wil": 11221, "Way": 11222, "trid": 11223, "one.": 11224, "imper": 11225, "Ind": 11226, "log.": 11227, "state=str": 11228, "unci": 11229, "Medical": 11230, "ardware": 11231, "Poll": 11232, "planet": 11233, "Solution": 11234, "store.": 11235, "species=str)": 11236, "lyrics": 11237, "_sequence": 11238, "rating=enum(": 11239, "whites": 11240, "(data=str!)": 11241, "articipant": 11242, "windows.": 11243, "_times": 11244, "(color=str": 11245, "GetWeather": 11246, "remove_item": 11247, "list_utils.": 11248, "planets": 11249, "start_time=str)": 11250, "|spot": 11251, "_pressure": 11252, "MODE": 11253, "_t_test": 11254, "sec_": 11255, "subtitles": 11256, "Simulate": 11257, "queue.": 11258, "Address=str!": 11259, "check_balance": 11260, "microorganism": 11261, "(pet_name=str!": 11262, "to_currency": 11263, "iPhone": 11264, "folder.": 11265, "KFC": 11266, "vaccination": 11267, "Uncovered": 11268, "(department=str!": 11269, "getMedication": 11270, "lr=str)": 11271, "Therapy": 11272, "(auth_token=str!": 11273, "libraries": 11274, "transfer_funds": 11275, "Journal": 11276, "rate_driver": 11277, "separate": 11278, "independent_samples": 11279, "U.S.": 11280, "vember": 11281, "getorderbyid": 11282, "Toyota": 11283, "pronunci": 11284, "whitespace": 11285, "independent_samples_t_test": 11286, "Hy": 11287, "B-": 11288, "wat": 11289, "men": 11290, "pis": 11291, "emi": 11292, "cut": 11293, "plz": 11294, "prod": 11295, "date=str!)": 11296, "anom": 11297, "him": 11298, "indoor": 11299, "Star": 11300, "room=str)": 11301, "orderId": 11302, "colate": 11303, "ize_": 11304, "filter=str": 11305, "It's": 11306, "(alarm": 11307, "_by_state": 11308, "playlist_": 11309, "hotel.": 11310, "(hotel": 11311, "storm": 11312, "topic=str!": 11313, "estimate_": 11314, "bike": 11315, "whois": 11316, "quick)!": 11317, "Flatt": 11318, "(incident": 11319, "units=enum(": 11320, "add_expense": 11321, "Deletes": 11322, "disorders": 11323, "Memos": 11324, "(alpha": 11325, "voltage=num)": 11326, "PLAY_": 11327, "(brand=str": 11328, "(gender=str": 11329, "getPhilosophy": 11330, "(budget=num!": 11331, "scheme": 11332, "schools": 11333, "(slug": 11334, "Pauses": 11335, "track_shipment": 11336, "certificate": 11337, "const=str)": 11338, "influencer": 11339, "China": 11340, "single-level": 11341, "start_wash_cycle": 11342, "|GBP": 11343, "CI/C": 11344, "globally": 11345, "spin_speed=int": 11346, "heavy": 11347, "NCBI": 11348, "earthquake": 11349, "Platinum": 11350, "negotiation": 11351, "(nested_list": 11352, "Orders": 11353, "something": 11354, "Kickoff": 11355, "punctuation.": 11356, "=enum(USD|EUR": 11357, "Flattens": 11358, "(nested_list=arr)": 11359, "=enum(USD|EUR|GBP": 11360, "ND": 11361, "UT": 11362, "C)": 11363, "Bal": 11364, "los": 11365, "cols": 11366, "searchF": 11367, "noo": 11368, "Lig": 11369, "volume=int)": 11370, "|red": 11371, "text=str!": 11372, "yach": 11373, "targets": 11374, "page=str)": 11375, "parameter.": 11376, "marks": 11377, "airo": 11378, "(room=str!)": 11379, "(temperature=int!)": 11380, "vention": 11381, "english": 11382, "Tele": 11383, "AL_": 11384, "Heart": 11385, "terms.": 11386, "meeting.": 11387, "equations": 11388, "ticket_id=int!)": 11389, "application.": 11390, "ski": 11391, "_transfer": 11392, "_size=str!)": 11393, "Strength": 11394, "printer_status": 11395, "dataset.": 11396, "boarding": 11397, "See": 11398, "Local": 11399, "BAT": 11400, "incoming": 11401, "donor": 11402, "set_delay": 11403, "(account=str!": 11404, "equipment.": 11405, "groceries": 11406, "hibition": 11407, "_seconds": 11408, "units=str)": 11409, "_stage": 11410, "update_contact": 11411, "Dentist": 11412, "exclude": 11413, "jury": 11414, "p-value": 11415, "lng=str": 11416, "lng=int": 11417, "rush": 11418, "coded": 11419, "trackShipment": 11420, "(project_id=str!)": 11421, "Clear": 11422, "gaming": 11423, "vival": 11424, "wonder": 11425, "automation": 11426, "UFC": 11427, "Recommends": 11428, "Safeway": 11429, "|ocean": 11430, "genetics": 11431, "WEATHER_": 11432, "LIGH": 11433, "telemetry": 11434, "(assignee": 11435, "DEPLOY": 11436, "_close": 11437, "Layout": 11438, "Demographics": 11439, "ing|walking|": 11440, "Miami": 11441, "pepperoni": 11442, "CI/CD": 11443, "Mat": 11444, "den": 11445, "Tor": 11446, "leet": 11447, "Fed": 11448, "wis": 11449, "Dri": 11450, "Fact": 11451, "ing=str)": 11452, "With": 11453, "repo": 11454, "estate": 11455, "eking": 11456, "gain": 11457, "strain": 11458, "levels.": 11459, "get_status": 11460, "_calendar": 11461, "order=str": 11462, "filed": 11463, "Wifi": 11464, "authority": 11465, "keyword=str)": 11466, "boot": 11467, "customer.": 11468, "session_id=str!)": 11469, "get_campaign": 11470, "attachment": 11471, "@tech": 11472, "_reminder": 11473, "ferences": 11474, "application/": 11475, "quantity=str!)": 11476, "adjustment": 11477, "SLA": 11478, "sequences": 11479, "getCase": 11480, "podName=str!)": 11481, "cooker": 11482, "configur": 11483, "(drone": 11484, "corn": 11485, "investment_": 11486, "donation": 11487, "get_a_": 11488, "(device_name=str!)": 11489, "faces.": 11490, "(keyword=str!": 11491, "schedule_appointment": 11492, "BY_": 11493, "fulness": 11494, "Pattern": 11495, "Econom": 11496, "(days=int!": 11497, "driver|": 11498, "DER_": 11499, "(node": 11500, "consultant": 11501, "prinkl": 11502, "Cleaning": 11503, "sender=str)": 11504, "checkOut": 11505, "FORE": 11506, "tiktok.": 11507, "changes.": 11508, "getArtwork": 11509, "(charge=num": 11510, "check_ink": 11511, "Court": 11512, "recovery": 11513, "(num_dice": 11514, "extroverts": 11515, "Brazil": 11516, "volcano": 11517, "precipitation": 11518, "synthetic|": 11519, "Recipes": 11520, "comparison": 11521, "target_sum=int)": 11522, "Nutrition": 11523, "num_fac": 11524, "ilver|Gold": 11525, "imperial": 11526, "(num_dice=int": 11527, "num_faces=int": 11528, "Wa": 11529, "n_": 11530, "Kg": 11531, "din": 11532, "onto": 11533, "ico": 11534, "|un": 11535, "fail": 11536, "set.": 11537, "imb": 11538, "ira": 11539, "(show": 11540, "_pur": 11541, "place_s": 11542, "ries.": 11543, "_record": 11544, "Annot": 11545, "gold": 11546, "MAR": 11547, "functionality": 11548, "better": 11549, "facts": 11550, "trial_": 11551, "alarm.": 11552, "_health": 11553, "Att": 11554, "read_": 11555, "Refund": 11556, "culpt": 11557, "liness": 11558, "_method=str)": 11559, "list_events": 11560, "Require": 11561, "sequence_id=str": 11562, "ancing": 11563, "bpm": 11564, "getIm": 11565, "eductions": 11566, "duration_minutes=int": 11567, "_codes": 11568, "handball": 11569, "completed))": 11570, "_recipe": 11571, "endDate=str": 11572, "Family": 11573, "corp.com": 11574, "(claim_id=str!)": 11575, "(claim_id=str!": 11576, "hosting": 11577, "receiver": 11578, "(zone=enum(": 11579, "(namespace=str": 11580, "durationMinutes": 11581, "(confidence": 11582, "health_condition": 11583, "briefing": 11584, "(file_format=str": 11585, "FlowRate": 11586, "atomy": 11587, "_with_": 11588, "afeway_order": 11589, "antasy": 11590, "FLAG": 11591, "|east": 11592, "biometric": 11593, "_restrictions": 11594, "educational": 11595, "color=enum(warm|cool|daylight))": 11596, "thought": 11597, "time_interval=str)": 11598, "SQL": 11599, "=enum(BTC|ETH|USDT": 11600, "upstream_bases=int)": 11601, "driver|passenger": 11602, "|Silver|Gold": 11603, "place_safeway_order": 11604, "mi": 11605, "sr": 11606, "nation": 11607, "Pack": 11608, "URR": 11609, "loud": 11610, "ifiers": 11611, "PIP": 11612, "s_v": 11613, "state=str!)": 11614, "company's": 11615, "egal": 11616, "doll": 11617, "filing_": 11618, "activity.": 11619, "_data_": 11620, "longitude.": 11621, "appointment.": 11622, "seasonal": 11623, "azine": 11624, "CAS": 11625, "tiered": 11626, "genre.": 11627, "_booking": 11628, "sleep.": 11629, "add_to_": 11630, "_list=arr": 11631, "radius=int": 11632, "(chain": 11633, "getGe": 11634, "_interval": 11635, "tomorrow.": 11636, "getAvailable": 11637, "Healthcare": 11638, "irror": 11639, "|dim": 11640, "Syd": 11641, "Dental": 11642, "STATS": 11643, "(book_id=str!)": 11644, "series_type=str": 11645, "|sun": 11646, "Identifies": 11647, "replies": 11648, "(film": 11649, "consistent": 11650, "_rating=str": 11651, "modifications": 11652, "cancellations": 11653, "cycling": 11654, "getDisease": 11655, "accident": 11656, "Department": 11657, "easy": 11658, "_sku=str!": 11659, "speaker.": 11660, "vulnerabilities": 11661, "uuid=str)": 11662, "debug": 11663, "Zillow": 11664, "votes": 11665, "_cache": 11666, "controll": 11667, "David": 11668, "(comment=str": 11669, "get_stock_quote": 11670, "Texas": 11671, "SENS": 11672, "running|cycling|": 11673, "mystery": 11674, "check_ink_levels": 11675, "I)": 11676, "meme": 11677, "cing": 11678, "smo": 11679, "civ": 11680, "weet": 11681, "mented": 11682, "Pres": 11683, "Base": 11684, "door?": 11685, "omial": 11686, "shut": 11687, "regist": 11688, "moves": 11689, "-service": 11690, "analyst": 11691, "users.": 11692, "pageant": 11693, "arketing": 11694, "blog": 11695, "preview": 11696, "(run": 11697, "Medication": 11698, "listings": 11699, "WOR": 11700, "_power": 11701, "(design": 11702, "s_of_": 11703, "getSpace": 11704, "_issue": 11705, "priority.": 11706, "_by_brand": 11707, "READ_": 11708, "_chain": 11709, "list_notes": 11710, "steps.": 11711, "concept": 11712, "delete_file": 11713, "ysics": 11714, "coltr": 11715, "Gross": 11716, "contracts": 11717, "(expense": 11718, "Screen": 11719, "s_from_": 11720, "circulate": 11721, "(speed=num!)": 11722, "sunset": 11723, "Foods.": 11724, "expert": 11725, "(business": 11726, "(round": 11727, "(dataset=str!": 11728, "|west": 11729, "Optimizes": 11730, "time_window": 11731, "Backup": 11732, "(deployment_name=str!": 11733, "_reviews": 11734, "Percentage": 11735, "Salary": 11736, "_salary": 11737, "Suggests": 11738, "Booking.com": 11739, "clean_machine": 11740, "contamination": 11741, "stirrer": 11742, "forestry": 11743, "(booking_reference=str!": 11744, "(date_from=str": 11745, "set_playback_speed": 11746, "(issue_summary=str!)": 11747, "walking": 11748, "PIPEL": 11749, "coltrane": 11750, "Sp": 11751, "CG": 11752, "Ter": 11753, "har": 11754, "inch": 11755, "'ve": 11756, "ising": 11757, "ress": 11758, "heel": 11759, "ector": 11760, "Evid": 11761, "mode=str": 11762, "you?": 11763, "fine": 11764, "_inst": 11765, "key=str": 11766, "robot_id": 11767, "_pet": 11768, "eous": 11769, "disorder": 11770, "Stations": 11771, "orient": 11772, "allowed": 11773, "core": 11774, "Players": 11775, "colors": 11776, "search_news": 11777, "charges": 11778, "library_name": 11779, "Trade": 11780, "check_weather": 11781, "FOR": 11782, "Deal": 11783, "STO": 11784, "sms.": 11785, "skin": 11786, "adjustments": 11787, "|full": 11788, "credits": 11789, "operator": 11790, "Prices": 11791, "Let's": 11792, "(duration=int!": 11793, "partner": 11794, "injur": 11795, "footage": 11796, "meets": 11797, "COMP": 11798, "Obtain": 11799, "(court": 11800, "Breed": 11801, "getExperiment": 11802, "(temperature=num!)": 11803, "target_audience=str)": 11804, "refill": 11805, "-to-income": 11806, "order_size=str": 11807, "Priority": 11808, "regulatory": 11809, "(state=bool!)": 11810, "symptoms=str!)": 11811, "breeds": 11812, "getEthicsIn": 11813, "(restaurant=str!)": 11814, "(deploymentName=str!": 11815, "present_value=num": 11816, "|rear": 11817, "enhance": 11818, "Person": 11819, "Nursing": 11820, "getOrderStatus": 11821, "getGenderAnd": 11822, "_pickup": 11823, "_or_": 11824, "Lakers": 11825, "recycling": 11826, "ITEM": 11827, "get_dna_sequence": 11828, "prompt": 11829, "assembly": 11830, "store_location=str)": 11831, "(mass=num": 11832, "behind": 11833, "November": 11834, "nooze": 11835, "(item_list=arr": 11836, "Evidence": 11837, "_n": 11838, "a'": 11839, "neut": 11840, "ured": 11841, "East": 11842, "checks.": 11843, "_cre": 11844, "appu": 11845, "restock": 11846, "project_name": 11847, "Trend": 11848, "set_speed": 11849, "failed": 11850, "charger.": 11851, "creating": 11852, "render": 11853, "Logistics": 11854, "Under": 11855, "=float)": 11856, "bersecurity": 11857, "ashboard": 11858, "Frequency": 11859, "getGreen": 11860, "user_profile": 11861, "Processing": 11862, "reason=str": 11863, "white|cool": 11864, "hvac": 11865, "packages": 11866, "calculation.": 11867, "createAlert": 11868, "_logs": 11869, "individuals": 11870, "(company=str": 11871, "Cancer": 11872, "POD": 11873, "competitor": 11874, "to-do": 11875, "Recogn": 11876, "va@": 11877, "partySize": 11878, "Takes": 11879, "priority=enum(low|medium|high))": 11880, "university": 11881, "(channel=str)": 11882, "deck.": 11883, "euclidean": 11884, "experiments.": 11885, "Purchase": 11886, "(folder=str": 11887, "predictions": 11888, "_reason=enum(": 11889, "belt": 11890, "nursing": 11891, "laptop": 11892, "Renew": 11893, "getFinancial": 11894, "(amount_grams": 11895, "kilograms": 11896, "interpret": 11897, "excurs": 11898, "conclusion.": 11899, "loan_term_": 11900, "detergent": 11901, "get_supported_": 11902, "neighbor": 11903, "date_to=str": 11904, "aneous": 11905, "debt-to-income": 11906, "appucc": 11907, "da": 11908, "F-": 11909, "ara": 11910, "ome": 11911, "co.": 11912, "Oper": 11913, "acid": 11914, "reci": 11915, "details=str": 11916, "stable": 11917, "replace": 11918, "Fire": 11919, "camp": 11920, "(track": 11921, "docs": 11922, "ipsum": 11923, "mild": 11924, "Distance": 11925, "company.com": 11926, "MENT_": 11927, "essages": 11928, "_feed": 11929, "player_id": 11930, "markets": 11931, "research.": 11932, "longitude=int": 11933, "suite": 11934, "season=int)": 11935, "Transport": 11936, "incre": 11937, "getCrop": 11938, "end_time=str!": 11939, "iano": 11940, "headline": 11941, "wrong": 11942, "preference": 11943, "soundcloud": 11944, "Runs": 11945, "(color=bool": 11946, "get_traffic": 11947, "payment_method_id=str!)": 11948, "Reads": 11949, "EMP": 11950, "Campaigns": 11951, "gl=str": 11952, "breakdown": 11953, "appear": 11954, "priya": 11955, "fusion": 11956, "csv|": 11957, "(invoice_id=str!)": 11958, "(invoice_id=str!": 11959, "DeliveryTime": 11960, "target_language=str!": 11961, "_patient": 11962, "Description": 11963, "kindness": 11964, "_sentiment": 11965, "(distractor)": 11966, "fresh": 11967, "Visual": 11968, "(function=str": 11969, "(amount_ml=int": 11970, "Nano": 11971, "federal": 11972, "(connector": 11973, "purchased": 11974, "SHIPMENT": 11975, "Nearby": 11976, "emotion": 11977, "Efficiency": 11978, "glucose": 11979, "merchandise": 11980, "hockey": 11981, "golf": 11982, "bodies": 11983, "mode=enum(driv": 11984, "(drug_name=str!)": 11985, "JFK": 11986, "protocols": 11987, "register_": 11988, "ultaneous": 11989, "Ret": 11990, "Hol": 11991, "ilation": 11992, "Cap": 11993, "iving": 11994, "weap": 11995, "ers=str": 11996, "get_the": 11997, "moment": 11998, "stac": 11999, "counting": 12000, "arry": 12001, "Id=int": 12002, "restart": 12003, "ordering": 12004, "Checker": 12005, "utility": 12006, "address=str!": 12007, "get_total": 12008, "undle": 12009, "email.com": 12010, "Kore": 12011, "amounts": 12012, "shipp": 12013, "ott": 12014, "(door_name=str!)": 12015, "gear": 12016, "run|": 12017, "exped": 12018, "charging_": 12019, "getSe": 12020, "spac": 12021, "library_name=str!": 12022, "ttery": 12023, "_level=str)": 12024, "signals": 12025, "ip_location": 12026, "drivers": 12027, "Images": 12028, "getDev": 12029, "path=str!)": 12030, "valuation": 12031, "withdraw": 12032, "Short": 12033, "(page=str": 12034, "_locations": 12035, "completed|": 12036, "Menu": 12037, "/USD": 12038, "_scene": 12039, "neuro": 12040, "keywords=str!": 12041, "rankings": 12042, "ercise": 12043, "search_books": 12044, "advanc": 12045, "morning|": 12046, "Codes": 12047, "Systems": 12048, "consider": 12049, "SKU-": 12050, "=enum(inbox": 12051, "fillment": 12052, "Privacy": 12053, "(room=str!": 12054, "(altitude_m": 12055, "INVENT": 12056, "(branch=str": 12057, "studio": 12058, "Credit": 12059, "(currency=str": 12060, "revision": 12061, "apartment": 12062, "_boundary": 12063, "Earth": 12064, "rental_": 12065, "_length=str!": 12066, "occupation": 12067, "GHz": 12068, "vulnerability": 12069, "pharmaco": 12070, "Elena": 12071, "aviation": 12072, "turn-by-": 12073, "utilization": 12074, "Virtual": 12075, "_magnitude": 12076, "Brown": 12077, "consumer": 12078, "two-sample": 12079, "Latest": 12080, "drama|": 12081, "imagery": 12082, "getuserbyname": 12083, "Thom": 12084, "(slug=str)": 12085, "wisdom": 12086, "running|cycling|swim": 12087, "appuccino": 12088, "=enum(inbox|": 12089, "turn-by-turn": 12090, "SA": 12091, "FR": 12092, "uv": 12093, "KL": 12094, "ato": 12095, "fat": 12096, "eto": 12097, "ores": 12098, "call|": 12099, "even": 12100, "impro": 12101, "izer": 12102, "count.": 12103, "ite.": 12104, "Admin": 12105, "udget_": 12106, "file_": 12107, "posite": 12108, "lift": 12109, "overtime": 12110,
[...]
