{"vocab": {"<pad>": 0, "<bos>": 1, "<eos>": 2, "<unk>": 3, "<tools>": 4, "</tools>": 5, "<query>": 6, "</query>": 7, "<call>": 8, "</call>": 9, "0": 10, "1": 11, "2": 12, "3": 13, "4": 14, "5": 15, "6": 16, "7": 17, "8": 18, "9": 19, "a": 20, "b": 21, "c": 22, "d": 23, "e": 24, "f": 25, "g": 26, "h": 27, "i": 28, "j": 29, "k": 30, "l": 31, "m": 32, "n": 33, "o": 34, "p": 35, "q": 36, "r": 37, "s": 38, "t": 39, "u": 40, "v": 41, "w": 42, "x": 43, "y": 44, "z": 45, "A": 46, "B": 47, "C": 48, "D": 49, "E": 50, "F": 51, "G": 52, "H": 53, "I": 54, "J": 55, "K": 56, "L": 57, "M": 58, "N": 59, "O": 60, "P": 61, "Q": 62, "R": 63, "S": 64, "T": 65, "U": 66, "V": 67, "W": 68, "X": 69, "Y": 70, "Z": 71, "!": 72, "\"": 73, "#": 74, "$": 75, "%": 76, "&": 77, "'": 78, "(": 79, ")": 80, "*": 81, "+": 82, ",": 83, "-": 84, ".": 85, "/": 86, ":": 87, ";": 88, "<": 89, "=": 90, ">": 91, "?": 92, "@": 93, "[": 94, "\\": 95, "]": 96, "^": 97, "_": 98, "`": 99, "{": 100, "|": 101, "}": 102, "~": 103, " ": 104, "\t": 105, "\n": 106, "\r": 107, "\u000b": 108, "\f": 109, "—": 110, "–": 111, "’": 112, "é": 113, "°": 114, "í": 115, "ã": 116, "ç": 117, "ú": 118, "è": 119, "ø": 120, "â": 121, "‑": 122, "č": 123, "€": 124, "á": 125, "Ġ": 126, "ġ": 127, "µ": 128, "³": 129, "こ": 130, "ん": 131, "に": 132, "ち": 133, "は": 134, "£": 135, "ê": 136, "¿": 137, "ó": 138, "ï": 139, "ô": 140, "ł": 141, "ö": 142, "ć": 143, "Á": 144, "É": 145, "ä": 146, "ü": 147, "st": 148, "en": 149, "at": 150, "in": 151, "er": 152, "str": 153, "=str": 154, "on": 155, "et": 156, "me": 157, "or": 158, "he": 159, "=str!": 160, "ar": 161, "ur": 162, "to": 163, "an": 164, "the": 165, "ent": 166, "la": 167, "li": 168, "um": 169, "gh": 170, "ol": 171, "ght": 172, "re": 173, "al": 174, "=str!)": 175, "ate": 176, "le": 177, "ti": 178, "qu": 179, "ing": 180, "ery": 181, "ac": 182, "na": 183, "sh": 184, "name": 185, "end": 186, "set": 187, "light": 188, "query": 189, "ma": 190, "of": 191, "te": 192, "int": 193, "for": 194, "bo": 195, "fi": 196, "urn": 197, "cal": 198, "act": 199, "ro": 200, "and": 201, "=int": 202, "ols": 203, "tools": 204, "</": 205, "query>": 206, "tools>": 207, "lo": 208, "fla": 209, "flash": 210, "flashlight": 211, "!)": 212, "con": 213, "de": 214, "mo": 215, "il": 216, "reate": 217, "ck": 218, "()": 219, "ce": 220, "arg": 221, "it": 222, "set_": 223, "ve": 224, "cont": 225, "ne": 226, "ri": 227, "contact": 228, "ion": 229, "mail": 230, "off": 231, "email": 232, "ss": 233, "ay": 234, "YY": 235, "ation": 236, "ow": 237, "we": 238, "ec": 239, "ument": 240, "num": 241, "ed": 242, "do": 243, "us": 244, "urr": 245, "uments": 246, "arguments": 247, "_name": 248, "e_": 249, "urrent": 250, "ev": 251, "min": 252, "=en": 253, "um(": 254, "=enum(": 255, "her": 256, "turn": 257, "event": 258, "pen": 259, "create": 260, "pla": 261, "ad": 262, "s.": 263, "om": 264, "create_": 265, "door": 266, "date": 267, "is": 268, "Set": 269, "=int!)": 270, "ou": 271, "call": 272, "calend": 273, "calendar": 274, "tem": 275, "sp": 276, "map": 277, "per": 278, "ifi": 279, "turn_": 280, "<call": 281, "Turn": 282, "get": 283, "xt": 284, "se": 285, "st_name": 286, "ph": 287, "ting": 288, "_flashlight": 289, "time": 290, "MM": 291, "lock": 292, "setting": 293, "send": 294, "ure": 295, "tit": 296, "dy": 297, "right": 298, "get_": 299, "ch": 300, "(d": 301, "body": 302, "title": 303, "ge": 304, "phon": 305, "send_": 306, "20": 307, "by": 308, "ute": 309, "art": 310, "perat": 311, "mer": 312, "temperat": 313, "su": 314, "temperature": 315, "=str)": 316, "minute": 317, "-0": 318, "un": 319, "ice": 320, "Create": 321, "day": 322, "ic": 323, "room": 324, "ect": 325, "ather": 326, "mode": 327, "weather": 328, "'s": 329, "Current": 330, "timer": 331, "(body": 332, "=num": 333, "to=str!)": 334, "ject": 335, "ity": 336, "che": 337, "202": 338, "age": 339, "olu": 340, "st_name=str!": 341, "show": 342, "ber": 343, "sub": 344, "id": 345, "-1": 346, "ness": 347, "play": 348, "stat": 349, "gi": 350, "bright": 351, "subject": 352, "=bo": 353, "=bool": 354, "list": 355, "brightness": 356, "number": 357, "ven": 358, "vo": 359, "ers": 360, "cation": 361, "given": 362, "voice": 363, "_w": 364, "location": 365, "lights": 366, "met": 367, "open": 368, "new": 369, "olume": 370, "volume": 371, "th": 372, "city": 373, "mat": 374, "vel": 375, "level": 376, "ek": 377, "_event": 378, "week": 379, "ime": 380, "tion": 381, "etime": 382, "atetime": 383, "title=str!)": 384, "meters": 385, "head": 386, "calendar_event": 387, "mus": 388, "create_calendar_event": 389, "music": 390, "fir": 391, "au": 392, "bot": 393, "robot": 394, "send_email": 395, "Fi": 396, "invoice": 397, "co": 398, "show_": 399, "Wi": 400, "current": 401, "query=str!)": 402, "place": 403, "ext": 404, "show_map": 405, "turn_on": 406, "ract": 407, "Sh": 408, "ack": 409, "heading": 410, "-Fi": 411, "Wi-Fi": 412, "settings": 413, "format": 414, "minutes": 415, "turn_off": 416, "(query=str!)": 417, "Turns": 418, "2026": 419, "00": 420, "Send": 421, "you": 422, "_wifi": 423, "turn_on_flashlight": 424, "SS": 425, "e_number": 426, "phone_number": 427, "ld": 428, "create_contact": 429, "turn_off_flashlight": 430, "-D": 431, "TH": 432, "Day": 433, "YYYY": 434, "YYYY-": 435, "YYYY-MM": 436, "YYYY-MM-D": 437, "YYYY-MM-DD": 438, "YYYY-MM-DDTH": 439, "YYYY-MM-DDTHH": 440, "Creates": 441, "_id": 442, "Show": 443, "off.": 444, "tr": 445, "du": 446, "_wifi_": 447, "Open": 448, "(body=str": 449, "map.": 450, "open_wifi_": 451, "open_wifi_settings": 452, "subject=str!": 453, "spec": 454, "(datetime": 455, "email.": 456, "(datetime=str!": 457, "event.": 458, "on.": 459, "settings.": 460, "ak": 461, "so": 462, "specifi": 463, "contact.": 464, "first_name=str!": 465, "spe": 466, "phone_number=str)": 467, "back": 468, "di": 469, "uration": 470, "wit": 471, "ord": 472, "mess": 473, "ther": 474, "ist": 475, "St": 476, "message": 477, "with": 478, "ca": 479, "ard": 480, "phone": 481, "Ad": 482, "move": 483, "ly": 484, "chedu": 485, "no": 486, "chedule": 487, "auto": 488, "rec": 489, "2026-0": 490, "ase": 491, "es": 492, "ep": 493, "ok": 494, ")!": 495, "play_": 496, "Get": 497, "ft": 498, "Start": 499, "arget": 500, "target": 501, "lan": 502, "duration": 503, "start": 504, "lay": 505, "=num!": 506, "mostat": 507, "thermostat": 508, "_door": 509, "set_timer": 510, "lease": 511, "ock": 512, "get_weather": 513, "=bool!)": 514, "heat": 515, "=num!)": 516, "od": 517, "tal": 518, "let": 519, "mode=enum(": 520, "total": 521, "one": 522, "lock_door": 523, "ty": 524, "ward": 525, "(level": 526, "ind": 527, "date=str": 528, "schedule": 529, "check": 530, "ater": 531, "up": 532, "Add": 533, "ex": 534, "cle": 535, "forward": 536, "cool": 537, "set_thermostat": 538, "(mode=enum(": 539, "locked": 540, "op": 541, "play_music": 542, "(door": 543, "Play": 544, "fro": 545, "(email": 546, "set_lights": 547, "be": 548, "can": 549, "(city": 550, "note": 551, "send_message": 552, "from": 553, "pr": 554, "extract": 555, "minutes=int!)": 556, "endor": 557, "_move": 558, "vendor": 559, "robot_move": 560, "_invoice": 561, "extract_invoice": 562, "status": 563, "specific": 564, "(level=int!)": 565, "ble": 566, "list.": 567, "add": 568, "der": 569, "(city=str!)": 570, "0-1": 571, "set_volume": 572, "all": 573, "(body=str!": 574, "com": 575, "duration_": 576, "cou": 577, "ust": 578, "left": 579, "vi": 580, "ove": 581, "(brightness": 582, "|cool": 583, "|auto": 584, "(email=str": 585, "arch": 586, "mode.": 587, "print": 588, ")!)": 589, "named": 590, "ai": 591, "(minutes=int!)": 592, "unlock": 593, "(brightness=int": 594, "ue_": 595, "temperature=int!)": 596, "Move": 597, "on/": 598, "(due_": 599, "heat|cool": 600, "Lock": 601, "on/off": 602, "(mode=enum(heat|cool": 603, "minutes.": 604, "(due_date=str": 605, "room=str!)": 606, "|back": 607, "phone's": 608, "door.": 609, "(mode=enum(heat|cool|auto": 610, "eld": 611, "last_name": 612, "field": 613, "(mode=enum(heat|cool|auto)": 614, "Opens": 615, "last_name=str!": 616, "Ext": 617, "Extract": 618, "|back|": 619, "fields.": 620, "total=num!": 621, "vendor=str!)": 622, "city.": 623, "si": 624, "Text": 625, "Shows": 626, "Sends": 627, "left|": 628, "query.": 629, "brightness.": 630, "=enum(forward": 631, "am": 632, "on=bool": 633, "left|right": 634, "room's": 635, "T1": 636, "left|right)!": 637, "=enum(forward|back|": 638, "(heading": 639, "heading.": 640, "meters=num!)": 641, "(heading=enum(forward|back|": 642, "(heading=enum(forward|back|left|right)!": 643, "locked=bool!)": 644, "(door=str!": 645, "speak": 646, "speaker": 647, "))": 648, "as": 649, "my": 650, "duration_min": 651, "start_": 652, "0-100": 653, "just": 654, "ans": 655, "ory": 656, "ue": 657, "duration_min=int": 658, "remin": 659, "place=str!)": 660, "(place=str!)": 661, "0-100.": 662, "file": 663, "water": 664, "please": 665, "speed": 666, "pe": 667, "wh": 668, "plan": 669, "ut": 670, "bl": 671, "por": 672, "T0": 673, "ho": 674, "ke": 675, "last_name=str": 676, "(first_name=str!": 677, "book": 678, "cy": 679, "sc": 680, "cast": 681, "=int)": 682, "coun": 683, "10": 684, "pa": 685, "_id=str!)": 686, "ave": 687, "30": 688, "count": 689, "ena": 690, "att": 691, "text": 692, "memo": 693, "reminder": 694, "lt": 695, "trans": 696, "check_": 697, "55": 698, "item": 699, "plant": 700, "specified": 701, "po": 702, "Can": 703, "ould": 704, "ark": 705, "fe": 706, "fo": 707, "late": 708, "sday": 709, "cate": 710, "ssion": 711, "-2": 712, "ment": 713, "unt": 714, "list_": 715, "Ret": 716, "ange": 717, "mount": 718, "ali": 719, "rie": 720, "amount": 721, "type": 722, "also": 723, "ver": 724, "ork": 725, "zone": 726, "charg": 727, "cel": 728, "arm": 729, "=int!": 730, "air": 731, "pi": 732, "List": 733, "ride": 734, "ag": 735, "session": 736, "delet": 737, "I'": 738, "rieve": 739, "_name=str!)": 740, "medi": 741, "record": 742, "reen": 743, "ong": 744, "vice": 745, "ra": 746, "need": 747, "lang": 748, "col": 749, "Retrieve": 750, "account": 751, "Se": 752, "liv": 753, "Che": 754, "Check": 755, "tional": 756, "search": 757, "ll": 758, "ail": 759, "delete_": 760, "im": 761, "order": 762, ".com": 763, "ant": 764, "iso": 765, "work": 766, "filt": 767, "categ": 768, "eting": 769, "optional": 770, "23": 771, "clean": 772, "gar": 773, "filter": 774, "leep": 775, "ality": 776, "episo": 777, "episode": 778, "low": 779, "quality": 780, "sleep": 781, "batt": 782, "battery": 783, "category": 784, "_p": 785, "cycle": 786, "now": 787, "fer": 788, "ath": 789, "dio": 790, "hi": 791, "are": 792, "blind": 793, "read": 794, "charging": 795, "alarm": 796, "audio": 797, "Please": 798, "time=str!)": 799, "ine": 800, "device": 801, "recording": 802, "ew": 803, "enable": 804, "2026-1": 805, "if": 806, "2026-09": 807, "feed": 808, "add_": 809, "rate": 810, "av": 811, "ress": 812, "-01": 813, "mor": 814, "Could": 815, "fr": 816, "pro": 817, "search_": 818, "save": 819, "ning": 820, "printer": 821, "Th": 822, "color": 823, "go": 824, "port": 825, "_id=int!)": 826, "ast": 827, "De": 828, "screen": 829, "hey": 830, "ori": 831, "res": 832, "2025": 833, "its": 834, "that": 835, "langu": 836, "high": 837, "pri": 838, "vide": 839, "datetime": 840, "ues": 841, "dis": 842, "gro": 843, "word": 844, "out": 845, "pense": 846, "abo": 847, "language": 848, "ont": 849, "news": 850, "Ch": 851, "riday": 852, "top": 853, "jo": 854, "uesday": 855, "garage": 856, "ap": 857, "station": 858, "(amount": 859, "oo": 860, "food": 861, "cent": 862, "use": 863, "cleaning": 864, "audiobook": 865, "about": 866, "sy": 867, "onday": 868, "_status": 869, "net": 870, "ash": 871, "hour": 872, "gg": 873, "clo": 874, "Tuesday": 875, "tions": 876, "lete": 877, "uet": 878, "ooth": 879, "uetooth": 880, "schedule_": 881, "ance": 882, "ya": 883, "type=enum(": 884, "front": 885, "Friday": 886, "Re": 887, "Monday": 888, "pre": 889, "ID": 890, "ara": 891, "sta": 892, "det": 893, "2024": 894, "cook": 895, "ert": 896, "um|": 897, "@ex": 898, "playback": 899, "stop": 900, "Search": 901, "50": 902, "true": 903, "ary": 904, "ink": 905, "ecast": 906, "user": 907, "Delete": 908, "forecast": 909, "olution": 910, "ud": 911, "Adjust": 912, "urant": 913, "staurant": 914, "adjust": 915, "ank": 916, "run": 917, "enabled": 918, "find": 919, "est": 920, "Al": 921, "restaurant": 922, "bed": 923, "ds": 924, "15": 925, "job": 926, "nesday": 927, "living": 928, "then": 929, "comp": 930, "ake": 931, "pet": 932, "ight": 933, "oto": 934, "ursday": 935, "percent": 936, "expense": 937, "arti": 938, "mit": 939, "hours": 940, "nec": 941, "to_": 942, "fan": 943, "ick": 944, "Wed": 945, "ort": 946, "notes": 947, "Wednesday": 948, "paus": 949, "ude": 950, "Thursday": 951, "PM": 952, "log": 953, "dri": 954, "photo": 955, "Schedule": 956, "key": 957, "mon": 958, "hist": 959, "resolution": 960, "chen": 961, "Sun": 962, "todo": 963, "(duration": 964, "camer": 965, "_v": 966, "Sunday": 967, "(location": 968, "med": 969, "|medi": 970, "atur": 971, "aturday": 972, "dr": 973, "camera": 974, "|medium|": 975, "song": 976, "meeting": 977, "bre": 978, "_m": 979, "track": 980, "I'm": 981, ".5": 982, "row": 983, "acti": 984, "Change": 985, "stock": 986, "Saturday": 987, "keyword": 988, "what": 989, "_name=str!": 990, "arr": 991, "aily": 992, "le_": 993, "mark": 994, "gin": 995, "pod": 996, "video": 997, "fol": 998, "orp": 999, "network": 1000, "555": 1001, "tomor": 1002, "any": 1003, "_v2": 1004, ".0": 1005, "connec": 1006, "address": 1007, "alert": 1008, "whi": 1009, "ee": 1010, "tomorrow": 1011, "_speed": 1012, "daily": 1013, "next": 1014, "Also": 1015, "itchen": 1016, "45": 1017, "ach": 1018, "kitchen": 1019, "state": 1020, "sm": 1021, "AM": 1022, "(de": 1023, "like": 1024, "22": 1025, "Pro": 1026, "arah": 1027, "sour": 1028, "source": 1029, "own": 1030, "reci": 1031, "2026-09-01": 1032, "gr": 1033, "The": 1034, "(duration_": 1035, "2025-0": 1036, "stin": 1037, "cancel": 1038, "stination": 1039, "watering": 1040, "(enabled": 1041, "sition": 1042, "position": 1043, "view": 1044, "limit": 1045, "80": 1046, "doc": 1047, "report": 1048, "pause_": 1049, "stop_": 1050, "tag": 1051, "folder": 1052, "contacts": 1053, "ze": 1054, "step": 1055, "way": 1056, "togg": 1057, "podcast": 1058, "yo": 1059, "rain": 1060, "He": 1061, "ip": 1062, "(day": 1063, "_c": 1064, "playlist": 1065, "exist": 1066, "ill": 1067, "update": 1068, "history": 1069, "existing": 1070, "lation": 1071, "temp": 1072, "_level": 1073, "Sarah": 1074, "secon": 1075, "on|": 1076, "rip": 1077, "udget": 1078, "ste": 1079, "eng": 1080, "down": 1081, "hic": 1082, "_id=str!": 1083, "month": 1084, "ing|": 1085, "12": 1086, "nd": 1087, "groc": 1088, "adjust_": 1089, "wifi": 1090, "vehic": 1091, "fter": 1092, "itation": 1093, "point": 1094, "optionally": 1095, "Pa": 1096, "bal": 1097, "ple": 1098, "near": 1099, "currently": 1100, "could": 1101, "2024-0": 1102, "(date": 1103, "ot": 1104, "running": 1105, "|1": 1106, "40": 1107, "zz": 1108, "gre": 1109, "cancel_": 1110, "ency": 1111, "=enum(low": 1112, "aila": 1113, "Stop": 1114, "(days": 1115, "_in": 1116, "ari": 1117, "2T1": 1118, "21": 1119, "sius": 1120, "a.": 1121, "end_": 1122, "234": 1123, "translation": 1124, "meditation": 1125, "=arr": 1126, "Hey": 1127, "_s": 1128, "availa": 1129, "achine": 1130, "pick": 1131, "detail": 1132, "after": 1133, "bluetooth": 1134, "direc": 1135, "alk": 1136, "(name": 1137, "cooking": 1138, "offee": 1139, "gen": 1140, "drone": 1141, "first_name": 1142, "el": 1143, "red": 1144, "tell": 1145, "document": 1146, "Con": 1147, "ens": 1148, "Me": 1149, "(amount=num!": 1150, "|medium|high": 1151, "able": 1152, "mi": 1153, "_type=enum(": 1154, "Project": 1155, "price": 1156, "MS": 1157, "Cancel": 1158, "(enabled=bool!)": 1159, "tank": 1160, "bi": 1161, "ted": 1162, "fic": 1163, "tra": 1164, "anak": 1165, "livery": 1166, "pickup": 1167, "=enum(low|medium|high": 1168, "find_": 1169, "tor": 1170, "ating": 1171, "tech": 1172, "@ex.com": 1173, "cl": 1174, "_water": 1175, "mil": 1176, "peri": 1177, "bel": 1178, "wash": 1179, "walk": 1180, "path": 1181, "pur": 1182, "driver": 1183, "ifier": 1184, "kip": 1185, "SMS": 1186, "ing_": 1187, "grocery": 1188, "label": 1189, "action": 1190, "cap": 1191, "eam": 1192, "In": 1193, "lat": 1194, "details": 1195, "user's": 1196, "iew": 1197, "seconds": 1198, "degre": 1199, "other": 1200, "size": 1201, "rop": 1202, "age_": 1203, "home": 1204, "umm": 1205, "25": 1206, "72": 1207, "id=int!)": 1208, "close": 1209, "Meeting": 1210, "rating": 1211, "bet": 1212, "change": 1213, "titled": 1214, "memos": 1215, "days": 1216, "period": 1217, "gram": 1218, "goal": 1219, "light_": 1220, "Be": 1221, "ure_": 1222, "ang": 1223, "degrees": 1224, "condi": 1225, "on|off": 1226, "entist": 1227, "over": 1228, "cu": 1229, "sms": 1230, "gy": 1231, "imate": 1232, "automat": 1233, "Pause": 1234, "Bl": 1235, "firm": 1236, "ower": 1237, "ween": 1238, "between": 1239, "Rev": 1240, "moist": 1241, "clos": 1242, "disable": 1243, "today": 1244, "|f": 1245, "know": 1246, "anaka": 1247, "percentage": 1248, "=enum(on|off": 1249, "Review": 1250, "tick": 1251, "route": 1252, "corp": 1253, "Begin": 1254, "night": 1255, "moisture": 1256, "transfer": 1257, "ummary": 1258, "_mode": 1259, "sume": 1260, "Remove": 1261, "box": 1262, "toggle_": 1263, "ence": 1264, "available": 1265, "stor": 1266, "take": 1267, "delivery": 1268, "(location=str!)": 1269, "items": 1270, "pient": 1271, "(duration_minutes": 1272, "recipient": 1273, "(category": 1274, "(speed": 1275, "|4": 1276, "delay": 1277, "ticker": 1278, "machine": 1279, "time.": 1280, "budget": 1281, "emails": 1282, "ropoff": 1283, "complet": 1284, "quick": 1285, "lin": 1286, "recent": 1287, "dra": 1288, "ul": 1289, "fre": 1290, "Ena": 1291, "ofi": 1292, "heart": 1293, "Enable": 1294, "Bluetooth": 1295, "unch": 1296, "stem": 1297, "set_temperature": 1298, "s|": 1299, "form": 1300, "main": 1301, "omar": 1302, "system": 1303, "11": 1304, "ample": 1305, "location.": 1306, "files": 1307, "shar": 1308, "omm": 1309, "ret": 1310, "_language": 1311, "bedroom": 1312, "pm": 1313, "(hours": 1314, "but": 1315, "pay": 1316, "soil": 1317, "filtered": 1318, "active": 1319, "purifier": 1320, "pass": 1321, "ji": 1322, "ID.": 1323, "Lo": 1324, "this": 1325, "time=str!": 1326, "sou": 1327, "code": 1328, "mb": 1329, "Find": 1330, "=bool)": 1331, "maya": 1332, "@example": 1333, "due": 1334, "set_reminder": 1335, "ain": 1336, "coffee": 1337, "symb": 1338, "feeding": 1339, "balance": 1340, "enji": 1341, "ir": 1342, "ename": 1343, "Up": 1344, "fore": 1345, "brew": 1346, "vehicle": 1347, "que": 1348, "Ac": 1349, "content": 1350, "ual": 1351, "range": 1352, "celsius": 1353, "estimate": 1354, "eri": 1355, "symbol": 1356, "last": 1357, "titude": 1358, "(destination": 1359, "genre": 1360, "altitude": 1361, "14": 1362, "T09": 1363, "portion": 1364, "playing": 1365, "article": 1366, "led": 1367, "_temperature": 1368, "before": 1369, "Fet": 1370, "should": 1371, "review": 1372, "_id=int!": 1373, "ength": 1374, "rad": 1375, "Sets": 1376, "(item": 1377, "fin": 1378, "hel": 1379, "Qu": 1380, "latest": 1381, "18": 1382, "56": 1383, "spr": 1384, "zon": 1385, "Update": 1386, "(color": 1387, "_quality": 1388, "app": 1389, "sup": 1390, "son": 1391, "text=str!)": 1392, "ata": 1393, "=num)": 1394, "Tr": 1395, "how": 1396, "group": 1397, "sport": 1398, "48": 1399, "ane": 1400, "radi": 1401, "old": 1402, "Rec": 1403, "limit=int)": 1404, "(name=str!)": 1405, "stream": 1406, "|2": 1407, "Mark": 1408, "555-1": 1409, "(state": 1410, "man": 1411, "ive": 1412, "itude": 1413, "remind": 1414, "conditions": 1415, "sprink": 1416, "ler": 1417, "|de": 1418, "2026-06": 1419, "2026-02": 1420, "2026-08": 1421, "2026-11": 1422, "ffic": 1423, "print_": 1424, "ide": 1425, "2026-04": 1426, ").": 1427, "duration_minutes": 1428, "Q3": 1429, "2026-03": 1430, "_history": 1431, "witch": 1432, "weekly": 1433, "casting": 1434, "return": 1435, "ter": 1436, "me?": 1437, "ority": 1438, "translate": 1439, "ton": 1440, "unit": 1441, "_info": 1442, "stand": 1443, "draft": 1444, "blinds": 1445, "2026-12": 1446, "2026-05": 1447, "An": 1448, "time=str": 1449, "Record": 1450, ".t": 1451, "get_current": 1452, "plant_name=str!)": 1453, "_lang": 1454, "log_": 1455, "br": 1456, "white": 1457, "|s": 1458, "completed": 1459, "priority": 1460, "Bo": 1461, "due_": 1462, "2026-01": 1463, "from_": 1464, "market": 1465, "reg": 1466, "rate_": 1467, "'t": 1468, "(destination=str!": 1469, "activ": 1470, "(end_": 1471, "ja": 1472, "sprinkler": 1473, "traffic": 1474, "mediate": 1475, "check_battery": 1476, "reading": 1477, "_path": 1478, "pl": 1479, "cli": 1480, "(account": 1481, "grams": 1482, "steps": 1483, "wo": 1484, "Hi": 1485, "make": 1486, "43": 1487, "incl": 1488, "there": 1489, "seat": 1490, "ask": 1491, "_file": 1492, "set_alarm": 1493, "dentist": 1494, "26": 1495, "ener": 1496, "cess": 1497, "sun": 1498, "2026-07": 1499, "start_date": 1500, "strength": 1501, "entr": 1502, "val": 1503, "-10": 1504, "inbox": 1505, "-11": 1506, "shop": 1507, "oh": 1508, "ren": 1509, "(note": 1510, "er.": 1511, "Save": 1512, "aqu": 1513, "mood": 1514, "stations": 1515, "automatic": 1516, "Ap": 1517, "sleep_": 1518, "80p": 1519, "Rep": 1520, "later": 1521, "saved": 1522, "connect": 1523, "AM.": 1524, "(path": 1525, "42": 1526, "arium": 1527, "milk": 1528, "due_date": 1529, "aquarium": 1530, "ous": 1531, "ased": 1532, "uture": 1533, "have": 1534, "get_stock": 1535, "land": 1536, "skip": 1537, "dex": 1538, "_f": 1539, "frequ": 1540, "Report": 1541, "16": 1542, "time=str)": 1543, "ories": 1544, "what's": 1545, "bus": 1546, "24": 1547, "artist": 1548, "frequency": 1549, "2026-10-1": 1550, "(action": 1551, "remain": 1552, "0.5": 1553, "fice": 1554, "it's": 1555, "(episode": 1556, "morning": 1557, "ensor": 1558, "-12": 1559, "1080p": 1560, "I'll": 1561, "2026-09-0": 1562, "fan_speed": 1563, "movi": 1564, "70": 1565, "directions": 1566, "=enum(on|off)!)": 1567, "Acme": 1568, "another": 1569, "y|": 1570, "sec": 1571, "_location": 1572, "_id=str)": 1573, "ser": 1574, "title=str)": 1575, "immediate": 1576, "company": 1577, "pointment": 1578, "(order": 1579, "(device": 1580, "capt": 1581, "future": 1582, "vac": 1583, "200": 1584, "messages": 1585, "scrip": 1586, "=enum(1": 1587, "ssid": 1588, "(title=str!)": 1589, "don": 1590, "new_": 1591, "(label": 1592, "Trans": 1593, "(light": 1594, "when": 1595, "_ml": 1596, "here": 1597, "remaining": 1598, "screen_": 1599, "temperature_": 1600, "maya@ex.com": 1601, "-15": 1602, "scheduled": 1603, "bath": 1604, "our": 1605, "fish": 1606, "book_": 1607, "energy": 1608, "Fetch": 1609, "office": 1610, "78": 1611, "want": 1612, "workout": 1613, "premi": 1614, "confirm": 1615, "say": 1616, "Corp": 1617, "555-1234": 1618, "two": 1619, "resume": 1620, "hed": 1621, "aris": 1622, "inter": 1623, "ference": 1624, "atch": 1625, "set_brightness": 1626, "va": 1627, "paper": 1628, "set_wifi": 1629, "alse": 1630, "media": 1631, "person": 1632, "|g": 1633, "alerts": 1634, "jp": 1635, "ah": 1636, "avori": 1637, "(dropoff": 1638, "avorite": 1639, "destination": 1640, "start_w": 1641, "data": 1642, "task": 1643, "expenses": 1644, "(id=int!)": 1645, "|3": 1646, "PM.": 1647, "Invoice": 1648, "(category=enum(": 1649, "inform": 1650, "_text": 1651, "park": 1652, "false": 1653, "Dis": 1654, "some": 1655, "card": 1656, "long": 1657, "75": 1658, "flight": 1659, "open_": 1660, "lunch": 1661, "13": 1662, "ported": 1663, "takeoff": 1664, "recurr": 1665, "scri": 1666, "supported": 1667, ".tanaka": 1668, "trip": 1669, "garage_": 1670, "_k": 1671, "(date=str!": 1672, "torch": 1673, "WiFi": 1674, "power": 1675, "omar@ex.com": 1676, "19": 1677, "fau": 1678, "information": 1679, "tory": 1680, "zone_": 1681, "Tok": 1682, "_order": 1683, "set_light_": 1684, "charging_": 1685, "monthly": 1686, "heit": 1687, "ahren": 1688, "ahrenheit": 1689, "gn": 1690, "ics": 1691, "not": 1692, "look": 1693, "got": 1694, "recomm": 1695, "immediately": 1696, "Tokyo": 1697, "tak": 1698, "ner": 1699, "stro": 1700, "resolution=enum(": 1701, "49": 1702, "ene": 1703, "_to_": 1704, "31": 1705, "_rate": 1706, "to_account": 1707, "urrency": 1708, "T00": 1709, "6T1": 1710, "fault": 1711, "region": 1712, "ub": 1713, "quan": 1714, "queue": 1715, "tity": 1716, "quantity": 1717, "close_": 1718, "based": 1719, "wn": 1720, "T21": 1721, "34": 1722, "44": 1723, "ull": 1724, "unit=enum(": 1725, "slo": 1726, "remove": 1727, "project": 1728, "|2|3": 1729, "default": 1730, "update_": 1731, "s=arr": 1732, "summary": 1733, "ticker=str!)": 1734, "water_": 1735, "T05": 1736, "(zone": 1737, "2026-10": 1738, "nearby": 1739, "09": 1740, "wor": 1741, "spot": 1742, "from_account": 1743, "includ": 1744, "service": 1745, "(label=str": 1746, "including": 1747, "auto|": 1748, "123": 1749, "T23": 1750, "payment": 1751, "ssid=str!)": 1752, "ply": 1753, "called": 1754, "get_current_": 1755, "screen_cast": 1756, "ing.": 1757, "blue": 1758, "while": 1759, "87": 1760, "@example.com": 1761, "ern": 1762, "sure": 1763, "35": 1764, "max": 1765, "store": 1766, "sound": 1767, "break": 1768, "08": 1769, "origin": 1770, "Log": 1771, "_grams": 1772, "recurring": 1773, "es|": 1774, "scription": 1775, "T02": 1776, "El": 1777, "hum": 1778, "line": 1779, "Kenji": 1780, "switch": 1781, "T20": 1782, "orkout": 1783, "(duration_minutes=int!": 1784, "ings": 1785, "meth": 1786, "humid": 1787, "method": 1788, "blind_": 1789, "shot": 1790, "restaurant=str!)": 1791, "chang": 1792, "ring": 1793, "(printer": 1794, "Thank": 1795, "_to": 1796, "Run": 1797, "(source": 1798, "sensor": 1799, "-20": 1800, "I've": 1801, "=enum(1|2|3": 1802, "pens": 1803, "sous": 1804, "4T1": 1805, "password": 1806, "(date=str": 1807, "reschedule": 1808, "T06": 1809, "culate": 1810, "|bedroom": 1811, "skip_": 1812, "17": 1813, "mark_": 1814, "favorite": 1815, ".tanaka@": 1816, "33": 1817, "now.": 1818, "set_fan_speed": 1819, "directory": 1820, "|5": 1821, "name.": 1822, "urity": 1823, "I'd": 1824, "send_sms": 1825, "(color=enum(": 1826, "translate_text": 1827, "al|": 1828, "T22": 1829, "ertain": 1830, "df": 1831, "location=str!)": 1832, "7T1": 1833, "2T14": 1834, "enu": 1835, "ded": 1836, "licate": 1837, "(state=enum(on|off)!)": 1838, "07": 1839, "create_note": 1840, "8T1": 1841, "T04": 1842, "_summary": 1843, "lines": 1844, "gent": 1845, "car": 1846, "usage": 1847, "sign": 1848, "town": 1849, "cam": 1850, "(memo": 1851, "Return": 1852, "Skip": 1853, "_light": 1854, "ote": 1855, "(book": 1856, "warm": 1857, ".jp": 1858, "(dropoff=str!": 1859, "humidity": 1860, "e.": 1861, "58": 1862, "-23": 1863, "Quick": 1864, "area": 1865, "zza": 1866, "archive": 1867, "index": 1868, "1200": 1869, "headlines": 1870, "uum": 1871, "_size": 1872, "(pet": 1873, "world": 1874, "|bedroom|": 1875, "06": 1876, "(path=str!)": 1877, "menu": 1878, "Rate": 1879, "tili": 1880, "May": 1881, "hello": 1882, "ached": 1883, "sender": 1884, "duration.": 1885, "past": 1886, "(amount_ml": 1887, "TV": 1888, "ish": 1889, "(event": 1890, "_type": 1891, "recommend": 1892, "37": 1893, "times": 1894, "arter": 1895, "audiobooks": 1896, "vehicle_": 1897, "r.": 1898, "32": 1899, "rol": 1900, "side": 1901, "angle": 1902, "Let": 1903, "T08": 1904, "inner": 1905, "02": 1906, "stats": 1907, "-03": 1908, "mber": 1909, "_number": 1910, "Green": 1911, "(item=str!)": 1912, "security": 1913, "46": 1914, "cally": 1915, "-up": 1916, "dash": 1917, "standard": 1918, "shopp": 1919, "downtown": 1920, "o|": 1921, "devices": 1922, "=enum(living": 1923, "(altitude": 1924, "dashcam": 1925, "01": 1926, "auto_": 1927, "_item": 1928, "pair": 1929, "add_to_": 1930, "-09": 1931, "feeder": 1932, "|blue": 1933, "shows": 1934, "-21": 1935, "start_recording": 1936, "air_quality": 1937, "activity": 1938, "Centr": 1939, "book_ride": 1940, "Central": 1941, "change_": 1942, "ches": 1943, "base": 1944, "Joh": 1945, "load": 1946, "ride_id=str!)": 1947, "bu": 1948, "map?": 1949, "larg": 1950, "plus": 1951, "heart_rate": 1952, "John": 1953, "36": 1954, "mate": 1955, "ending": 1956, "get_weather_": 1957, "T07": 1958, "airport": 1959, "|4k": 1960, "strobe": 1961, "03": 1962, "SD": 1963, "oing": 1964, "see": 1965, "good": 1966, "_moisture": 1967, "Book": 1968, "(action=enum(": 1969, "Paris": 1970, "2026-09-02T14": 1971, "ongoing": 1972, "47": 1973, "52": 1974, "ator": 1975, "date=str!": 1976, "-05": 1977, "(message": 1978, "T03": 1979, "_pri": 1980, "sa": 1981, "fila": 1982, "rece": 1983, "scan": 1984, "T01": 1985, "target_lang": 1986, "filament": 1987, "29": 1988, "fig": 1989, "thor": 1990, "add_contact": 1991, "Tanaka": 1992, "radius": 1993, "coming": 1994, "actions": 1995, "2T18": 1996, "share_": 1997, "|green": 1998, "(order_id=str!)": 1999, "vacuum": 2000, "nor": 2001, "his": 2002, "toggle": 2003, "(duration_minutes=int": 2004, "(genre": 2005, "author": 2006, "41": 2007, "27": 2008, "celsius|f": 2009, "attached": 2010, "celsius|fahrenheit": 2011, "plants": 2012, "orical": 2013, "start_cleaning": 2014, "control": 2015, "historical": 2016, "arma": 2017, "as_": 2018, "-25": 2019, "think": 2020, "message_": 2021, "Anya": 2022, "start_wash": 2023, "555-01": 2024, "_bluetooth": 2025, "ically": 2026, "39": 2027, "54": 2028, "level.": 2029, "statist": 2030, "paused": 2031, "your": 2032, "streaming": 2033, "to_account=str!)": 2034, "manual": 2035, "value": 2036, "nds": 2037, "3.0": 2038, "rename": 2039, "get_current_weather": 2040, ".p": 2041, "kind": 2042, "session.": 2043, "large": 2044, "transactions": 2045, "57": 2046, "Mart": 2047, "connector": 2048, "don't": 2049, "(mode=enum(auto|": 2050, "ci": 2051, "esp": 2052, "sav": 2053, "_km": 2054, "pense_": 2055, "oney": 2056, "arterly": 2057, "cup": 2058, "search_notes": 2059, "take_": 2060, "28": 2061, ".00": 2062, "Park": 2063, "copi": 2064, "Cel": 2065, "(period": 2066, "watch": 2067, "soil_moisture": 2068, "_price": 2069, "lace": 2070, "Stre": 2071, "where": 2072, "Celsius": 2073, "_title": 2074, "unds": 2075, "driv": 2076, "passeng": 2077, "rova": 2078, "statistics": 2079, "os": 2080, "-13": 2081, "kenji": 2082, "espress": 2083, "spin": 2084, "fern": 2085, "=enum(low|medium|high)": 2086, "mom": 2087, "been": 2088, "strong": 2089, "sounds": 2090, "copies": 2091, "Resume": 2092, "symbol=str!)": 2093, "2026-09-01T09": 2094, "latitude": 2095, "longitude": 2096, "Sharma": 2097, "tiv": 2098, "events": 2099, "-19": 2100, "start_date=str)": 2101, "currency": 2102, "entertain": 2103, "GreenMart": 2104, "(location=str!": 2105, "Budget": 2106, "entertainment": 2107, "name=str!)": 2108, "closed": 2109, "print_job": 2110, "garage_door": 2111, "05": 2112, "seconds=int!)": 2113, "2026-10-12T18": 2114, "Fol": 2115, "ture": 2116, "file_path": 2117, "movie": 2118, "Follow": 2119, "dist": 2120, "mail.com": 2121, "narr": 2122, "987": 2123, "recommendation": 2124, "59": 2125, "tone": 2126, "recipe": 2127, "(days=arr": 2128, "dropoff": 2129, "jazz": 2130, "60": 2131, "glo": 2132, "cus": 2133, "(temperature": 2134, "1.0": 2135, "capture_": 2136, "quote": 2137, "set_auto_": 2138, "Street": 2139, "bon": 2140, "play_song": 2141, "S|": 2142, "38": 2143, "bathroom": 2144, "narrator": 2145, "ear": 2146, "_by": 2147, "wind": 2148, "add_expense": 2149, "todos": 2150, "articles": 2151, "unit=enum(celsius|fahrenheit": 2152, "bum": 2153, "_name=str)": 2154, "add_item": 2155, "house": 2156, "check_water": 2157, "'?": 2158, "pickup=str!": 2159, "subscri": 2160, "Ber": 2161, "dark": 2162, "Chen": 2163, "(name=str!": 2164, "|4|5": 2165, "passenger": 2166, "Berlin": 2167, "Un": 2168, "'re": 2169, "sal": 2170, "delete_note": 2171, "playback_speed": 2172, "resume_": 2173, "Dr.": 2174, "Oh": 2175, "tran": 2176, "dim": 2177, "lofi": 2178, "automatically": 2179, "Ale": 2180, "beam": 2181, "(door_id=str!)": 2182, "syn": 2183, "quest": 2184, "(note_id=int!)": 2185, "appointment": 2186, "get_air_quality": 2187, "norm": 2188, "04": 2189, ".net": 2190, "Dentist": 2191, "wim": 2192, "ya.": 2193, "@omar": 2194, "attern": 2195, "Thanks": 2196, "ric": 2197, "using": 2198, "es.": 2199, "delete_contact": 2200, "limit=int": 2201, "Comm": 2202, "full": 2203, "Command": 2204, "mp": 2205, "ax": 2206, "lose": 2207, "create_reminder": 2208, "detect": 2209, "transport": 2210, "bit": 2211, "water_plant": 2212, "53": 2213, "iti": 2214, "lity": 2215, "Dispense": 2216, "+8": 2217, "check_status": 2218, "feed_": 2219, "(message=str!": 2220, "Close": 2221, "rear": 2222, "block": 2223, "gue": 2224, "get_forecast": 2225, "And": 2226, "still": 2227, "(temp": 2228, "=enum(1|2|3|4|5": 2229, "|week": 2230, "=enum(low|medium|high)!)": 2231, "pizza": 2232, "pha": 2233, "alth": 2234, "cot": 2235, "vers": 2236, "cast_": 2237, "charger": 2238, "which": 2239, "(date=str!)": 2240, "Team": 2241, "final": 2242, "5678": 2243, "_time": 2244, "hot": 2245, "get_battery": 2246, "neare": 2247, "_news": 2248, "ensity": 2249, "|bedroom|kitchen": 2250, "money": 2251, "nearest": 2252, "noti": 2253, "sharma": 2254, "radio": 2255, "Maya": 2256, "album": 2257, "intensity": 2258, "ff": 2259, "into": 2260, "create_event": 2261, "rase": 2262, "pause": 2263, "get_wifi": 2264, "help": 2265, "access": 2266, "Sub": 2267, "figure": 2268, "gu": 2269, "g.": 2270, "uc": 2271, "(contact": 2272, "open_door": 2273, "aliz": 2274, "250": 2275, "source=str!)": 2276, "adjust_volume": 2277, "Translate": 2278, "Wh": 2279, "For": 2280, "st_name=str!)": 2281, "(resolution=enum(": 2282, "recommendations": 2283, "bility": 2284, "ru": 2285, "51": 2286, "Lis": 2287, "(days=int": 2288, "max_": 2289, "(city=str!": 2290, "dinner": 2291, "climate": 2292, "address=str!": 2293, "Nim": 2294, "premium|": 2295, "savings": 2296, "pattern": 2297, "Nimbus": 2298, "PL": 2299, "Her": 2300, "Share": 2301, "555-019": 2302, "name=str!": 2303, "Starts": 2304, "languages": 2305, "washing": 2306, "print_document": 2307, "|weekly": 2308, "_workout": 2309, "(seconds=int!)": 2310, "Unlock": 2311, "65": 2312, "attle": 2313, "delete_memo": 2314, "frequency=enum(": 2315, "(room": 2316, "cali": 2317, "pop": 2318, "Aust": 2319, "put": 2320, "_pay": 2321, "1234": 2322, "from_account=str!": 2323, "1080p|4k": 2324, "transfer_f": 2325, "health": 2326, "transfer_funds": 2327, "oom": 2328, "done": 2329, "set_schedule": 2330, "=enum(front": 2331, "(item=str!": 2332, "(plant_name=str!)": 2333, "get_directions": 2334, "Quarterly": 2335, "check_soil_moisture": 2336, "riend": 2337, "eries": 2338, "standard|": 2339, "detect_language": 2340, "spent": 2341, "(folder": 2342, "set_bluetooth": 2343, "place_order": 2344, "@in": 2345, "ump": 2346, "rief": 2347, "station_id=str!)": 2348, "Alex": 2349, "Austin": 2350, "_name=str": 2351, "stop_recording": 2352, "_power": 2353, "focus": 2354, "Alpha": 2355, "|T": 2356, "ily": 2357, "date.": 2358, "CC": 2359, "temperature=int)": 2360, "light_name=str!)": 2361, "(hours=int!)": 2362, "stories": 2363, "Lisbon": 2364, "open|": 2365, "checking": 2366, "delete": 2367, "_card": 2368, "process": 2369, "red|green": 2370, "lighting": 2371, "100": 2372, "avi": 2373, "-22": 2374, "previ": 2375, "list_memos": 2376, "previous": 2377, ".'": 2378, "stre": 2379, "ars": 2380, "lec": 2381, "model": 2382, "places": 2383, "vert": 2384, "kill": 2385, "erial": 2386, "(limit=int": 2387, "meal": 2388, "(blind": 2389, "program": 2390, "mark_as_": 2391, "feed_fish": 2392, "phone=str)": 2393, "Cap": 2394, "_percent": 2395, "nozz": 2396, "=enum(low|medium|high))": 2397, "ole": 2398, "conom": 2399, "daily_": 2400, "set_budget": 2401, "(period=enum(": 2402, "bin": 2403, "unlock_door": 2404, "food|": 2405, "cancel_ride": 2406, "3pm": 2407, "range.": 2408, "trane": 2409, "(amount_grams": 2410, "+81": 2411, "brief": 2412, "Capture": 2413, "AC": 2414, "ror": 2415, "ince": 2416, "hall": 2417, "456": 2418, "|sport": 2419, "(limit=int)": 2420, "econom": 2421, "Gr": 2422, "them": 2423, "ssi": 2424, "-17": 2425, "come": 2426, "create_memo": 2427, "delete_file": 2428, "topic": 2429, "80s": 2430, "vehicle_id=str!)": 2431, "set_playback_speed": 2432, "alized": 2433, "red|green|blue": 2434, "coltrane": 2435, "levels": 2436, "iness": 2437, "gress": 2438, "printer.": 2439, ".50": 2440, "networks": 2441, "set_blind_": 2442, "Returns": 2443, "ko": 2444, "(di": 2445, "quality=enum(": 2446, "(job": 2447, "food_level": 2448, "'Project": 2449, "apply": 2450, "material": 2451, "set_water": 2452, "-28": 2453, "ringtone": 2454, "transport|": 2455, "mark_as_read": 2456, "hallway": 2457, "food|transport|": 2458, "vis": 2459, "_title=str!)": 2460, "plant_name=str!": 2461, "pause_playback": 2462, "white|": 2463, "'.": 2464, "be_": 2465, "|month": 2466, "corp.com": 2467, "temperature_celsius": 2468, "rid": 2469, "sending": 2470, "clip": 2471, "e.g.": 2472, "Seattle": 2473, "open|close": 2474, "phone=str!)": 2475, "printing": 2476, "start_print": 2477, "Kick": 2478, "_languages": 2479, "get_market": 2480, "capture_photo": 2481, "daily|weekly": 2482, "cycle.": 2483, "will": 2484, "latte": 2485, "ful": 2486, "spin_speed": 2487, "global": 2488, "guide": 2489, "note=str)": 2490, "ena.": 2491, "play_episode": 2492, "ready": 2493, "their": 2494, "shopping": 2495, ".pdf": 2496, "business": 2497, "check_food_level": 2498, "une": 2499, "-02": 2500, "Retrieves": 2501, "Confirm": 2502, "Elena": 2503, "basement": 2504, "unit=enum(celsius|fahrenheit))": 2505, "anya.": 2506, "log_workout": 2507, "|p": 2508, "It": 2509, "dock": 2510, "oul": 2511, "-06": 2512, "now?": 2513, "breath": 2514, "_machine": 2515, "(text=str!)": 2516, "log_sleep": 2517, "ates": 2518, "-14": 2519, "_id=int)": 2520, "fare": 2521, "condition": 2522, "system.": 2523, "return_to_": 2524, "(ssid=str!)": 2525, "you're": 2526, "Seoul": 2527, "Te": 2528, "pon": 2529, "_events": 2530, "has": 2531, "episode.": 2532, "save_": 2533, "start_time=str!": 2534, "artist=str": 2535, "supported_languages": 2536, "-07": 2537, "@tech": 2538, "slot": 2539, "Ar": 2540, "_schedule": 2541, "_filter": 2542, "Read": 2543, "Take": 2544, "create_playlist": 2545, "transaction": 2546, "(category=str": 2547, "Appointment": 2548, "Transfer": 2549, "(action=enum(open|close": 2550, "ia": 2551, "org": 2552, "parti": 2553, "techn": 2554, "(light_name=str!)": 2555, "posal": 2556, "auto-": 2557, "-24": 2558, "(session": 2559, "Connec": 2560, "ing|walk": 2561, "get_stock_": 2562, "Place": 2563, "availability": 2564, "Kickoff": 2565, "mu": 2566, "s?": 2567, "en|": 2568, "thing": 2569, "_cycle": 2570, "list_notes": 2571, "_water_": 2572, "list_files": 2573, "saying": 2574, "(ride_id=str!)": 2575, "To": 2576, "Fr": 2577, "flashlight.": 2578, "ident": 2579, "co.": 2580, "nov": 2581, "alarms": 2582, "countdown": 2583, "fiction": 2584, "(speed=enum(": 2585, "reminders": 2586, "kenji.tanaka@": 2587, "ire": 2588, "nap": 2589, "-04": 2590, "2025-03": 2591, "turn_light_": 2592, "coupon": 2593, "light.": 2594, "contact_": 2595, "playli": 2596, "sult": 2597, "Sarah's": 2598, "interest": 2599, "scene": 2600, "(source_lang": 2601, "distance": 2602, "_payment": 2603, "friend": 2604, "(e.g.": 2605, "Connect": 2606, "sent": 2607, "all_": 2608, "Just": 2609, "info": 2610, "zone=str!)": 2611, "_device": 2612, "_temp": 2613, "_coffee": 2614, "entertainment|": 2615, "Pet": 2616, "han": 2617, "fil": 2618, "thre": 2619, "_minutes": 2620, "-26": 2621, "delete_expense": 2622, "_alert": 2623, "rate_driver": 2624, "Initi": 2625, "whole": 2626, "+9": 2627, "leo": 2628, "-18": 2629, "was": 2630, "-27": 2631, "connection": 2632, "=enum(on|off)!": 2633, "@maya": 2634, "toner": 2635, "standup": 2636, "Do": 2637, "real": 2638, "display": 2639, "vehicle_type=enum(": 2640, "take_photo": 2641, "year": 2642, "d|": 2643, "it.": 2644, "rite": 2645, "format=enum(": 2646, "tilt": 2647, "height": 2648, "cancel_order": 2649, "tonight": 2650, "EV": 2651, "zone.": 2652, "egg": 2653, "set_delay": 2654, "world|": 2655, "|bedroom|kitchen|": 2656, "1080p|4k))": 2657, "ga": 2658, "first": 2659, "ound": 2660, "brew_coffee": 2661, "an|": 2662, "(tag": 2663, "|1.5": 2664, "Rename": 2665, "ailed": 2666, "calories": 2667, "looking": 2668, "Apply": 2669, "design": 2670, "(message_": 2671, "77": 2672, "lip": 2673, "sci": 2674, "record_": 2675, "start_time=str!)": 2676, "Adjusts": 2677, "copies=int": 2678, "@leo": 2679, "py": 2680, "reser": 2681, "(keyword": 2682, "Mari": 2683, "portra": 2684, "elena.": 2685, "portrait": 2686, "reat": 2687, "(from": 2688, "device.": 2689, "ggle": 2690, "'The": 2691, "drone's": 2692, "cycl": 2693, "search_emails": 2694, "estimated": 2695, "Follow-up": 2696, "uff": 2697, "Toggle": 2698, "activate": 2699, "(password": 2700, "get_weather_forecast": 2701, "(artist=str": 2702, "inten": 2703, "-16": 2704, "odcast": 2705, "transit": 2706, "read_": 2707, "printer_status": 2708, "prefer": 2709, "Switch": 2710, "copy": 2711, "_podcast": 2712, "720": 2713, "Scan": 2714, "brary": 2715, "origin=str!)": 2716, "|delicate": 2717, "|1.5|2": 2718, "yn": 2719, "HV": 2720, "90": 2721, "His": 2722, "-08": 2723, "replace": 2724, "Water": 2725, "team": 2726, "ify": 2727, "more": 2728, "tomorrow?": 2729, "smart": 2730, "start_screen_cast": 2731, "list_events": 2732, "HVAC": 2733, "ps": 2734, "Mi": 2735, "query=str!": 2736, "lights.": 2737, "T17": 2738, "T11": 2739, "stop_cleaning": 2740, "(tank": 2741, "manent": 2742, "(pet_name=str!": 2743, "cancel_print_job": 2744, "What": 2745, "set_climate": 2746, "intenance": 2747, "720p": 2748, "ening": 2749, "ital": 2750, "fly": 2751, "get_sleep": 2752, "@pri": 2753, "_inbox": 2754, "(hours=int!": 2755, "Oslo": 2756, "calculate": 2757, "(genre=enum(": 2758, "espresso": 2759, "tivity": 2760, "-5678": 2761, "ano": 2762, "(id": 2763, "medium": 2764, "camera.": 2765, "podca": 2766, "Lunch": 2767, "(door_id=str)": 2768, "list_expenses": 2769, "set_light_brightness": 2770, "s=arr!)": 2771, "remove_item": 2772, "latitude=num!": 2773, "clean_machine": 2774, "thresh": 2775, "detailed": 2776, "cin": 2777, "ise": 2778, "get_status": 2779, "(cycle": 2780, "(date=str)": 2781, "(content": 2782, "Thanks!": 2783, "economy|": 2784, "partial": 2785, "z@": 2786, "ether": 2787, "part": 2788, "away": 2789, "points": 2790, "(amount_ml=int": 2791, "Fetches": 2792, "since": 2793, "ing|walking|": 2794, "threshold": 2795, "d_": 2796, "pH": 2797, "|t": 2798, "lit": 2799, "lood": 2800, "T19": 2801, "second": 2802, "machine.": 2803, "ually": 2804, "(ticker=str!)": 2805, "radius_km": 2806, "@priya": 2807, "read_inbox": 2808, "234-5678": 2809, "Det": 2810, "too": 2811, "ral": 2812, "entation": 2813, "ze_": 2814, "doors": 2815, "-minute": 2816, "plant.": 2817, "zone=int!)": 2818, "accounts": 2819, "delete_event": 2820, "override": 2821, "payee": 2822, "|monthly": 2823, "(altitude_m": 2824, "zoom": 2825, "progress": 2826, "(direc": 2827, "set_water_temperature": 2828, "=enum(en|": 2829, "eggs": 2830, "road": 2831, "ason": 2832, "plant_name": 2833, "small": 2834, "arily": 2835, "nit": 2836, "T16": 2837, "Would": 2838, "end_date=str": 2839, "_watering": 2840, "ategy": 2841, "set_sleep_": 2842, "(end_date=str!": 2843, "list_todos": 2844, "gate": 2845, "sing": 2846, "ly.": 2847, "March": 2848, "T10": 2849, "_levels": 2850, "gener": 2851, "capp": 2852, "search_memos": 2853, "energy_": 2854, "skip_track": 2855, "rename_file": 2856, "roof": 2857, "allery": 2858, "beans": 2859, "delete_email": 2860, "uary": 2861, "_days": 2862, "Sofi": 2863, "find_charging_": 2864, "description": 2865, "streak": 2866, "Maria": 2867, "uccin": 2868, "porarily": 2869, "cappuccin": 2870, "zer": 2871, "check_ink": 2872, "job.": 2873, "mith": 2874, "period.": 2875, "fr|de": 2876, "432": 2877, "move_file": 2878, "movies": 2879, "reply": 2880, "breaking_": 2881, "forget_wifi": 2882, "cabin": 2883, "start_wash_cycle": 2884, "whether": 2885, "ima": 2886, "(new": 2887, "T14": 2888, "comment": 2889, "category=enum(": 2890, "planning": 2891, "intake": 2892, "set_resolution": 2893, "(location=str": 2894, "search_contacts": 2895, "brewing": 2896, "favorites": 2897, "utili": 2898, "cott": 2899, "anya.sharma": 2900, "filename": 2901, "maintenance": 2902, "central": 2903, "sunroof": 2904, "-fi": 2905, "_id=str": 2906, "T18": 2907, "(level=int!": 2908, "rigg": 2909, "network.": 2910, "cancel_print": 2911, "exchange": 2912, "(speed=enum(0.5": 2913, "(action=enum(on|off)!": 2914, "etic": 2915, "tray": 2916, "Checks": 2917, "bpm": 2918, "start_date=str!)": 2919, "_location=str!": 2920, "charging_session": 2921, "quantity=int)": 2922, "turn_on_light": 2923, "upcoming": 2924, "(connector": 2925, "comedy": 2926, "get_stock_quote": 2927, "_clip": 2928, "ync": 2929, "resentation": 2930, "ki": 2931, "fy": 2932, "Q4": 2933, "live": 2934, "iss": 2935, "would": 2936, "bread": 2937, "(position": 2938, "tank.": 2939, "rating=int!": 2940, "confirming": 2941, "preference": 2942, "recei": 2943, "save_translation": 2944, "proposal": 2945, "+91": 2946, "preferred": 2947, "flashlight_": 2948, "ordin": 2949, "locate": 2950, "set_watering": 2951, "toggle_light": 2952, "check_balance": 2953, "jane": 2954, "track_order": 2955, "set_light_color": 2956, "fertili": 2957, "Javi": 2958, "4567": 2959, "red|green|blue|": 2960, "0-1234-5678": 2961, "coordin": 2962, "turn_on_": 2963, "Session": 2964, "category.": 2965, "sort": 2966, "get_traffic": 2967, "switch_": 2968, "buy": 2969, "spin_speed=int": 2970, "category=enum(food|transport|": 2971, "utiliti": 2972, "Block": 2973, "Str": 2974, "only": 2975, "(filter": 2976, "phrase": 2977, "novate": 2978, "check_ink_levels": 2979, "ET": 2980, "locations": 2981, "metad": 2982, "See": 2983, "apter": 2984, "breaking": 2985, "synth": 2986, "(session_id=str!)": 2987, "(category=enum(world|": 2988, "720p|": 2989, "|A": 2990, "xl": 2991, "minutes?": 2992, "via": 2993, "set_speed": 2994, "grind": 2995, "_method": 2996, "petrova": 2997, "priority=enum(low|medium|high)": 2998, "PLA": 2999, "cotton|": 3000, "Sync": 3001, "uv": 3002, "fet": 3003, "olo": 3004, "urbo": 3005, "cost": 3006, "(email_id=str!)": 3007, "12.5": 3008, "ulti": 3009, "strength=enum(": 3010, "entry": 3011, "ondon": 3012, "calib": 3013, "subscribe_": 3014, "|week|month": 3015, "snap": 3016, "|delicate|": 3017, "single": 3018, "es|fr|de": 3019, "metadata": 3020, "Ca": 3021, "UR": 3022, "|o": 3023, "Ro": 3024, "mail.": 3025, "life": 3026, "without": 3027, "blind_status": 3028, "create_folder": 3029, "corp.": 3030, "12.50": 3031, "driving|walking|": 3032, "Sofia": 3033, "synthetic": 3034, "cotton|synthetic": 3035, "und": 3036, "clear": 3037, "beat": 3038, "pet_name=str!)": 3039, "(enabled=bool": 3040, "pause_print": 3041, "delete_sms": 3042, "recipient=str!)": 3043, "(end_time=str!": 3044, "_index": 3045, "agos": 3046, "France": 3047, "calculate_": 3048, "ng": 3049, "0.": 3050, "won": 3051, "lear": 3052, "web": 3053, "-by": 3054, "try": 3055, "audiobook.": 3056, "(audiobook": 3057, "|1.0": 3058, "immediately.": 3059, "urgent": 3060, "metric": 3061, "may": 3062, "Plan": 3063, "lock_doors": 3064, "(enable": 3065, "olutions.": 3066, "track_": 3067, "storage": 3068, "latform": 3069, "reference": 3070, "$1200": 3071, "get_supported_languages": 3072, "multi": 3073, "mode=enum(driving|walking|": 3074, "Lagos": 3075, "-by-": 3076, "Ade": 3077, "meric": 3078, "room.": 3079, "T13": 3080, "file.": 3081, "charge_": 3082, "units": 3083, "duration_minutes=int": 3084, "nearby_": 3085, "(symbol=str!)": 3086, "(address=str!": 3087, "list_all_": 3088, "@innovate": 3089, "oni": 3090, "-time": 3091, "Res": 3092, "minutes=int)": 3093, "percentage.": 3094, "_code": 3095, "(end_date=str": 3096, "target_lang=str!": 3097, "file_path=str!)": 3098, "transaction_history": 3099, "gallery": 3100, "get_breaking_": 3101, "solutions.": 3102, "We": 3103, "PS": 3104, "lice": 3105, "account.": 3106, "get_current_temperature": 3107, "expense_": 3108, "|sports|": 3109, "fiction|": 3110, "Tem": 3111, "Temporarily": 3112, "SO": 3113, "Per": 3114, "ensi": 3115, "ague": 3116, "fill": 3117, "enable_": 3118, "(email_id=int!)": 3119, "start_meditation": 3120, ".25": 3121, "=enum(inbox": 3122, "1200.0": 3123, "toggle_wifi": 3124, "error": 3125, "|1.5|2.0": 3126, "find_charging_stations": 3127, "maybe": 3128, "$1200.00": 3129, "lu": 3130, "des": 3131, "location=str!": 3132, "noo": 3133, "text=str!": 3134, "(door_name=str!)": 3135, "label=str)": 3136, "zones": 3137, "javi": 3138, "(account=str!": 3139, "spending": 3140, "pair_bluetooth": 3141, "dispense_": 3142, "Subscri": 3143, "playlist_name=str!)": 3144, "(new_name=str!": 3145, "=enum(en|es|fr|de": 3146, "turn-by-": 3147, "turn-by-turn": 3148, "Li": 3149, "Pi": 3150, "_id=int": 3151, "oke": 3152, "text.": 3153, "play_memo": 3154, "40p": 3155, "today?": 3156, "(device_name=str!)": 3157, "_title=str!": 3158, "98765": 3159, "i'": 3160, "At": 3161, "star": 3162, "les": 3163, "gest": 3164, "keyword.": 3165, "premium": 3166, "set_wifi_": 3167, "get_heart_rate": 3168, "output": 3169, "liters": 3170, "start_charging_session": 3171, "Javier": 3172, "utilities|": 3173, "Strategy": 3174, "league": 3175, "javier.": 3176, "UV": 3177, "speci": 3178, "airo": 3179, "who": 3180, "get_ride": 3181, "2024-03": 3182, "portion_size": 3183, "same": 3184, "555-0199": 3185, "groceries": 3186, "report.pdf": 3187, "heater": 3188, "T12": 3189, "leave": 3190, "-30": 3191, "get_plant": 3192, "2025-04": 3193, "|14": 3194, "seconds=int": 3195, "'Meeting": 3196, "streaming_": 3197, "ious": 3198, "(zone=int!)": 3199, "normal|": 3200, "rigger": 3201, "pep": 3202, "pepper": 3203, "pepperoni": 3204, "_list": 3205, "_start": 3206, "(file": 3207, "flow": 3208, "ware": 3209, "2024-07": 3210, "ofia.": 3211, "how's": 3212, "get_sleep_": 3213, "get_company": 3214, "close_door": 3215, "signal": 3216, "check_water_level": 3217, "=enum(1|2|3|4|5)!)": 3218, "Forget": 3219, "nozzle": 3220, "(keyword=str!)": 3221, "set_sleep_goal": 3222, "Nairo": 3223, "sofia.": 3224, "Nairobi": 3225, "forget": 3226, "time_": 3227, "T15": 3228, "(time=str!)": 3229, "(delivery": 3230, "discu": 3231, "(code": 3232, "get_stock_price": 3233, "guided": 3234, "|sci": 3235, "copy_file": 3236, "=enum(cotton|synthetic": 3237, "|1.5|2.0)!)": 3238, "wi": 3239, "|h": 3240, "Pr": 3241, "ug": 3242, "CH": 3243, "MO": 3244, "far": 3245, "relate": 3246, "delete_reminder": 3247, "fine": 3248, "press": 3249, "drum": 3250, "driver|": 3251, "2024-12": 3252, "-26T1": 3253, "(region": 3254, "window": 3255, "swim": 3256, "library": 3257, "image": 3258, "ated": 3259, "prep": 3260, "start_video": 3261, "2025-08": 3262, "list_contacts": 3263, "=arr!": 3264, "rating=int!)": 3265, "include": 3266, "2025-12": 3267, "zone_id=int!)": 3268, "(password=str": 3269, "snapshot": 3270, "americ": 3271, "GPS": 3272, "atel": 3273, "dog": 3274, "check_weather": 3275, "delayed": 3276, "CCS|": 3277, "set_blind_position": 3278, "save_clip": 3279, "set_watering_schedule": 3280, "PET": 3281, "get_blind_status": 3282, "$12.50": 3283, "platform": 3284, "1080p|14": 3285, "CHAde": 3286, "related": 3287, "PETG": 3288, "1080p|1440p": 3289, "CCS|CHAde": 3290, "CCS|CHAdeMO": 3291, "rou": 3292, "ge_": 3293, "get_total": 3294, "(brightness=int!": 3295, "run|": 3296, "15th": 3297, "_network": 3298, "2025-02": 3299, "tags": 3300, "feeding_": 3301, "quick)!": 3302, "temperature_c": 3303, "fully": 3304, "|cycl": 3305, "get_sleep_summary": 3306, "(color=enum(red|green|blue|": 3307, "sort_by": 3308, "London": 3309, "(folder=enum(inbox": 3310, "(delivery_": 3311, "=enum(driver|": 3312, "som": 3313, "Lists": 3314, "search_news": 3315, "stead": 3316, "get_daily_": 3317, "Detect": 3318, "(enable=bool!)": 3319, "_type=enum(CCS|CHAdeMO": 3320, "=enum(driver|passenger": 3321, "Le": 3322, "ent|": 3323, "|lo": 3324, "-29": 3325, "podcasts": 3326, "anaka.": 3327, "task=str!)": 3328, "search_audiobooks": 3329, "briefing": 3330, "treat": 3331, "90-1234-5678": 3332, "chapter": 3333, "Bre": 3334, "check_filter": 3335, "fast": 3336, "set_cook": 3337, "todo_id=int!)": 3338, "list_items": 3339, "zone_status": 3340, "=enum(front|back|": 3341, "(job_id=int!)": 3342, "Confirmation": 3343, "result": 3344, "Petrova": 3345, "room|bedroom|kitchen|": 3346, "pair_bluetooth_device": 3347, "hn": 3348, "calm": 3349, "mind": 3350, "to_w": 3351, "tion=enum(": 3352, "on=bool!)": 3353, "cust": 3354, "clean_": 3355, "whats": 3356, "|night": 3357, "(frequency": 3358, "eness": 3359, "(memo_id=int!)": 3360, "pending": 3361, "Configure": 3362, "frequency=enum(daily|weekly": 3363, "(action=enum(open|close)!": 3364, "fetch": 3365, "uv_index": 3366, "sensi": 3367, "|1.25": 3368, "custom": 3369, "Ex": 3370, "ml": 3371, "qui": 3372, "chil": 3373, "note.": 3374, "needs": 3375, "hite": 3376, "(song": 3377, "2.5": 3378, "Provide": 3379, "bill": 3380, "(hours=num!)": 3381, "cir": 3382, "(account=str!)": 3383, "-24T1": 3384, "notifi": 3385, "selec": 3386, "fertilizer": 3387, "find_nearby_": 3388, "Alice": 3389, "_type=enum(CCS|CHAdeMO|T": 3390, "get_uv_index": 3391, "ku": 3392, "pan": 3393, "actor": 3394, "=enum(U": 3395, "chan": 3396, "status.": 3397, "playlist.": 3398, "transc": 3399, "charge": 3400, "2025-09": 3401, "2024-09": 3402, "schedule_feeding": 3403, "|deep": 3404, "get_stock_history": 3405, "capture": 3406, "member": 3407, "|medium|large": 3408, "personalized": 3409, "ridge": 3410, "entire": 3411, "premium|xl": 3412, "Subscribe": 3413, "small|medium|large": 3414, "ob": 3415, "Est": 3416, "to-": 3417, "uring": 3418, "flashlight?": 3419, "title.": 3420, "cart": 3421, "500": 3422, "recor": 3423, "heating": 3424, "get_episode": 3425, "ara.": 3426, "ambi": 3427, "seconds=int)": 3428, "48.0": 3429, "2025-11": 3430, "(area": 3431, "search_shows": 3432, "$48": 3433, "get_transaction_history": 3434, "streaming_availability": 3435, "john": 3436, "=enum(small|medium|large": 3437, "Estimate": 3438, "recorded": 3439, "$48.00": 3440, "work|": 3441, "station_id=str!": 3442, "ride_type=enum(": 3443, "motor": 3444, "today.": 3445, "stop_screen_cast": 3446, "(event_id=int!": 3447, "add_to_queue": 3448, "much": 3449, "(format=enum(": 3450, "permanent": 3451, "swimm": 3452, "bec": 3453, "get_file": 3454, "purch": 3455, "other)!": 3456, "drama": 3457, "(restaurant=str!)": 3458, "|swim": 3459, "43210": 3460, "joke": 3461, "forget_wifi_network": 3462, "sort_by=enum(": 3463, "3D": 3464, "Fe": 3465, "Pre": 3466, "Cal": 3467, "Pair": 3468, "episodes": 3469, "isine": 3470, "restaurants": 3471, "add_todo": 3472, "_scan": 3473, "(sound": 3474, "(event_id=int!)": 3475, "normal": 3476, "|rear": 3477, "(source_lang=str": 3478, "presentation": 3479, "s)": 3480, "AQ": 3481, "ster": 3482, "ani": 3483, "number.": 3484, "_note": 3485, "wall": 3486, "scor": 3487, "sarah": 3488, "_sensor": 3489, "(description": 3490, "start_workout": 3491, "-07T1": 3492, "kindly": 3493, "kindness": 3494, "(temp_c": 3495, "write": 3496, "replacement": 3497, "ground": 3498, "add_to_w": 3499, "notification": 3500, "68": 3501, "pin": 3502, "nel": 3503, "(minutes": 3504, "unlocked": 3505, "loop": 3506, "stam": 3507, "please?": 3508, "book.": 3509, "fee": 3510, "profi": 3511, "-16T1": 3512, "@global": 3513, "cident": 3514, "petrova@": 3515, "|lov": 3516, "plain": 3517, "ype": 3518, "antum": 3519, "search_contact": 3520, "2024-05": 3521, "2024-08": 3522, ".jp.": 3523, "question": 3524, "Convert": 3525, "get_market_news": 3526, "capital": 3527, "energy_usage": 3528, "Smith": 3529, "beats": 3530, "she": 3531, "erday": 3532, "hap": 3533, "light_status": 3534, "ammon": 3535, "milli": 3536, "ique": 3537, "download": 3538, "comedy|": 3539, "ology": 3540, "expense_id=int!)": 3541, "Brew": 3542, "ambient": 3543, "wallpaper": 3544, "timestam": 3545, "profile": 3546, "esterday": 3547, "Q2": 3548, "|G": 3549, "shi": 3550, "such": 3551, "(email=str!": 3552, "Rue": 3553, "Que": 3554, "poli": 3555, "_recording": 3556, "bookmark": 3557, "2024-06": 3558, "(color=bool": 3559, "-28T1": 3560, "sender=str)": 3561, "(temperature_celsius": 3562, "max_distance": 3563, "remember": 3564, "get_streaming_availability": 3565, "channel": 3566, "ammonia": 3567, "|E": 3568, "me.": 3569, "of_": 3570, "noon": 3571, "backward": 3572, "opy": 3573, "expo": 3574, "might": 3575, "555-": 3576, "2025-07": 3577, "start_time=str": 3578, "(from_": 3579, "'Hi": 3580, "paris": 3581, "Celsius.": 3582, "activate_": 3583, "cappuccino": 3584, "discuss": 3585, "set_cook_time": 3586, "Or": 3587, "urb": 3588, "date=str)": 3589, "ction": 3590, "arden": 3591, "New": 3592, "Changes": 3593, "pickup=str!)": 3594, "_details": 3595, "get_menu": 3596, "get_breaking_news": 3597, "get_zone_status": 3598, "quantum": 3599, "yesterday": 3600, "_email": 3601, "every": 3602, "location=str": 3603, "esla": 3604, "cooling": 3605, "from=str": 3606, "navi": 3607, "|auto)!)": 3608, "booking": 3609, "(delay": 3610, "start_cooking": 3611, "free": 3612, "purifier.": 3613, "-06T1": 3614, "quantity=int": 3615, "cru": 3616, "What's": 3617, "strength=enum(mil": 3618, "@innovatech": 3619, "items=arr!": 3620, "type=enum(run|": 3621, "|1.0|1.25": 3622, "(expense_id=int!)": 3623, "timestamp": 3624, "sand": 3625, "speed.": 3626, "drive": 3627, "(location=str)": 3628, "Main": 3629, "contain": 3630, "_currency": 3631, "(author": 3632, "check_water_quality": 3633, "(content=str": 3634, "general": 3635, "turbo": 3636, "(duration_seconds=int": 3637, "sensitivity": 3638, "cuisine": 3639, "scal": 3640, "ech": 3641, "give": 3642, "check_door": 3643, "(0-100": 3644, "(camera": 3645, "get_weather_v2": 3646, "tomorrow.": 3647, "path=str!)": 3648, "delivery_": 3649, "complete_": 3650, "finis": 3651, "coars": 3652, "shuff": 3653, "(on=bool!)": 3654, "_white": 3655, "Calculate": 3656, "body_scan": 3657, "explain": 3658, "_type=enum(CCS|CHAdeMO|Type": 3659, "coarseness": 3660, "ab": 3661, "lic": 3662, "|ed": 3663, "room=str)": 3664, "zone=str)": 3665, "order_": 3666, "(quality": 3667, "para": 3668, "set_bed": 3669, "complete": 3670, "(date_": 3671, "e_estimate": 3672, "material=enum(": 3673, "turn_light_on": 3674, "yoga": 3675, "running|cycl": 3676, "(todo_id=int!)": 3677, "premium|xl))": 3678, "exposure": 3679, "c.": 3680, "wan": 3681, "oper": 3682, "poor": 3683, "top_": 3684, "support": 3685, "group.": 3686, "(mood": 3687, "set_power": 3688, "schedule_blind_": 3689, "It's": 3690, "list_alarms": 3691, "(cycle_type=enum(": 3692, "(rating=int!": 3693, "|0.": 3694, "get_sleep_stats": 3695, "(author=str": 3696, "Ju": 3697, "pli": 3698, "tember": 3699, "ection": 3700, "(target": 3701, "start_time": 3702, "promo": 3703, "set_alert": 3704, "2025-05": 3705, "view_": 3706, "area.": 3707, "Locate": 3708, "create_draft": 3709, "(printer_name=str!)": 3710, "skip_forward": 3711, "enci": 3712, "espresso|": 3713, "(temperature=num!": 3714, "_spent": 3715, "pump": 3716, "set_flashlight_": 3717, "|AB": 3718, "(enabled=bool!": 3719, "(episode_title=str!": 3720, "ing|swimm": 3721, "Copy": 3722, "Mom": 3723, "to=str)": 3724, "mode?": 3725, "schedule_sms": 3726, "(state=bool!)": 3727, "save_location": 3728, "-18T1": 3729, "entangle": 3730, "axis": 3731, "guez": 3732, "cast_volume": 3733, "(filename": 3734, "colleague": 3735, "program=enum(cotton|synthetic": 3736, "|sent|": 3737, "(direction=enum(": 3738, "beca": 3739, "cycle|swim": 3740, "check_door_status": 3741, "|ABS|": 3742, "entanglement": 3743, "because": 3744, "BP": 3745, "eth": 3746, "ace": 3747, "pic": 3748, "under": 3749, "_pet": 3750, "_pur": 3751, "pet.": 3752, "(resolution": 3753, "2025-06": 3754, "update_event": 3755, "|4K": 3756, "pause_machine": 3757, "search_files": 3758, "length": 3759, "interval": 3760, "connect_to": 3761, "(room=enum(living": 3762, "convert": 3763, "set_price": 3764, "radius_km=num)": 3765, "comment=str": 3766, "wich": 3767, "Tanaka.": 3768, "|1.0|1.25|1.5|2.0)!)": 3769, "operation": 3770, "PLA|ABS|": 3771, "someth": 3772, "set_price_alert": 3773, "sandwich": 3774, "PLA|ABS|PETG": 3775, "Ho": 3776, "vent": 3777, "open/": 3778, "set_filter": 3779, "get_charging": 3780, "reminder_id=int!)": 3781, "disarm": 3782, "dry": 3783, "send_email_v2": 3784, "set_timer_v2": 3785, "_path=str!)": 3786, "receive": 3787, "category=enum(food|transport|entertainment|": 3788, "720p|1080p|4k))": 3789, "Trigger": 3790, "transcrip": 3791, "ing_kindness": 3792, "background": 3793, "technology": 3794, "|0.75": 3795, "|loving_kindness": 3796, "|w": 3797, "at|": 3798, "tic": 3799, "loa": 3800, "Com": 3801, "Aven": 3802, "notes.": 3803, "bas": 3804, "asure": 3805, "start_timer": 3806, "type.": 3807, "set_color": 3808, "discount": 3809, "(duration=int": 3810, "report_": 3811, "symbol.": 3812, "Reports": 3813, "(zone=str!)": 3814, "-04T1": 3815, "(temperature=num!)": 3816, "latte|": 3817, "Initiate": 3818, "piano": 3819, "receiver": 3820, "Planning": 3821, "SOS": 3822, "species": 3823, "heated": 3824, "during": 3825, "running|cycling|swimm": 3826, "body_scan|loving_kindness": 3827, "sil": 3828, "curr": 3829, "door_id": 3830, "uses": 3831, "myst": 3832, "repe": 3833, "fel": 3834, "care": 3835, "=enum(rain": 3836, "cred": 3837, "_document": 3838, "Tower": 3839, "recipient=str!": 3840, "steps|": 3841, "letter": 3842, "-27T1": 3843, "Johnson": 3844, "request": 3845, "Grand": 3846, "=enum(USD": 3847, "get_light_status": 3848, "UR|G": 3849, "=enum(USD|E": 3850, "UR|GBP": 3851, "=enum(USD|EUR|GBP": 3852, "5th": 3853, "within": 3854, "Gets": 3855, "_home": 3856, "steps=int!)": 3857, "(card": 3858, "(pet_name=str!)": 3859, "shopping_": 3860, "list_plants": 3861, "(message_id=int!)": 3862, "learn": 3863, "=enum(en|es|fr|de|": 3864, "(connector_type=enum(CCS|CHAdeMO|Type": 3865, "currenci": 3866, "mak": 3867, "Gro": 3868, "match": 3869, "900": 3870, "Sep": 3871, "airplan": 3872, "order.": 3873, "start_charging": 3874, "begin": 3875, "lock_door_v2": 3876, "2024-02": 3877, "storm": 3878, "get_steps": 3879, "adjust_seat": 3880, "-14T1": 3881, "-08T1": 3882, "-4567": 3883, "(folder=enum(inbox|sent|": 3884, "remo": 3885, "unk": 3886, "subject=str": 3887, "defro": 3888, "start_session": 3889, "2025-01": 3890, "start_cook": 3891, "Stops": 3892, "Review'": 3893, "ular": 3894, "altitude.": 3895, "open_garage_door": 3896, "vehicle_type=enum(standard|": 3897, "schedule_override": 3898, "results": 3899, "purchased": 3900, "top_stories": 3901, "mystery": 3902, "iffel": 3903, "currency=enum(USD|EUR|GBP": 3904, "t|": 3905, "uk": 3906, "week.": 3907, "aired": 3908, "documentary": 3909, "shared": 3910, "log_mood": 3911, "outside": 3912, "_number=str!": 3913, "block_number": 3914, "get_recommendations": 3915, "get_printer_status": 3916, "podcast_name": 3917, "nitrate": 3918, "firmware": 3919, "(reminder_id=int!)": 3920, "September": 3921, "ere": 3922, "mem": 3923, "lio": 3924, "most": 3925, "sect": 3926, "get_note": 3927, "status=enum(": 3928, "Call": 3929, "pot": 3930, ".com.": 3931, "feedback": 3932, "play_audiobook": 3933, "forest": 3934, "robot_move_v2": 3935, "hemi": 3936, "Track": 3937, "connect_wifi": 3938, "parking": 3939, "queue.": 3940, "-17T1": 3941, "driving": 3942, "(door_id=int)": 3943, "calibrate_": 3944, "tech|sports|": 3945, "get_company_info": 3946, "feed_pet": 3947, "Pauses": 3948, "trunk": 3949, "memory": 3950, "sector": 3951, ".4": 3952, "cto": 3953, "lax": 3954, "_contact": 3955, "bois": 3956, "sel": 3957, "hop": 3958, "keep": 3959, "few": 3960, "aver": 3961, "along": 3962, "2024-01": 3963, "target_language": 3964, "hold": 3965, "readings": 3966, "+44": 3967, "personal|": 3968, "(vehicle_id=str!)": 3969, "schedule_watering": 3970, "Print": 3971, "finished": 3972, "scan_document": 3973, "return_home": 3974, "ctober": 3975, "v2": 3976, "tv": 3977, "pend": 3978, "cons": 3979, "mins": 3980, "turn_off_": 3981, "sos": 3982, "moved": 3983, "layer": 3984, "Nove": 3985, "(room=str!)": 3986, "pet_name": 3987, "1.5": 3988, "set_goal": 3989, "plz": 3990, "another.": 3991, "atchlist": 3992, "get_contact_": 3993, "to-do": 3994, "scale": 3995, "type=enum(espresso|": 3996, "(program=enum(cotton|synthetic": 3997, "material=enum(PLA|ABS|PETG": 3998, "hemian": 3999, "November": 4000, "arri": 4001, "ed.": 4002, "titles": 4003, "(temperature=int!)": 4004, "cast.": 4005, "track.": 4006, "play_podcast": 4007, "a.k": 4008, "get_translation": 4009, "drop": 4010, "retrieve": 4011, "Fren": 4012, "state=enum(on|off)!)": 4013, "(booking": 4014, "(level=enum(low|medium|high)!)": 4015, "really": 4016, "Aki": 4017, "get_far": 4018, "(resolution=enum(1080p|1440p": 4019, "quick|deep": 4020, "get_file_info": 4021, "connect_to_wifi": 4022, "loaded": 4023, "credit": 4024, "relax": 4025, "French": 4026, "io": 4027, "ry": 4028, "offe": 4029, "get_door": 4030, "day.": 4031, "sody": 4032, "pril": 4033, "_reminder": 4034, "ride.": 4035, "food.": 4036, "many": 4037, "-22T1": 4038, "_estimate": 4039, "_path=str!": 4040, "portion_grams": 4041, "set_auto_lock": 4042, "@examplecorp.com": 4043, "update_contact_": 4044, "Mike": 4045, "Rhap": 4046, "(comment=str": 4047, "shopping_list": 4048, "remote": 4049, "paired": 4050, "Bohemian": 4051, "get_fare_estimate": 4052, "88": 4053, "avo": 4054, "export": 4055, "(language": 4056, "link": 4057, "tracking": 4058, "adjust_brightness": 4059, "yel": 4060, "_goal": 4061, "toggle_flash": 4062, "ideas": 4063, "sunset": 4064, "-31": 4065, "screenshot": 4066, "cember": 4067, "(contact=str!)": 4068, "CCS": 4069, "June": 4070, "season": 4071, "issue": 4072, "drama|": 4073, "_purifier": 4074, "something": 4075, "repeat": 4076, "(connector_type=enum(CCS|CHAdeMO|Type2": 4077, "yellow": 4078, "rin": 4079, "_session": 4080, "set_blind": 4081, "heav": 4082, "that's": 4083, "documents": 4084, "podcast.": 4085, "-02T1": 4086, "2024-11": 4087, "hvac": 4088, "get_alerts": 4089, "adline": 4090, "ergent": 4091, "turn_off_light": 4092, "|medium|strong": 4093, "resume_playback": 4094, "Khan": 4095, "vehicle_type=enum(economy|": 4096, "anuary": 4097, "@web": 4098, "one-time": 4099, "(playlist_name=str!)": 4100, "of_day": 4101, "complete_todo": 4102, "(mood=enum(": 4103, "politic": 4104, "co.uk": 4105, "Rhapsody": 4106, "cur": 4107, "dent": 4108, "force": 4109, "getting": 4110, "mute": 4111, "hover": 4112, "raft": 4113, "now!": 4114, "Down": 4115, "tag=str)": 4116, "overall": 4117, "toggle_bluetooth": 4118, "(article": 4119, "services": 4120, "(amount_ml=int!)": 4121, "(speed=enum(low|medium|high)!)": 4122, "convers": 4123, "previously": 4124, "|sci-fi": 4125, "seat=enum(driver|passenger": 4126, "=enum(front|back|side": 4127, "Order": 4128, "(speed=enum(0.5|0.75": 4129, "coffe": 4130, "avoid": 4131, "start_meditation_session": 4132, "detergent": 4133, "a|": 4134, "tel": 4135, "gation": 4136, "weekend": 4137, "Sam": 4138, "category=str!": 4139, "cooker": 4140, "user.": 4141, "enabled=bool!)": 4142, "play_music_v2": 4143, "address=str": 4144, "queu": 4145, "pull": 4146, "extern": 4147, "exchange_": 4148, "longitude=num!": 4149, "sync": 4150, "Erase": 4151, "set_bluetooth_": 4152, "transit)": 4153, "Reser": 4154, "July": 4155, "get_total_spent": 4156, "conversation": 4157, "external": 4158, "s'": 4159, "zh": 4160, "anx": 4161, "oft": 4162, "dec": 4163, "vase": 4164, "best": 4165, "bean": 4166, "please.": 4167, "imum": 4168, "Schedules": 4169, "show_map_v2": 4170, "2024-04": 4171, "connected": 4172, "(size": 4173, "Meeting'": 4174, "days=int)": 4175, "@corp": 4176, "start_sprinkler": 4177, "aquarium.": 4178, "amount_ml": 4179, "(printer_id=str!)": 4180, "red|blue": 4181, "longitude=num!)": 4182, "Activ": 4183, "subscribed": 4184, "version": 4185, "(color=enum(white|": 4186, "search_podcast": 4187, "(latitude=num!": 4188, "calm|": 4189, "cartridge": 4190, "(date_from=str": 4191, "matching": 4192, "Eiffel": 4193, "average": 4194, "send_message_": 4195, "time_of_day": 4196, "coffee_": 4197, "queued": 4198, "send_message_v2": 4199, "ale": 4200, "(end": 4201, "lot": 4202, "lack": 4203, "light_name": 4204, "motion": 4205, "dup": 4206, "(count": 4207, "going": 4208, "pasta": 4209, "set_lights_v2": 4210, "temp_c": 4211, "get_bluetooth": 4212, "(goal": 4213, "(speed=int!)": 4214, "555-123": 4215, "(note_id=int!": 4216, "later.": 4217, "(fan_speed": 4218, "mail.com.": 4219, "(days=arr!": 4220, "new_phone=str!)": 4221, "turn_light_off": 4222, "record_video": 4223, "evening": 4224, "listening": 4225, "_payment_method": 4226, "list_all_contacts": 4227, "refill": 4228, "rating=enum(1|2|3|4|5)!)": 4229, "selected": 4230, "add_to_shopping_list": 4231, "anxious": 4232, "NA": 4233, "Tor": 4234, "lient": 4235, "test": 4236, "bic": 4237, "category=str!)": 4238, "hours.": 4239, "create_todo": 4240, "End": 4241, "mission": 4242, "(speed=num!)": 4243, "review.": 4244, "2018": 4245, "scriptions": 4246, "room=enum(living": 4247, "dashcam.": 4248, "apply_": 4249, "unread_": 4250, "(dropoff_location=str!": 4251, "located": 4252, "clear_list": 4253, "american": 4254, "hai": 4255, "(sort_by=enum(": 4256, "(description=str": 4257, "measure": 4258, "status=enum(pend": 4259, "get_door_status": 4260, "exchange_rate": 4261, "black": 4262, "Client": 4263, "haiku": 4264, "status=enum(pending|": 4265, "GH": 4266, "onto": 4267, "band": 4268, "once": 4269, "lass": 4270, "body.": 4271, "Stat": 4272, "-10-1": 4273, "check_off": 4274, "gra": 4275, "recording.": 4276, "brate": 4277, "fold": 4278, "paper_size": 4279, "Dinner": 4280, "(genre=str": 4281, "corp.net": 4282, "get_battery_status": 4283, "search_places": 4284, "apply_filter": 4285, "_sound": 4286, "garden": 4287, "etc.": 4288, "(steps=int!)": 4289, "October": 4290, "Go": 4291, "San": 4292, "aly": 4293, "location=str)": 4294, "thday": 4295, "Time": 4296, "note=str": 4297, "al)!)": 4298, "aish": 4299, "read.": 4300, "get_restaurant": 4301, "_hours": 4302, "set_thermostat_v2": 4303, "extract_invoice_v2": 4304, "(door_id=str!": 4305, "walk|": 4306, "auto_mode": 4307, "recipient.": 4308, "bration": 4309, "set_default": 4310, "enable_bluetooth": 4311, "Submit": 4312, "(period=enum(today": 4313, "snoo": 4314, "ugust": 4315, "subscriptions": 4316, "enda": 4317, "tec": 4318, "wed": 4319, "date|": 4320, "spo": 4321, "itch": 4322, "gim": 4323, "opening": 4324, "trend": 4325, "high)": 4326, "create_calendar_event_v2": 4327, "(month": 4328, "View": 4329, "today's": 4330, "(group": 4331, "(path=str!": 4332, "(new_": 4333, "service.": 4334, "close_garage_door": 4335, "cotton": 4336, "(charger": 4337, "hotspot": 4338, "nozzle_": 4339, "anything": 4340, "list_reminders": 4341, "flood": 4342, "|oce": 4343, "(text=str!": 4344, "pressure": 4345, "(minutes=int!": 4346, "Tech": 4347, "currency=enum(USD|EUR|GBP)": 4348, "self": 4349, "December": 4350, "duplicate": 4351, "555-123-4567": 4352, "GHz": 4353, "y.": 4354, "AA": 4355, "ured": 4356, "listen": 4357, "idth": 4358, "aki": 4359, "arding": 4360, "liver": 4361, "thank": 4362, "restaurant_name=str!)": 4363, "PM?": 4364, "meeting.": 4365, "folder.": 4366, "mari": 4367, "duration_minutes=int)": 4368, "offline": 4369, "Palace": 4370, "business|": 4371, "specify": 4372, "(bpm": 4373, "(frequency_days": 4374, "Prep": 4375, "Queen": 4376, "|edge": 4377, "parameters": 4378, "detection": 4379, "basic": 4380, "get_top_stories": 4381, "January": 4382, "Draft": 4383, "calibration": 4384, "AAPL": 4385, "4|": 4386, "-5": 4387, "mar": 4388, "days.": 4389, "comfor": 4390, "volume=int)": 4391, "river": 4392, "_alarm": 4393, "delete_alarm": 4394, "_feed": 4395, "add_reminder": 4396, "150": 4397, "follow": 4398, "rain_": 4399, "biz": 4400, "degrees?": 4401, "route=str)": 4402, "voir": 4403, "can't": 4404, "umption": 4405, "Arm": 4406, "reserve": 4407, "open_sunroof": 4408, "coordinate": 4409, "day|week|month": 4410, "set_delay_start": 4411, "|delicate|quick)!": 4412, "SDAQ": 4413, "disturb": 4414, "regular": 4415, "|documentary": 4416, "folio": 4417, "Toronto": 4418, "reservoir": 4419, "consumption": 4420, "NASDAQ": 4421, "in.": 4422, "non": 4423, "meet": 4424, "Pri": 4425, "|all": 4426, "quare": 4427, "unread": 4428, "lock_status": 4429, "weight": 4430, "(percent": 4431, "(days=enum(": 4432, "format_s": 4433, "ummari": 4434, "schedule_transfer": 4435, "Look": 4436, "2025-10": 4437, "2024-10": 4438, "set_zone_": 4439, "Sear": 4440, "breathing|": 4441, "_water_intake": 4442, "coordinates": 4443, "milliliters": 4444, "set_flashlight_color": 4445, "adjust_cast_volume": 4446, "newsletter": 4447, "Groc": 4448, "get_translation_history": 4449, "Download": 4450, "measurement": 4451, "format_sd": 4452, "Searches": 4453, "(on/off": 4454, "York": 4455, "sessions": 4456, "aving": 4457, "schedule_cleaning": 4458, "notes=str": 4459, "keywords": 4460, "_report": 4461, "-12T1": 4462, "prices": 4463, "bir": 4464, "find_contact": 4465, "_balance": 4466, "nual": 4467, "start_time=str)": 4468, "_title=str)": 4469, "Aish": 4470, "incoming": 4471, "'Team": 4472, "set_daily_": 4473, "rain_sensor": 4474, "(speed=enum(0.5|0.75|1.0|1.25|1.5|2.0)!)": 4475, "search_podcasts": 4476, "Status": 4477, "rain_delay": 4478, "lish": 4479, "soon": 4480, "air|": 4481, "slow": 4482, "tank_id=str!)": 4483, "light_timer": 4484, "(hours=int": 4485, "brew_": 4486, "(memo_id=int!": 4487, "share_memo": 4488, "(max_": 4489, "_wifi_networks": 4490, "auto-lock": 4491, "around": 4492, "(message_id": 4493, "fly_to": 4494, "party": 4495, "bruary": 4496, "pickup_location=str!": 4497, "ride_type=enum(economy|": 4498, "get_charging_status": 4499, "add_to_watchlist": 4500, "bicy": 4501, "americano|": 4502, "status=enum(pending|completed": 4503, "spot|edge": 4504, "portfolio": 4505, "|fair|": 4506, "san": 4507, "ving": 4508, "ine_": 4509, "ature": 4510, "room|": 4511, "Fly": 4512, "temperature=num!)": 4513, "Adds": 4514, "(plant": 4515, "(alarm": 4516, "Make": 4517, "armed": 4518, "details.": 4519, "launch": 4520, "|sad": 4521, "delicate": 4522, "control_": 4523, "watchlist": 4524, "axes": 4525, "struc": 4526, "white|warm": 4527, "Confirming": 4528, "return_to_home": 4529, "7700": 4530, "podcast_name=str!)": 4531, "dify": 4532, "include_": 4533, "(delivery_address=str!": 4534, "organi": 4535, "suction": 4536, "get_ride_estimate": 4537, "maximum": 4538, "red|blue|green": 4539, "get_exchange_rate": 4540, "bicycl": 4541, "sty": 4542, "exact": 4543, "chargers": 4544, "filter.": 4545, "_pro": 4546, "set_fan": 4547, "(door_name=str!": 4548, "turn_off_flashlight_v2": 4549, "mily": 4550, "eria": 4551, "sports": 4552, "duration_minutes=int!": 4553, "get_book_": 4554, "log_heart_rate": 4555, "9876": 4556, "rossi": 4557, "check_printer_status": 4558, "Pizza": 4559, "Export": 4560, "start_video_recording": 4561, "transcript": 4562, "(force": 4563, "aisha.k": 4564, "Annual": 4565, "ix": 4566, "-in": 4567, "url": 4568, "boss": 4569, "timer.": 4570, "you.": 4571, "start=str!)": 4572, "'Please": 4573, "Map": 4574, "preset": 4575, "photo|": 4576, "firmed": 4577, "attach": 4578, "home_": 4579, "list_available": 4580, "gcode": 4581, "last_": 4582, "sunri": 4583, "morning.": 4584, "(power": 4585, "zone=enum(living": 4586, "conditioning": 4587, ".org": 4588, "active_minutes": 4589, "read_sms": 4590, "reason": 4591, "lux": 4592, "Provides": 4593, "accident": 4594, "shuffle": 4595, "April": 4596, "Reserve": 4597, "folders": 4598, "snooze_": 4599, "August": 4600, "deliver": 4601, "(driver": 4602, "fiction|non": 4603, "ree": 4604, "hand": 4605, "set_light": 4606, "(volume": 4607, "water.": 4608, "cape": 4609, "quality.": 4610, "that?": 4611, ".chen": 4612, "(duration_hours": 4613, "Jane": 4614, "old_name=str!)": 4615, "feeder.": 4616, "add_to_playlist": 4617, "(episode_title=str!)": 4618, "|year": 4619, "|portrait": 4620, "switch_camera": 4621, "(station_id=str!": 4622, "block_contact": 4623, "rinse": 4624, "(fan_speed=int": 4625, "apply_coupon": 4626, "get_book_details": 4627, "Lu": 4628, "Du": 4629, "stl": 4630, "tok": 4631, "oll": 4632, "rom": 4633, "set_time": 4634, "temperature.": 4635, "vid": 4636, "800": 4637, "messages.": 4638, "lift": 4639, "s))": 4640, "extra": 4641, "Checkup": 4642, "SSID": 4643, "pet_name=str!": 4644, "tag.": 4645, "great": 4646, "lens": 4647, "closing": 4648, "free_": 4649, "_before": 4650, "appy": 4651, "there's": 4652, "subscription": 4653, "ishlist": 4654, "good|": 4655, "Initiates": 4656, "(tag=str)": 4657, "|monthly)!": 4658, "Cafe": 4659, "urgent=bool)": 4660, "track_delivery": 4661, "prepar": 4662, "(temperature_celsius=num!)": 4663, "received": 4664, "make_": 4665, "set_default_": 4666, "gimbal": 4667, "|ocean|": 4668, "reserve_": 4669, "Aisha": 4670, "Emily": 4671, "romance": 4672, "Q1": 4673, "urg": 4674, "ering": 4675, "door?": 4676, "consu": 4677, "locations.": 4678, "indice": 4679, "shut": 4680, "light_id=str!)": 4681, "below": 4682, "recordings": 4683, "Muse": 4684, "delete_todo": 4685, "(duration_minutes=int!)": 4686, "history.": 4687, "=enum(low|": 4688, "get_article": 4689, "defin": 4690, "n't": 4691, "(order_id=int!)": 4692, "play_media": 4693, "recommend_": 4694, "(memo_id=str!)": 4695, "value=int!)": 4696, "currency=str!)": 4697, "lamp": 4698, "get_battery_level": 4699, "extru": 4700, "simu": 4701, "trou": 4702, "room|bedroom|kitchen|bathroom": 4703, "politics|": 4704, "(end=str!": 4705, "add_payment_method": 4706, "maria.": 4707, "schedule_light_timer": 4708, "extruder": 4709, "trouble": 4710, "Ri": 4711, "Bi": 4712, "Mer": 4713, "lab": 4714, "ingre": 4715, "=enum(A": 4716, "brightness?": 4717, "dient": 4718, "Rod": 4719, "up|": 4720, "_memo": 4721, "get_news": 4722, "Reset": 4723, "waypoint": 4724, "adjust_water": 4725, "other)": 4726, "wide": 4727, "personal": 4728, "_favorite": 4729, "someone": 4730, "date_to": 4731, "'Dentist": 4732, "already": 4733, "(from=str": 4734, "quiet": 4735, "get_energy_usage": 4736, "open/closed": 4737, "(category=enum(world|tech|sports|": 4738, "quick|deep))": 4739, "width": 4740, "breathing|body_scan|loving_kindness": 4741, "photo|video": 4742, "luxur": 4743, "tokyo": 4744, "ingredient": 4745, "Ra": 4746, "La": 4747, "fé": 4748, "Fin": 4749, "yet": 4750, "Man": 4751, "ial": 4752, "ced": 4753, "doe": 4754, "ench": 4755, "|ch": 4756, "sug": 4757, "desi": 4758, "attend": 4759, "dpi": 4760, "preheat": 4761, "rodri": 4762, "stop_timer": 4763, "stop_charging": 4764, "(days=int!": 4765, "stop_cooking": 4766, "list_emails": 4767, "Elara": 4768, "certain": 4769, "555-0192": 4770, "|monthly)": 4771, "nitrite": 4772, "preferences": 4773, "i'm": 4774, "get_plant_info": 4775, "get_feeding_": 4776, "=enum(small|medium|large)": 4777, "=enum(front|rear": 4778, "score": 4779, "fiction|mystery": 4780, "hopper": 4781, "navigation": 4782, "check_off_item": 4783, "brew_espresso": 4784, "room|kitchen": 4785, "free_slot": 4786, "(mode=enum(photo|video": 4787, "suggest": 4788, "ie": 4789, "Den": 4790, "cat": 4791, "_off": 4792, "name=str)": 4793, "(number": 4794, "ahead": 4795, "Oak": 4796, "(brightness=int)": 4797, "uel": 4798, "tempor": 4799, "dispense": 4800, "get_audiobook": 4801, "schedule_light": 4802, "high|medium|": 4803, "pause_podcast": 4804, "route.": 4805, "ltane": 4806, "eded": 4807, "get_wifi_status": 4808, "process.": 4809, "return_to_base": 4810, "(query=str!": 4811, "@techsolutions.": 4812, "fetch_": 4813, "riguez": 4814, "Avenue": 4815, "date|title": 4816, "style": 4817, "set_fan_mode": 4818, "attachment": 4819, "find_free_slot": 4820, "Denver": 4821, "temporary": 4822, "high|medium|low": 4823, "ltaneous": 4824, "Rodriguez": 4825, "cr": 4826, "Mo": 4827, "4k": 4828, "ten": 4829, "zing": 4830, "bob": 4831, "offer": 4832, "send_at": 4833, "query=str)": 4834, "-day": 4835, "icro": 4836, "get_water": 4837, "Over": 4838, "ago": 4839, "him": 4840, "(days=str": 4841, "(route": 4842, "(time=str!": 4843, "'Q3": 4844, "Bob": 4845, "789": 4846, "conference": 4847, "update_note": 4848, "Let's": 4849, "toggle_flashlight": 4850, "guest": 4851, "set_ringtone": 4852, "noise": 4853, "payee=str!)": 4854, "payment_method": 4855, "Patel": 4856, "merge_": 4857, "elena.petrova@": 4858, "max_distance_km": 4859, "_currency=str!": 4860, "(mood=enum(calm|": 4861, "(period=enum(day|week|month": 4862, "regular|": 4863, "birthday": 4864, "minutes_before": 4865, "to_currency=str!)": 4866, "simultaneous": 4867, "las": 4868, "cre": 4869, "it?": 4870, "itor": 4871, "ation.": 4872, "arse": 4873, "ees": 4874, "Pho": 4875, "ffer": 4876, "enable_wifi": 4877, "calori": 4878, "stops": 4879, "cake": 4880, "_val": 4881, "play_track": 4882, "engine": 4883, "va.": 4884, "white|cool": 4885, "priority.": 4886, "taken": 4887, "update_contact": 4888, "origin=str!": 4889, "method=enum(": 4890, "(book_id=str!)": 4891, "(book_id=int!)": 4892, "_stats": 4893, "buck": 4894, "vacuum.": 4895, "value=num!)": 4896, "_by_": 4897, "(album": 4898, "(quality=enum(": 4899, "Doe": 4900, "(height": 4901, "_height": 4902, "set_auto_reply": 4903, "Perform": 4904, "Span": 4905, "timestamp=str)": 4906, "prevent": 4907, "old_path=str!)": 4908, "category=enum(food|transport|entertainment|utilities|": 4909, "Ident": 4910, "zone=enum(front|back|side": 4911, "hotel": 4912, "unread_only": 4913, "camera_feed": 4914, "|documentary)": 4915, "February": 4916, "(mode=enum(auto|spot|edge": 4917, "enix": 4918, "Maple": 4919, "indices": 4920, "desired": 4921, "(number=str!)": 4922, "needed": 4923, "coarse": 4924, "Spanish": 4925, "Su": 4926, "km": 4927, "LA": 4928, "ston": 4929, "Net": 4930, "Land": 4931, "flak": 4932, "|off": 4933, "ass": 4934, "ross": 4935, "dou": 4936, "sev": 4937, "indoor": 4938, "rooms": 4939, "week?": 4940, "rout": 4941, "jour": 4942, "station|": 4943, "battery_status": 4944, "light_name=str!": 4945, "recip": 4946, "ter|": 4947, "(note=str": 4948, "(path=str)": 4949, "(company": 4950, "(color=enum(warm": 4951, "(angle": 4952, "_devices": 4953, "rics": 4954, "_minutes=int": 4955, "(id=int": 4956, "calculate_route": 4957, "_preference": 4958, "temperature_c=num!)": 4959, "_seconds=int)": 4960, "permanently": 4961, "ublic": 4962, "deadline": 4963, "Activate": 4964, "_slot": 4965, "Priya": 4966, "set_zone_schedule": 4967, "format_sd_card": 4968, "feature": 4969, "Override": 4970, "rd": 4971, "AI": 4972, "sli": 4973, "hal": 4974, "eco": 4975, "ose": 4976, "lock|": 4977, "cho": 4978, "meter": 4979, "phone_number=str!)": 4980, "thermostat.": 4981, "release": 4982, "(level=int)": 4983, "|10": 4984, "above": 4985, "friday": 4986, "restaurant.": 4987, "position.": 4988, "(days=int!)": 4989, "translations": 4990, "food_type=enum(": 4991, "slat": 4992, "/home": 4993, "get_balance": 4994, "check_traffic": 4995, "client": 4996, "_fare": 4997, "morning|": 4998, "(order_id=str!": 4999, "Thanks.": 5000, "=enum(1|2|3)!)": 5001, "pdf": 5002, "vehicle_type": 5003, "(activity": 5004, "target_price": 5005, "(contact=str!": 5006, "pattern=str!)": 5007, "(light_name=str": 5008, "_percent=int!": 5009, "notify": 5010, "(priority=enum(low|medium|high)": 5011, "Snoo": 5012, "instead": 5013, "PM2.5": 5014, "(area=str": 5015, "afternoon": 5016, "order_food": 5017, "decide": 5018, "(coffee_": 5019, "list_subscriptions": 5020, "(status=enum(pending|completed": 5021, "|romance": 5022, "save_favorite": 5023, "date_to=str": 5024, "layer_height": 5025, "Phoenix": 5026, "/home/": 5027, "(f": 5028, "99": 5029, "|F": 5030, "TS": 5031, "Im": 5032, "_on": 5033, "(flash": 5034, "calendar.": 5035, "leveling": 5036, "recur": 5037, "(email_id": 5038, "sive": 5039, "mention": 5040, "delete_message": 5041, "works": 5042, "lower": 5043, "that.": 5044, "_wash": 5045, "(duration=int)": 5046, "Daily": 5047, "(duration_min": 5048, "foot": 5049, "feel": 5050, "language_": 5051, "|this": 5052, "Act": 5053, "(state=enum(": 5054, ".txt": 5055, "strobe|": 5056, "thinking": 5057, "(blind_id=str!": 5058, "identifier": 5059, "(content=str!": 5060, "seconds.": 5061, "jane@example.com": 5062, "trying": 5063, "dispense_food": 5064, "=enum(fine": 5065, "rough": 5066, "check_filter_status": 5067, "circulate": 5068, "wanted": 5069, "podcast_name=str)": 5070, "(booking_id=str!)": 5071, "(goal_type=enum(": 5072, "Times": 5073, "type=enum(run|walk|": 5074, "soundscape": 5075, "=enum(A4|": 5076, "up|down": 5077, "simultaneously": 5078, "bucks": 5079, "|medium|coarse": 5080, "lyrics": 5081, "=enum(fine|medium|coarse": 5082, "@z": 5083, "burn": 5084, "title=str!": 5085, "room=str!": 5086, "akes": 5087, "letes": 5088, "cafe": 5089, "agno": 5090, "get_filter": 5091, "plex": 5092, "culation": 5093, "|ja": 5094, "(category=enum(restaurant": 5095, "mail.jp": 5096, "set_humidity": 5097, "'Quick": 5098, "(altitude=int)": 5099, "Sharma.": 5100, "file_path=str!": 5101, "Unlocks": 5102, "_percent=int!)": 5103, "possi": 5104, "revis": 5105, "(from=str!": 5106, "_mps": 5107, "partially": 5108, "grinder": 5109, "Eng": 5110, "i'll": 5111, "cycle|swim|": 5112, "running|cycling|swimming|": 5113, "work|personal|": 5114, "(podcast_name=str!)": 5115, ".stl": 5116, "Merge": 5117, "Raj": 5118, "regular|strong": 5119, "monitor": 5120, "_value": 5121, "Actually": 5122, "Deletes": 5123, "y)": 5124, "stu": 5125, "sor": 5126, "ping": 5127, "fit": 5128, "andro": 5129, "email|": 5130, "_name=enum(": 5131, "(lang": 5132, "thread": 5133, "language.": 5134, "short": 5135, "song=str)": 5136, "iller": 5137, "After": 5138, "travel": 5139, "vehicle.": 5140, "(episode_id=str!)": 5141, "region.": 5142, "mode=enum(auto|": 5143, "mindf": 5144, "|gas_": 5145, "latitude=num": 5146, "mpty": 5147, "series": 5148, "lect": 5149, "(amount_grams=num!": 5150, "schedule_payment": 5151, "country": 5152, "Leg": 5153, "(temp_c=num!)": 5154, "unique": 5155, "get_contact_details": 5156, "soft": 5157, "Grocery": 5158, "rossi@": 5159, "aisha.khan": 5160, "unread_only=bool)": 5161, "Letter|": 5162, "recursive": 5163, "footage": 5164, "(goal_type=enum(steps|": 5165, "diagno": 5166, "mindful": 5167, "|gas_station|": 5168, "=enum(A4|Letter|": 5169, "=enum(A4|Letter|Leg": 5170, "|6": 5171, "lent": 5172, "til": 5173, "query=str": 5174, "ilk": 5175, "How": 5176, "se_": 5177, "ough": 5178, "akery": 5179, "phone.": 5180, "|heat": 5181, "9am": 5182, "gas": 5183, "blind.": 5184, "monday": 5185, "set_camera": 5186, "preview": 5187, "zip": 5188, "home|": 5189, "(account_id=str!": 5190, "(source_language": 5191, "(book_id=str!": 5192, "cups": 5193, "finalized": 5194, "week|month": 5195, "broad": 5196, "real-time": 5197, "technique": 5198, "strength=enum(mild|": 5199, "(cuisine": 5200, "update_event_time": 5201, "Comp": 5202, "(folder=enum(inbox|sent|draft": 5203, "(period=enum(today|week|month": 5204, "Square": 5205, "summari": 5206, "snooze_alarm": 5207, "Manually": 5208, "room|kitchen|bedroom|": 5209, "(mood=enum(calm|anxious": 5210, "Identify": 5211, "(coffee_type=enum(espresso|": 5212, "duplex": 5213, "strength=enum(mild|regular|strong": 5214, "ost": 5215, "Mar": 5216, "sol": 5217, "ental": 5218, "ing)": 5219, "vation": 5220, "duce": 5221, "target=str!)": 5222, "_press": 5223, "(bed": 5224, "_log": 5225, "AM?": 5226, "apple": 5227, "d|1": 5228, "feedings": 5229, "inbox.": 5230, "categories": 5231, "(light_id=str!)": 5232, "(confirm": 5233, "Conference": 5234, "Fahrenheit": 5235, "from_account=str": 5236, "Quick!": 5237, "dashcam's": 5238, "share_note": 5239, "get_historical": 5240, "list_transactions": 5241, "narrator=str": 5242, "initi": 5243, "(category=enum(food|transport|": 5244, "2025-03-15": 5245, "|flood": 5246, "calibrate": 5247, "|png": 5248, "charge_status": 5249, "Week": 5250, "(code=str!": 5251, "find_nearby_places": 5252, "to_date=str)": 5253, "cruise": 5254, "strength=enum(mild": 5255, "delivery_fee": 5256, "plies": 5257, "|4K)!)": 5258, "currencies": 5259, "atio": 5260, "seat=enum(driver|passenger)!)": 5261, "ing|transit)": 5262, "Good": 5263, "analy": 5264, "having": 5265, "fiction|non-": 5266, "=enum(front|rear)!)": 5267, "attendees": 5268, "estimate_fare": 5269, "Snooze": 5270, "TSLA": 5271, "English": 5272, "until": 5273, "strength=enum(mild|medium|strong": 5274, "Op": 5275, "SE": 5276, "lon": 5277, "used": 5278, "urry": 5279, "txt": 5280, "phy": 5281, "weather_": 5282, "prin": 5283, "vite": 5284, "_zone": 5285, "cold": 5286, "connecting": 5287, "pause_audiobook": 5288, "add_tag": 5289, "m|1": 5290, "Coffee": 5291, "get_driver": 5292, "content.": 5293, "(account_id=str!)": 5294, "media|": 5295, "region=str)": 5296, "corp.jp": 5297, "cial": 5298, "quarterly": 5299, "start_print_job": 5300, "frequency=enum(weekly": 5301, "set_wifi_power": 5302, "schedule_lighting": 5303, "_water_change": 5304, "(tags=arr": 5305, "10-minute": 5306, "_beans": 5307, "mode=enum(driving|walking|transit": 5308, "Reschedule": 5309, "(file=str!": 5310, "Feed": 5311, "silva": 5312, "set_hvac": 5313, "(force=bool)": 5314, "double": 5315, "revised": 5316, "Sa": 5317, "No": 5318, "Ne": 5319, "JF": 5320, "nar": 5321, "had": 5322, "e_mode": 5323, "placed": 5324, "target_": 5325, "start_cast": 5326, "_count": 5327, "excel": 5328, "raj": 5329, "turn_on_flashlight_v2": 5330, "boot": 5331, "cancel_job": 5332, "(days_": 5333, "walking": 5334, "night_mode": 5335, "(speed=enum(low|medium|high": 5336, "Load": 5337, "stop_sprinkler": 5338, "office)!)": 5339, "close_timer": 5340, "get_humidity": 5341, "narrator.": 5342, "resume_print": 5343, "_health": 5344, "Room": 5345, "list_supported_languages": 5346, "Arch": 5347, "units=enum(": 5348, "(code=str!)": 5349, "(zone_id=int!)": 5350, "(frequency=enum(daily|weekly": 5351, "(genre=enum(comedy|": 5352, "(from_date=str": 5353, "quality=enum(poor": 5354, "(resolution=enum(low|medium|high))": 5355, "defrost": 5356, "(genre=enum(drama|": 5357, "get_bluetooth_status": 5358, "spool": 5359, "follow-up": 5360, "(color=enum(red|green|blue|white|warm": 5361, "|fair|good|": 5362, "Café": 5363, "icago": 5364, "(route=str!)": 5365, "lock|unlock": 5366, "(email_ids=arr!)": 5367, "fitness": 5368, "mindfulness": 5369, "_pressure": 5370, "JFK": 5371, "quality=enum(poor|fair|good|": 5372, "ny": 5373, "ms": 5374, ".k": 5375, "Am": 5376, "bor": 5377, "war": 5378, "van": 5379, "light|": 5380, "fix": 5381, "email=str": 5382, "ped": 5383, "times.": 5384, "nic": 5385, "thr": 5386, "pron": 5387, "Locks": 5388, "jpe": 5389, "cover": 5390, "expi": 5391, "provide": 5392, "outdoor": 5393, "_mi": 5394, "address.": 5395, "disables": 5396, "bring": 5397, "priority=enum(": 5398, "rate_audiobook": 5399, "pickup_location": 5400, "topics": 5401, "tags=arr": 5402, "ride_type": 5403, "Mr.": 5404, "mail.net": 5405, "Closes": 5406, "send_money": 5407, "'Quarterly": 5408, "light_name=str": 5409, "(amount_grams=int": 5410, "it|p": 5411, "breathing": 5412, "(tag=enum(": 5413, "manently": 5414, "get_episode_info": 5415, "normal|delicate|": 5416, "archive_note": 5417, "download_": 5418, "set_bed_temperature": 5419, "resolution=enum(720p|1080p|4k))": 5420, "agenda": 5421, "pitch": 5422, "(percent=int!)": 5423, "|ocean|forest": 5424, "noticed": 5425, "rova.": 5426, "=enum(morning|": 5427, "recursive=bool)": 5428, "get_delivery_fee": 5429, "set_hvac_mode": 5430, "excellent": 5431, "set_auto_close_timer": 5432, "jpeg": 5433, "_miles": 5434, "Permanently": 5435, "normal|delicate|heav": 5436, "quality=enum(poor|fair|good|excellent": 5437, "wa": 5438, "tive": 5439, "ational": 5440, "is?": 5441, "mart": 5442, "contact's": 5443, "robot's": 5444, "ales": 5445, "(level=num!)": 5446, "colate": 5447, "_audio": 5448, "import": 5449, "high-": 5450, "high))": 5451, "prim": 5452, "timeout": 5453, "station.": 5454, "(amount=num!)": 5455, "Friday.": 5456, "-122": 5457, "_position": 5458, "steak": 5459, "point.": 5460, "tank_id=int!)": 5461, "Begins": 5462, "Enables": 5463, "5pm": 5464, "Update'": 5465, "Apple": 5466, "workout_type=enum(": 5467, "open_blinds": 5468, "episode_title": 5469, "set_beam": 5470, "stars": 5471, "Grind": 5472, "(plant_name=str!": 5473, "return_to_dock": 5474, "anya.sharma@": 5475, "(file_name=str!": 5476, "get_daily_streak": 5477, "(sound=enum(rain": 5478, "airplane": 5479, "set_blind_level": 5480, "protec": 5481, "thanks": 5482, "specifying": 5483, "(frequency_days=int!": 5484, "(program=enum(cotton|synthetic|delicate|quick)!": 5485, "Bistro": 5486, "get_audiobook_details": 5487, "differ": 5488, "Immediate": 5489, "empty": 5490, "diagnost": 5491, "(period=enum(week|month": 5492, "fiction|non-fiction|mystery": 5493, "chocolate": 5494, "different": 5495, "Immediately": 5496, "(0": 5497, "My": 5498, "wl": 5499, "dat": 5500, "gon": 5501, "fli": 5502, "rome": 5503, "contacts.": 5504, "fun": 5505, "(timer": 5506, "llet": 5507, "booked": 5508, "rame": 5509, "kim": 5510, "device's": 5511, "trash": 5512, "stop_cast": 5513, "tags.": 5514, "40%": 5515, "heel": 5516, "mir": 5517, "path.": 5518, "altitude_m": 5519, "liter": 5520, "heater.": 5521, "section": 5522, "vehicle_id=str)": 5523, "(device=enum(": 5524, "(label=str)": 5525, "Running": 5526, "sensor.": 5527, "Commands": 5528, "|weekend": 5529, "format_card": 5530, "clean_filter": 5531, "set_blind_tilt": 5532, "(pH": 5533, "metric=enum(": 5534, "esla)": 5535, "containing": 5536, "(quality=enum(low|medium|high)": 5537, "Home": 5538, "arrival": 5539, "curious": 5540, "(article_id=str!)": 5541, "ambient_sound": 5542, "(bpm=int!": 5543, "Looking": 5544, "multi-day": 5545, "merge_contacts": 5546, "(phone_number=str!)": 5547, "through": 5548, "Dental": 5549, "invite": 5550, "lock|unlock)!)": 5551, "picnic": 5552, "bowl": 5553, "pellet": 5554, "Cl": 5555, "DF": 5556, "Don": 5557, "del": 5558, "ilt": 5559, "nce": 5560, "do_": 5561, "=enum(0": 5562, "(lock": 5563, "room?": 5564, "City": 5565, "idd": 5566, "kers": 5567, "thx": 5568, "show_name=str!)": 5569, "filters": 5570, "printer_id=str!)": 5571, "(door_id=int!)": 5572, "bank": 5573, "_rating": 5574, "period=enum(": 5575, "goal.": 5576, "codes": 5577, "not_": 5578, "looks": 5579, "get_current_temp": 5580, "get_soil_moisture": 5581, "lo-fi": 5582, "Pizz": 5583, "starting": 5584, "(region=str)": 5585, "prepare": 5586, "Tesla": 5587, "cruis": 5588, "delivery_address": 5589, "(card_number=str!": 5590, "dubois": 5591, "cartridges": 5592, "check_rain_sensor": 5593, "americano|latte|": 5594, "category=enum(food|transport|entertainment|utilities|other)!": 5595, "possible": 5596, "grind_beans": 5597, "primary": 5598, "protected": 5599, "do_not_": 5600, "do_not_disturb": 5601, "|c": 5602, "Ag": 5603, "to.": 5604, "to=str!": 5605, "tire": 5606, "ama": 5607, "door_name": 5608, "starts": 5609, "moder": 5610, "|backward": 5611, "But": 5612, "dont": 5613, "schedule_ride": 5614, "adjustment": 5615, "Port": 5616, "resolution_": 5617, "chen.": 5618, "drink": 5619, "next|": 5620, "highway": 5621, "end_time": 5622, "bio": 5623, "ing_schedule": 5624, "delete_sleep_": 5625, "log_sleep_": 5626, "555-1234.": 5627, "75%": 5628, "(store": 5629, "config": 5630, "Whis": 5631, "cup_size": 5632, "cast_devices": 5633, "figures": 5634, "amily": 5635, "resolution=enum(low|medium|high))": 5636, "dock.": 5637, "connection.": 5638, "year=int)": 5639, "d_lock": 5640, "(audiobook_id=str!)": 5641, "multiple": 5642, "set_portion_size": 5643, "|science": 5644, "ride_type=enum(standard|": 5645, "scores": 5646, "set_bed_temp": 5647, "|4K))": 5648, "reset_filter": 5649, "calibrate_bed": 5650, "update_contact_phone": 5651, "(connector_type=enum(CCS|CHAdeMO|Type2)": 5652, "(group=enum(": 5653, "Confirmed": 5654, "sunrise": 5655, "reef": 5656, "|below": 5657, "zone=enum(front|back|side)!)": 5658, "circulation": 5659, "Saint": 5660, "airplane_mode": 5661, "PDF": 5662, "=enum(forward|backward": 5663, "resolution_dpi": 5664, "next|previous": 5665, "child_lock": 5666, "above|below": 5667, "|7": 5668, "hes": 5669, "ana": 5670, "tle": 5671, "ned": 5672, "_timer": 5673, "headlights": 5674, "Star": 5675, "set_target": 5676, "(heat": 5677, "Plays": 5678, "stall": 5679, "al))": 5680, "memo.": 5681, "pie": 5682, "'ll": 5683, "alarms.": 5684, "_color": 5685, "note_id=int!)": 5686, "user/": 5687, "wake": 5688, "almon": 5689, "updated": 5690, "(days=int)": 5691, "Contr": 5692, "rating.": 5693, "night.": 5694, "completion": 5695, "quickly": 5696, "strength.": 5697, "_kw": 5698, "close_blinds": 5699, "amount_grams": 5700, "37.": 5701, "get_security": 5702, "safe": 5703, "check_filament": 5704, "funds": 5705, "visit": 5706, "stuff": 5707, "energy_report": 5708, "subscribe_podcast": 5709, "americano": 5710, "change_wallpaper": 5711, "_white)!": 5712, "2.4": 5713, "subtitles": 5714, "set_bluetooth_enabled": 5715, "(charger_id=str!": 5716, "nozzle_temp": 5717, "captured": 5718, "regarding": 5719, "comfort|": 5720, "|all))": 5721, "control_lights": 5722, "appy|sad": 5723, "Museum": 5724, "(open/closed": 5725, "organizing": 5726, "coarseness=enum(fine|medium|coarse": 5727, "burned": 5728, "zh|ja": 5729, "(speed_mps": 5730, "type=enum(run|cycle|swim|": 5731, "thriller": 5732, "-122.4": 5733, "flix": 5734, "Don't": 5735, "americano|latte|cappuccino": 5736, "Whiskers": 5737, "next|previous)!)": 5738, "/home/user/": 5739, "ta": 5740, "Au": 5741, ".s": 5742, "S&": 5743, "NY": 5744, "cor": 5745, "ling": 5746, "_right": 5747, "(det": 5748, "message=str!)": 5749, "_left|": 5750, "sam": 5751, "(low": 5752, "printer's": 5753, "search_audiobook": 5754, "50%": 5755, "keys": 5756, "medic": 5757, "marketing": 5758, "networks.": 5759, "playlist=str": 5760, "(translation": 5761, "Cancels": 5762, "label.": 5763, "(category=str)": 5764, "pay_": 5765, "wool": 5766, "morning'": 5767, "ringer": 5768, "compens": 5769, "car's": 5770, "(amount_ml=int!": 5771, "get_weather_for": 5772, "set_auto_close": 5773, "topic=str)": 5774, "(job_id=str!)": 5775, "auto-close": 5776, "kenji.tanaka@k": 5777, "(resolution=enum(1080p|4k))": 5778, "(copies=int": 5779, "resume_podcast": 5780, "translated_": 5781, "(altitude_m=int)": 5782, "preferences.": 5783, "set_feeding_": 5784, "(song=str!)": 5785, "elara.": 5786, "motors": 5787, "activate_zone": 5788, "navigate": 5789, "(0-100).": 5790, "'Bohemian": 5791, "yellow|": 5792, "alibrate": 5793, "get_restaurant_info": 5794, "set_auto_mode": 5795, "Dubois": 5796, "doll": 5797, "steering": 5798, "routine": 5799, "(flash=bool": 5800, "work|personal|ideas": 5801, "broadcasting": 5802, "(category=enum(food|transport|entertainment|": 5803, "get_charge_status": 5804, "Archive": 5805, "Petrova.": 5806, "Pizzeria": 5807, "get_energy_report": 5808, "S&P": 5809, "translated_text=str!)": 5810, "dollars": 5811, "ts": 5812, "(1": 5813, "|d": 5814, "wr": 5815, "par": 5816, "rot": 5817, "local": 5818, "sequ": 5819, "ores": 5820, "one.": 5821, "y))": 5822, "set_air": 5823, "tionally": 5824, "ails": 5825, "share": 5826, "devices.": 5827, "avid": 5828, "logg": 5829, "todo_": 5830, "song_name=str!)": 5831, "direction": 5832, "Talk": 5833, "draft|": 5834, "(end_time=str": 5835, "Saves": 5836, "jpg": 5837, "trip.": 5838, "garage_light": 5839, "194": 5840, "12345": 5841, "(book_id=int!": 5842, "witches": 5843, "load_": 5844, "Paris?": 5845, "(period=enum(1": 5846, "rating=enum(1|2|3|4|5": 5847, "radio.": 5848, "Since": 5849, "record_memo": 5850, "connectivity": 5851, "(directory": 5852, "metrics": 5853, "portrait|night": 5854, "get_episode_": 5855, "mail.jp.": 5856, "currencies.": 5857, "defroster": 5858, "Akira": 5859, "season=int": 5860, "time_of_day=str)": 5861, "(restaurant_name=str!)": 5862, "mode=enum(driving|walking|bicycl": 5863, "find_chargers": 5864, "active_minutes)!": 5865, "add_to_wishlist": 5866, "(sort_by=enum(date|title": 5867, "flakes|": 5868, "(category=enum(restaurant|gas_station|": 5869, "bakery": 5870, "Chicago": 5871, "dropped": 5872, "wait": 5873, "gonna": 5874, "|Tesla)": 5875, "moderate": 5876, "list_cast_devices": 5877, "37.77": 5878, "sequence": 5879, "-122.4194": 5880, "37.7749": 5881, "ore": 5882, "cing": 5883, "name|": 5884, "_per": 5885, "geof": 5886, "did": 5887, "(open": 5888, "pack": 5889, "_wind": 5890, "up.": 5891, "10th": 5892, "5555": 5893, "working": 5894, "printer_name=str!)": 5895, "|gr": 5896, "report.": 5897, "steam": 5898, "w|1": 5899, "translation.": 5900, "nightly": 5901, "(transfer": 5902, "(duration_minutes=int)": 5903, "stream=enum(": 5904, "there.": 5905, "start_date=str!": 5906, "(time=str)": 5907, "555-1234?": 5908, "internet": 5909, "destination=str!": 5910, "torch.": 5911, "remove_": 5912, "s=arr)": 5913, "(zone=str)": 5914, "(source=enum(": 5915, "share_location": 5916, "priya.": 5917, "focus=enum(": 5918, "(blind_id=str!)": 5919, "subscribe_to_": 5920, "URL": 5921, "desk": 5922, "set_wifi_enabled": 5923, "(mode=enum(normal|": 5924, ".patel": 5925, "dispense_treat": 5926, "@innovatech.": 5927, "cycle|swim)!)": 5928, "(account_number=str!": 5929, "target_language=str!": 5930, "update_contact_email": 5931, "wednesday": 5932, "NASDAQ|": 5933, "check_lock_status": 5934, "add_water_intake": 5935, "scan_wifi_networks": 5936, "Performance": 5937, "(delay_minutes=int": 5938, "sorted": 5939, "expiry": 5940, "Sales": 5941, "important": 5942, "Saint-": 5943, "resolution_dpi=int)": 5944, "(direction=enum(above|below": 5945, "compensation": 5946, "set_feeding_schedule": 5947, "flakes|pellet": 5948, "geofence": 5949, "o.": 5950, "4K": 5951, "?'": 5952, "sv": 5953, "eta": 5954, "She": 5955, "reset": 5956, "pec": 5957, "actus": 5958, "even": 5959, "level=int!)": 5960, "y)!": 5961, "none": 5962, "s.com": 5963, "jam": 5964, "7am": 5965, "jali": 5966, "raw": 5967, "research": 5968, "|dis": 5969, "450": 5970, "user_id=str!)": 5971, "schedule_meeting": 5972, "track_name=str!)": 5973, "sources": 5974, "drain": 5975, "tank_id": 5976, "simil": 5977, "recently": 5978, "ultra": 5979, "|pay": 5980, "pause_feeding": 5981, "returns": 5982, "check_battery_level": 5983, "reading.": 5984, "sender.": 5985, "(device=str": 5986, "schedule_temperature_": 5987, "@example.com.": 5988, "sensors": 5989, "ra.tanaka@": 5990, "scan_to_": 5991, "manually": 5992, "chos": 5993, "(station_id=str!)": 5994, "Tell": 5995, "kenji.tanaka@corp": 5996, "(calories": 5997, "@design": 5998, "secondary": 5999, "cappuccino|": 6000, "schedule_maintenance": 6001, "receivers": 6002, "phrase.": 6003, "Library": 6004, "(episode_id=int": 6005, "chapter=int": 6006, "child": 6007, "stractor": 6008, "john@example.com": 6009, "yoga)!)": 6010, "wanna": 6011, "(filename=str)": 6012, "space": 6013, "(interval": 6014, "open_trunk": 6015, "2025-10-1": 6016, "reservoir.": 6017, "set_rain_delay": 6018, "(max_results": 6019, "achine_": 6020, "(alarm_id=int!)": 6021, "defined": 6022, "(category=enum(world|politics|": 6023, "get_feeding_history": 6024, "(from_currency=str!": 6025, "|this_": 6026, "jandro": 6027, "(latitude=num": 6028, "room|kitchen|bedroom|bathroom": 6029, "van))": 6030, "data.": 6031, "play_ambient_sound": 6032, "set_target_temperature": 6033, "piece": 6034, "mark_todo_": 6035, "d|1w|1": 6036, "similar": 6037, "|payp": 6038, "schedule_temperature_change": 6039, "akira.tanaka@": 6040, "chosen": 6041, "Jo": 6042, "|J": 6043, "ony": 6044, "|me": 6045, "jor": 6046, "ura": 6047, "King": 6048, "tes": 6049, "flash_": 6050, "contin": 6051, "rive": 6052, "wei": 6053, "lers": 6054, "both": 6055, "trad": 6056, "(auto": 6057, "does": 6058, "|duration": 6059, "get_schedule": 6060, "beep": 6061, "watered": 6062, "well": 6063, "works.": 6064, "appro": 6065, "adjusts": 6066, "photos": 6067, "alize": 6068, "tech|": 6069, "|friday": 6070, "cancel_transfer": 6071, "casting.": 6072, "(light_name=str!": 6073, "bath.": 6074, "card.": 6075, "+34": 6076, "directory.": 6077, "magent": 6078, "transfer_m": 6079, "closed.": 6080, "adjust_beam": 6081, "Format": 6082, "Navi": 6083, "slots": 6084, "consult": 6085, "recurring_payment": 6086, "description.": 6087, "Session'": 6088, "|turbo": 6089, "reference.": 6090, "solutions.com": 6091, "(region=str!)": 6092, "AQI": 6093, "-555-": 6094, "(camera_id=str!)": 6095, "material=enum(PLA|ABS|PETG))": 6096, "relaxing": 6097, "(address=str": 6098, "(delivery_address=str": 6099, "set_daily_goal": 6100, "ride_type=enum(economy|premium|xl))": 6101, "(include_": 6102, "(volume=int!)": 6103, "high|medium|low))": 6104, "crank": 6105, "calorie": 6106, "calculate_route_": 6107, "Takes": 6108, "enough": 6109, "ratio": 6110, "(speed=enum(low|medium|high|auto)!)": 6111, "romecast": 6112, "|skim": 6113, "_power_kw": 6114, "medication": 6115, "logged": 6116, "Switches": 6117, "_window": 6118, "|wednesday": 6119, "scan_to_email": 6120, "machine_": 6121, "sprinklers": 6122, "transfer_money": 6123, "|m": 6124, "ox": 6125, "89": 6126, "+1": 6127, "an.": 6128, "Cle": 6129, "set_flashlight": 6130, "Ave": 6131, "love": 6132, "thead": 6133, "doors.": 6134, "set_mode": 6135, "(level=int": 6136, "backup": 6137, "(city=str": 6138, "speaker.": 6139, "_now": 6140, "proble": 6141, "station_id": 6142, "(amount=int": 6143, "(type=enum(": 6144, "position=int!)": 6145, "-1234": 6146, "tired": 6147, "Mei": 6148, "train": 6149, "home.": 6150, "quick!": 6151, "(color=str!": 6152, "check_steps": 6153, "(device_name=str!": 6154, "destination.": 6155, "online": 6156, "favorites.": 6157, "warm|": 6158, "connector_type": 6159, "saving": 6160, "kenji.tanaka": 6161, "Request": 6162, "$250": 6163, "(room=str)": 6164, "(blind_name=str!": 6165, "(amount_grams=num!)": 6166, "tech|sport": 6167, "Doc": 6168, "actually": 6169, "15-minute": 6170, "save_translation_history": 6171, "get_traffic_": 6172, "Rossi": 6173, "ISO": 6174, "Att": 6175, "flow_rate": 6176, "(song_title=str!)": 6177, "pin_note": 6178, "set_loop": 6179, "check_energy_usage": 6180, "(0-100)": 6181, "species=str!)": 6182, "Rhapsody'": 6183, "black|": 6184, "grab": 6185, "self-": 6186, ".gcode": 6187, "|quiet": 6188, "_noise": 6189, "Atlas": 6190, "Boston": 6191, "3rd": 6192, "slides": 6193, "meters.": 6194, "slats": 6195, "ancial": 6196, "(genre=enum(drama|comedy|": 6197, "it|pt|": 6198, "(metric=enum(": 6199, "ounce": 6200, "mode=enum(driving|walking|bicycling|transit)": 6201, "flakes|pellets|": 6202, "|duration))": 6203, "printhead": 6204, "rn": 6205, "ju": 6206, "Bu": 6207, "za": 6208, "FT": 6209, "ite": 6210, "ante": 6211, "lost": 6212, "deg": 6213, "neu": 6214, "ought": 6215, "span": 6216, "ida": 6217, "=bool!": 6218, "late.": 6219, "alian": 6220, "now|": 6221, "proj": 6222, "That": 6223, "_station": 6224, "start_playback": 6225, "West": 6226, "then!": 6227, "address=str!)": 6228, "month.": 6229, "grees": 6230, "Bel": 6231, "find_robot": 6232, "cul": 6233, "2pm": 6234, "vehicle_id": 6235, "Market": 6236, "ffici": 6237, "idea": 6238, "rate_delivery": 6239, "set_sprinkler": 6240, "seat_": 6241, "(milk": 6242, "(aquarium": 6243, "temp_f": 6244, "70%": 6245, "new_time=str!)": 6246, "fahrenheit": 6247, "update_phone": 6248, "check_heart_rate": 6249, "receip": 6250, "radius=int)": 6251, "watchlist.": 6252, "kenji.t": 6253, "get_wind": 6254, "sales": 6255, "_percent=int": 6256, "breath|": 6257, "Proposal": 6258, "cyan|": 6259, "radius_km=int)": 6260, "Presentation": 6261, "(filter_name=str!)": 6262, "wonder": 6263, "-555-0199": 6264, "library.": 6265, "find_nearby_stations": 6266, "skip_backward": 6267, "archive_email": 6268, "update_firmware": 6269, "premiere": 6270, "delivered": 6271, "handle": 6272, "burg": 6273, "breathing|body_scan|loving_kindness))": 6274, ".doe": 6275, "bench": 6276, "|off)!)": 6277, "(temperature_c=num!)": 6278, "(status=enum(pending|completed))": 6279, "(resolution=enum(1080p|1440p|4K)!)": 6280, "(primary": 6281, "rear_right": 6282, "|rear_left|": 6283, "magenta|": 6284, "MSFT": 6285, "neutr": 6286, "thought": 6287, "(degrees": 6288, "|rear_left|rear_right": 6289, "cyan|magenta|": 6290, "ha": 6291, "Is": 6292, "Ai": 6293, "they": 6294, "umb": 6295, "aco": 6296, "acy": 6297, "ical": 6298, "ild": 6299, "is.": 6300, "pere": 6301, "meters?": 6302, "target=int!)": 6303, "Shop": 6304, "duration_minutes=int!)": 6305, "asc": 6306, "vas": 6307, "late?": 6308, "_account": 6309, "alarm.": 6310, "_time=str!)": 6311, "|50": 6312, "jobs": 6313, "yoto": 6314, "resolution.": 6315, "practi": 6316, "viewing": 6317, "updates": 6318, "Not": 6319, "|100": 6320, "|bi": 6321, "night's": 6322, "recipients": 6323, "symbol=str!": 6324, "genre.": 6325, "(portion": 6326, "end_time=str": 6327, "market.": 6328, "add_sleep_": 6329, ".75": 6330, "|4k))": 6331, "_title=str": 6332, "(tone": 6333, "(temp=int!)": 6334, "finally": 6335, "schedule_meal": 6336, "quality=enum(low|medium|high))": 6337, "economy": 6338, "visi": 6339, "|bedroom|kitchen|basement": 6340, "set_preferred": 6341, "open_gallery": 6342, "category=enum(food|transport|utilities|": 6343, "take_snapshot": 6344, "@globaltech": 6345, "shuffle_": 6346, "multipli": 6347, "|oat|": 6348, "2024-10-1": 6349, "night|portrait": 6350, "frequency=enum(daily|weekly|monthly)!": 6351, "prepared": 6352, "consumed": 6353, "room|bedroom|kitchen|bathroom|": 6354, "(category=enum(world|tech|sports|business": 6355, "rodriguez": 6356, "Modify": 6357, "Sushi": 6358, "those": 6359, "(confirm=bool!)": 6360, "mirror": 6361, "liters.": 6362, "(direction=enum(next|previous)!)": 6363, "rating=enum(1|2|3|4|5)!": 6364, "(transfer_id=str!)": 6365, "(direction=enum(above|below)!": 6366, "premium|van))": 6367, "Drive": 6368, "machine_status": 6369, "flakes|pellets|br": 6370, "zy": 6371, "Ur": 6372, "mx": 6373, "ins": 6374, "on?": 6375, "Ms.": 6376, "udy": 6377, "nice": 6378, "list'": 6379, "tomat": 6380, "00|": 6381, "dust": 6382, "istor": 6383, "cash": 6384, "board": 6385, "bes": 6386, "(city=str)": 6387, "ing)!)": 6388, "am.": 6389, "spam": 6390, "get_memo": 6391, "artment": 6392, "printer_name": 6393, "Monday.": 6394, "percent?": 6395, "stop_cook": 6396, "get_playlist": 6397, "chill": 6398, "Sarah?": 6399, "pizz": 6400, "ana.": 6401, "=arr!)": 6402, "ygen": 6403, "else": 6404, "check_moisture": 6405, "store_": 6406, "(color=str": 6407, "there?": 6408, "uous": 6409, "_text=str!": 6410, "_kwh": 6411, "set_torch": 6412, "projector": 6413, "Note": 6414, "list_devices": 6415, "controller": 6416, "garage_door_status": 6417, "automatically.": 6418, "|friend": 6419, "topic=str!)": 6420, "ko.tanaka@": 6421, "daily|weekly)": 6422, "(scene": 6423, "_type=enum(whole": 6424, "calories)!": 6425, "(tank_id=str!)": 6426, "get_sleep_quality": 6427, "adjust_zoom": 6428, "general|": 6429, "(audiobook_id=str!": 6430, "set_wifi_state": 6431, "capture_snapshot": 6432, "gister": 6433, "questions.": 6434, "arrive": 6435, "Akiko": 6436, "set_activity": 6437, "repeat=enum(": 6438, "@webmail.": 6439, "co.uk.": 6440, "add_detergent": 6441, "(band": 6442, "listening.": 6443, "reason=str)": 6444, "adjust_water_level": 6445, "send_at=str!": 6446, "icrophone": 6447, "(speed=enum(1|2|3)!)": 6448, "get_filter_status": 6449, "(attendees": 6450, "Need": 6451, "narrow": 6452, "(period=enum(week|month|year": 6453, "frame": 6454, "days|weekend": 6455, "work|personal|ideas))": 6456, "priya.sharma": 6457, "major": 6458, "problem": 6459, "Bella": 6460, "receipt": 6461, "cloudy": 6462, "Ristor": 6463, "oxygen": 6464, "continuous": 6465, "set_activity_goal": 6466, "(band=enum(": 6467, "Ristorante": 6468, "ct": 6469, "On": 6470, "Of": 6471, "-3": 6472, "Pin": 6473, "very": 6474, "rand": 6475, "-off": 6476, "cis": 6477, "lting": 6478, "acket": 6479, "_target": 6480, "Kai": 6481, "poi": 6482, "set_iso": 6483, "center": 6484, "hour=int!": 6485, "compress": 6486, "Light": 6487, "thursday": 6488, "resolution=str)": 6489, "video.": 6490, "tag=str!)": 6491, "contacts?": 6492, "meditation.": 6493, "drone.": 6494, "pause_wash": 6495, "(percentage": 6496, "app.": 6497, "remind_": 6498, "_time=str": 6499, "entrance": 6500, "(episode_id=str!": 6501, "morning?": 6502, "(task": 6503, "taking": 6504, "recline": 6505, "shots": 6506, "(humidity": 6507, "sender=str": 6508, "(genre=str)": 6509, "dark_mode": 6510, "(temp=num!": 6511, "=enum(1|2|3|4|5)": 6512, "song_title=str!)": 6513, "resolution=enum(1080p|4k))": 6514, "Clear": 6515, "list_all_notes": 6516, "access_code": 6517, "premium))": 6518, "ed_start": 6519, "get_company_news": 6520, "search_news_": 6521, "clean_drum": 6522, "(area=str!)": 6523, "incident": 6524, "roshi": 6525, "_white|cool": 6526, "open/close": 6527, "holdings": 6528, "uploaded": 6529, "downloaded": 6530, "vibrate": 6531, "etc.).": 6532, "normal|high)": 6533, "modify": 6534, "get_article_summary": 6535, "(method=enum(": 6536, "severe": 6537, "|10|": 6538, "pdf|": 6539, "get_language_": 6540, "(query=str": 6541, "download_episode": 6542, "Control": 6543, "get_security_": 6544, "Optionally": 6545, "type=enum(run|walk|cycle|swim)!)": 6546, "|ultra": 6547, "latte|cappuccino|": 6548, "(distractor": 6549, "(period=enum(1d|1w|1": 6550, "trading": 6551, "Documents": 6552, "spanish": 6553, "(address=str!)": 6554, "get_wind_speed": 6555, "practice": 6556, "add_sleep_note": 6557, "apartment": 6558, "Office": 6559, "set_delayed_start": 6560, "da": 6561, "hy": 6562, "Bar": 6563, "theme": 6564, "lia": 6565, "ingh": 6566, "rest": 6567, "cri": 6568, "Pay": 6569, "stay": 6570, "Now": 6571, "temperature=enum(": 6572, "list?": 6573, "fers": 6574, "volume.": 6575, "yard": 6576, "headphone": 6577, "indic": 6578, "—can": 6579, "file_name": 6580, "hosp": 6581, "lately": 6582, "lls": 6583, "Whi": 6584, "screen.": 6585, "word=str!)": 6586, "schedule_clean": 6587, "schedule_blind": 6588, "Remin": 6589, "Lee": 6590, "reports": 6591, "tag=enum(": 6592, "_folder": 6593, "Hel": 6594, "(playlist": 6595, "fici": 6596, "changes": 6597, "Blue": 6598, "(category=str!": 6599, "estimate_": 6600, "Lane": 6601, "Marketing": 6602, "completed.": 6603, "new_email": 6604, "here.": 6605, "tasks": 6606, "Disconnect": 6607, "forgot": 6608, "bene": 6609, "pause_screen_cast": 6610, "find_store": 6611, "added": 6612, "co.jp": 6613, "(index": 6614, "(event_id=str!)": 6615, "glob": 6616, "get_narrator": 6617, "earli": 6618, "_by_id": 6619, "unit=enum(celsius|fahrenheit)!)": 6620, "house.": 6621, "we're": 6622, "debit": 6623, "read_news": 6624, "|bedroom|kitchen)!)": 6625, "add_pay": 6626, "5551234": 6627, "set_bluetooth_power": 6628, "red|green|blue)!)": 6629, "set_water_level": 6630, "conditioner": 6631, "Fran": 6632, "cold|": 6633, "'Follow-up": 6634, "(password=str!": 6635, "'Lunch": 6636, "cise": 6637, "smith": 6638, "strength=enum(light": 6639, "coupon_code": 6640, "output.": 6641, "trigger": 6642, "(platform": 6643, "ridge_": 6644, "|custom": 6645, "clara.": 6646, "_email=str!)": 6647, "convert_currency": 6648, "rainstorm": 6649, "step_goal": 6650, "|sci-fi)": 6651, "(color=enum(white|red|blue|green": 6652, "-9876": 6653, "accidental": 6654, "(cycle_type=enum(quick|deep))": 6655, "yet.": 6656, "(height=int!": 6657, "bonjour": 6658, "strength=enum(mild|regular|strong))": 6659, "Weekly": 6660, "step_count": 6661, "Amara": 6662, "daylight|": 6663, "(lock=bool!)": 6664, "2.4GHz": 6665, "|happy|sad": 6666, "(chapter=int": 6667, "predefined": 6668, "Avenida": 6669, "|oat|almon": 6670, "register": 6671, "benefici": 6672, "add_payee": 6673, "Francis": 6674, "registered": 6675, "|a": 6676, "Co": 6677, "'I": 6678, "5.": 6679, "din": 6680, "Cent": 6681, "acme": 6682, "bro": 6683, "stion": 6684, "show=str!)": 6685, "show's": 6686, "tion.": 6687, "heads": 6688, "contract": 6689, "dig": 6690, "Dist": 6691, "Ital": 6692, "(email=str!)": 6693, "verti": 6694, "get_account": 6695, "battery.": 6696, "|pro": 6697, "printer_": 6698, "Then": 6699, "tuesday": 6700, "chance": 6701, "istance": 6702, "pre-": 6703, "kick": 6704, "_man": 6705, "each": 6706, "pause_cleaning": 6707, "(day=enum(": 6708, "—could": 6709, "get_meditation": 6710, "afterno": 6711, "imperi": 6712, "ticker=str)": 6713, "SSID.": 6714, "_time=str!": 6715, "erie": 6716, "genre=enum(": 6717, "_review": 6718, "get_latest": 6719, "18th": 6720, "pls": 6721, "sunlight": 6722, "sunday": 6723, "mood=str)": 6724, "(unit=enum(": 6725, "bookstore": 6726, "archive)": 6727, "|4k)!)": 6728, "(message=str": 6729, "degrees.": 6730, "|debit": 6731, "(intensity": 6732, "stress": 6733, "(amount_grams=num": 6734, "Captures": 6735, "topic.": 6736, "realized": 6737, "(action=enum(open|close)!)": 6738, "Kickoff'": 6739, "novation": 6740, "(id=int!": 6741, "blood": 6742, "(resolution=enum(720p|": 6743, "subscribe_to": 6744, "Road": 6745, "(output": 6746, "get_ride_status": 6747, "chilly": 6748, "personal|work|": 6749, "export_": 6750, "get_lock_status": 6751, "set_default_paper_size": 6752, "(mode=enum(auto|spot|edge))": 6753, "recipes": 6754, "target_price=num!)": 6755, "C|F": 6756, "Compute": 6757, "produce": 6758, "discover": 6759, "Portland": 6760, "=enum(forward|backward|": 6761, "(coarseness=enum(fine|medium|coarse": 6762, "americano|latte|cappuccino)!": 6763, "writ": 6764, "rotate": 6765, "(connector_type=enum(CCS|CHAdeMO|Type2|Tesla)": 6766, "subscribe_to_newsletter": 6767, "cactus": 6768, "|raw": 6769, "Joe": 6770, "flash_sos": 6771, "Navigate": 6772, "min_power_kw": 6773, "Clean": 6774, "set_seat_": 6775, "food_type=enum(flakes|pellets|br": 6776, "dustbin": 6777, "(category=enum(general|": 6778, "(unit=enum(celsius|fahrenheit)!)": 6779, "strength=enum(light|medium|strong": 6780, "beneficiary": 6781, "Question": 6782, "Disturb": 6783, "subscribe_to_podcast": 6784, "m.": 6785, "'S": 6786, "ato": 6787, "oat": 6788, "lor": 6789, "ess": 6790, "date/": 6791, "locking": 6792, "operat": 6793, "00.": 6794, "ones": 6795, "temperature=num!": 6796, "vir": 6797, "start_date=str": 6798, "210": 6799, "wave": 6800, "ervice": 6801, "nell": 6802, "order_id": 6803, "filters.": 6804, "nings": 6805, "color)": 6806, "stock.": 6807, "keyword=str!)": 6808, "345": 6809, "pause_cook": 6810, "pause_cooking": 6811, "size.": 6812, "disable_wifi": 6813, "ticker.": 6814, "Bluetooth.": 6815, "_celsius": 6816, "white)!": 6817, "garage_status": 6818, "water_now": 6819, "|spot": 6820, "booking.": 6821, "timeline": 6822, "things": 6823, "password.": 6824, "inside": 6825, "'good": 6826, "+52": 6827, "(mode=enum(auto|manual": 6828, "unci": 6829, "get_currency": 6830, "toggle_power": 6831, "collec": 6832, "get_market_summary": 6833, "friends": 6834, "(altitude_m=num)": 6835, "log_watering": 6836, "(exchange": 6837, "_life": 6838, "Define": 6839, "windows": 6840, "(temp_c=int!)": 6841, "drive.": 6842, "promotions": 6843, "(filename=str!)": 6844, "House": 6845, "technology|sports|": 6846, "request_": 6847, "credit_card": 6848, "set_bluetooth_state": 6849, "lassic": 6850, "etc.)": 6851, "sanche": 6852, "list_available_": 6853, "lift)!)": 6854, "max_distance_km=num)": 6855, "across": 6856, "public": 6857, "charging_slot": 6858, "(brightness_percent=int!": 6859, "_milk": 6860, "apples": 6861, "(cycle_type=enum(normal|delicate|heav": 6862, "adjust_seat_position": 6863, "set_beam_mode": 6864, "Clara": 6865, "set_cruis": 6866, "reac": 6867, "moderate|": 6868, "stream=enum(media|": 6869, "warm|hot": 6870, "white_noise": 6871, "(episode_title=str": 6872, "(mode=enum(auto|night|portrait": 6873, "milliliters.": 6874, "Urgent": 6875, "pizzas": 6876, "amily|friend": 6877, "enable_dark_mode": 6878, "While": 6879, "Reminder": 6880, "Hello": 6881, "(color=enum(white|red|green|blue)!)": 6882, "(coupon_code": 6883, "(color=enum(white|red|blue|green)!)": 6884, "|oat|almond": 6885, "Italy": 6886, "|sunday": 6887, "operating": 6888, "pronunci": 6889, "set_cruise_": 6890, "reaches": 6891, "pronunciation": 6892, "ka": 6893, "cn": 6894, "G-": 6895, "Mor": 6896, "ian": 6897, "Eli": 6898, "sum": 6899, "igh": 6900, "al)": 6901, "heate": 6902, "tip": 6903, "mod": 6904, "less": 6905, "Tom": 6906, "_date": 6907, "sis": 6908, "get_contact": 6909, "120": 6910, "lication": 6911, "settings?": 6912, "case": 6913, "alex": 6914, "=enum(all": 6915, "sical": 6916, "story": 6917, "item=str!": 6918, "|fe": 6919, "add_plant": 6920, "schedule_reminder": 6921, "schedule_charging": 6922, "run_": 6923, "then.": 6924, "bake": 6925, "Jake": 6926, "photo.": 6927, "get_network": 6928, "(alert": 6929, "reciate": 6930, "checking|": 6931, "other))": 6932, "_model": 6933, "7pm": 6934, "(hours=num!": 6935, "(celsius": 6936, "(state=enum(on|off": 6937, "white)!)": 6938, "|saturday": 6939, "log_steps": 6940, "Gener": 6941, "strength)!)": 6942, "2026-10-15": 6943, "(book_": 6944, "Display": 6945, "Discu": 6946, "headline": 6947, "(printer=str!)": 6948, "_type=str": 6949, "_number=int!": 6950, "2026-11-09": 6951, "(contact_id=int!)": 6952, "(room=str!": 6953, "done.": 6954, "ready.": 6955, "(condition": 6956, "playlist_name": 6957, "_format=enum(": 6958, "tips": 6959, "|tuesday": 6960, "tray_number": 6961, "0.2": 6962, "storage.": 6963, "whose": 6964, "steady": 6965, "get_daily_stats": 6966, "clean_feeder": 6967, "standard|turbo": 6968, "(axis": 6969, "tv|": 6970, "(count=int)": 6971, "@biz": 6972, "podcast_title=str)": 6973, "(message_id=str!)": 6974, "home_axes": 6975, "vivid": 6976, "extra_": 6977, "rename_memo": 6978, "(period=enum(day|week|month))": 6979, "crease": 6980, "(PM2.5": 6981, "identifier.": 6982, "paper_size=enum(A4|Letter|Leg": 6983, "set_camera_mode": 6984, "(cuisine=enum(": 6985, "initial": 6986, "(genre=enum(comedy|drama|": 6987, "quality=enum(poor|fair|good|excellent)": 6988, "fiction|non-fiction|mystery|romance": 6989, "hidd": 6990, "dubois@": 6991, "NYSE": 6992, "luxury))": 6993, "quality=enum(draft|": 6994, "(focus=enum(": 6995, "|wednesday|": 6996, "set_flashlight_mode": 6997, "set_sprinkler_schedule": 6998, "|biweekly": 6999, "|bedroom|kitchen|basement)!)": 7000, "(rating=enum(1|2|3|4|5)!": 7001, "(tag=enum(work|personal|ideas))": 7002, "thursday|friday": 7003, "temperature=enum(cold|": 7004, "cartridge_": 7005, "(coffee_type=enum(espresso|americano|latte|cappuccino)!": 7006, "neigh": 7007, "heated_": 7008, "|saturday|sunday": 7009, "monday|tuesday": 7010, "hidden": 7011, "|wednesday|thursday|friday": 7012, "neighbor": 7013, "monday|tuesday|wednesday|thursday|friday": 7014, "monday|tuesday|wednesday|thursday|friday|saturday|sunday": 7015, "3.": 7016, "PU": 7017, "i.": 7018, "C.": 7019, "ão": 7020, "SV": 7021, "kar": 7022, "lap": 7023, "Ana": 7024, "set_flash": 7025, "eev": 7026, "ever": 7027, "pers": 7028, "o's": 7029, "ification": 7030, "ies": 7031, "note's": 7032, "pret": 7033, "ami": 7034, "amil": 7035, "plant=str!)": 7036, "airing": 7037, "messag": 7038, "ira": 7039, "saves": 7040, "(amount_": 7041, "print_status": 7042, "bud": 7043, "loud": 7044, "resolution=int)": 7045, "_vac": 7046, "track=str)": 7047, "pause_music": 7048, "(name=str": 7049, "check_price": 7050, "add_water": 7051, "driver's": 7052, "lat=num!": 7053, "delete_emails": 7054, "set_altitude": 7055, "note_id=int!": 7056, "Inter": 7057, "volume_ml": 7058, "2026-04-15": 7059, "confirmation": 7060, "Disarm": 7061, "ign": 7062, "lawn": 7063, "+35": 7064, "(sensor": 7065, "get_headlines": 7066, "finish": 7067, "get_stats": 7068, "(zone=enum(living": 7069, "(feeder": 7070, "2026-10-05": 7071, "_prices": 7072, "2026-08-13": 7073, "(pet_name=str)": 7074, "Translates": 7075, "8765": 7076, "them.": 7077, "|1.5|2)!)": 7078, "fully.": 7079, "issue_": 7080, "(audiobook_id=int!)": 7081, "(audiobook_id=int!": 7082, "(file_path=str!)": 7083, "infill": 7084, "(cycle=enum(cotton|synthetic": 7085, "(color=enum(red|green|blue|warm": 7086, "(task=str!)": 7087, "permission": 7088, "comfort": 7089, "white_balance": 7090, "episode_title=str)": 7091, "_progress": 7092, "Check-in": 7093, "url=str!)": 7094, "(driver_id=str!)": 7095, "shutter": 7096, "ficial": 7097, "minutes_before=int!)": 7098, "layer_height=num": 7099, "vase.stl": 7100, "elect": 7101, "(format=enum(jpeg": 7102, "set_do_not_disturb": 7103, "vehicle_type=enum(economy|comfort|": 7104, "_burned": 7105, "zh|ja|": 7106, "(speed_mps=num!)": 7107, "(category=enum(food|transport|entertainment|utilities|": 7108, "load_filament": 7109, "=enum(en|es|fr|de|it|pt|": 7110, "(metric=enum(steps|": 7111, "Italian": 7112, "radio_station": 7113, ".doe@example.com": 7114, "black|cyan|magenta|": 7115, "consulting": 7116, "(hour=int!": 7117, "get_security_camera_feed": 7118, "indicator": 7119, "new_email=str!)": 7120, "get_account_balance": 7121, "request_ride": 7122, "reserve_charging_slot": 7123, "warm|hot))": 7124, "G-code": 7125, "Generate": 7126, "(axis=enum(": 7127, "vivid|": 7128, "heated_seat": 7129, "_vacuum": 7130, "black|cyan|magenta|yellow": 7131, "cc": 7132, "x|": 7133, "-7": 7134, "Em": 7135, "BC": 7136, "sten": 7137, "Van": 7138, "la.": 7139, "string": 7140, "stac": 7141, "tele": 7142, ".it": 7143, "off?": 7144, "edit": 7145, "turning": 7146, "ung": 7147, "timers": 7148, "play|": 7149, "4th": 7150, "muse": 7151, "(show_": 7152, "300": 7153, "indi": 7154, "hard": 7155, "start=str!": 7156, "ups": 7157, "Mex": 7158, "vie": 7159, "work))": 7160, "color.": 7161, "hori": 7162, "options": 7163, "playback.": 7164, "Night": 7165, "submit": 7166, "logs": 7167, "'meeting": 7168, "chip": 7169, "_cm": 7170, "cancel_alarm": 7171, "tank=str!)": 7172, "transfer.": 7173, "source_language": 7174, "end_time=str!": 7175, "tual": 7176, "temperature=num)": 7177, "Give": 7178, "source_lang": 7179, "|sil": 7180, "(note_id=str!)": 7181, "cooker.": 7182, "disconnect": 7183, "airy|": 7184, "appy|": 7185, "company.": 7186, "ssid=str)": 7187, "recurring_": 7188, "zone_id": 7189, "play_sound": 7190, "2026-04-20": 7191, "list_directory": 7192, "(memo_id=str!": 7193, "pairing": 7194, "2026-12-25": 7195, "longitude=num": 7196, "(narrator": 7197, "bitrate": 7198, "get_album": 7199, "intensity=enum(low|medium|high)": 7200, "1080p|4k)!)": 7201, "(folder=str": 7202, "_focus": 7203, "Seattle?": 7204, "Art": 7205, "mins?": 7206, "Great": 7207, "(tank_id=str!": 7208, "'See": 7209, "@techcorp.": 7210, "(speed=enum(0.5|1.0": 7211, "metric|": 7212, "(folder=enum(inbox|": 7213, "(fertilizer": 7214, "amara.": 7215, "set_filter_speed": 7216, "disconnect_wifi": 7217, "ayscale": 7218, "evening))": 7219, "log_water_intake": 7220, "|bicycl": 7221, "Lui": 7222, "(lens": 7223, "width=int!)": 7224, "ential": 7225, "get_water_level": 7226, "strobe|sos": 7227, "sunny": 7228, "max_distance_miles": 7229, "diagnostics": 7230, "function": 7231, "wheel": 7232, "set_lighting_schedule": 7233, "delete_sleep_log": 7234, "set_airplane_mode": 7235, "navigate_to": 7236, "Calibrate": 7237, "luores": 7238, "(directory=str": 7239, "open_window": 7240, "get_traffic_conditions": 7241, "(species=str!)": 7242, "|quiet)": 7243, "(sort_by=enum(date|title|duration))": 7244, "wondering": 7245, "armacy": 7246, "|50|": 7247, "Kyoto": 7248, "(period=enum(1d|1w|1m|1": 7249, "transfers": 7250, "(category=enum(produce": 7251, "appreciate": 7252, "extra_rinse": 7253, "|TPU": 7254, "obstac": 7255, "Mexic": 7256, "horizon": 7257, "|dairy|": 7258, "get_album_info": 7259, "metric|imperi": 7260, "mode=enum(driving|walking|transit|bicycl": 7261, "Luigi": 7262, "luorescent": 7263, "(category=enum(produce|dairy|": 7264, "Luigi's": 7265, "s@": 7266, "Fo": 7267, "Ver": 7268, "Bon": 7269, "lol": 7270, "names": 7271, "lite": 7272, "loor": 7273, "mock": 7274, "rist": 7275, "isit": 7276, "ense": 7277, "setting.": 7278, "ures": 7279, "anch": 7280, "suv": 7281, "inic": 7282, "set_room": 7283, "open.": 7284, "aking": 7285, "ordan": 7286, "Des": 7287, "sia": 7288, "nut": 7289, "movement": 7290, "couver": 7291, "airs": 7292, "records": 7293, "filtering": 7294, "|sleep": 7295, "recordings.": 7296, "impro": 7297, "oria": 7298, "2025.": 7299, "set_news": 7300, "Restaurant": 7301, "_camera": 7302, "song=str!)": 7303, "position=int)": 7304, "pause_cast": 7305, "update'": 7306, "212": 7307, "_sec": 7308, "days?": 7309, "search_sms": 7310, "recipients.": 7311, "delay.": 7312, "purifier's": 7313, "set_purifier": 7314, "schedule_brew": 7315, "contents": 7316, "reviewing": 7317, "unit=str)": 7318, "grams=int!)": 7319, "2026-09-10": 7320, "2026-06-11": 7321, "Where": 7322, "2026-09-15": 7323, "paper_": 7324, "parking|": 7325, "(event_id=str!": 7326, "2026-05-03": 7327, "555-0123": 7328, "drivers": 7329, "longitude=num)": 7330, "dropoff_location": 7331, "resume_screen_cast": 7332, "Max": 7333, "intensity.": 7334, "unlock_doors": 7335, "get_market_": 7336, "(start_time=str!": 7337, "@techcorp.com": 7338, "Appointment'": 7339, "tonight?": 7340, "record_heart_rate": 7341, "set_climate_temperature": 7342, "(cycle=enum(": 7343, "guez@": 7344, "-second": 7345, "frequency_days": 7346, "(door_id=str": 7347, "(connector_id=str!": 7348, "turn_on_torch": 7349, "descal": 7350, "dispense_now": 7351, "platforms": 7352, "=enum(small|medium|large)!": 7353, "(description=str!": 7354, "(channel": 7355, "vehicle_type=enum(economy|premium|xl))": 7356, "(category=enum(world|business|": 7357, "(bpm=int!)": 7358, "arm_alarm": 7359, "(company=str": 7360, "(duration_min=int": 7361, "get_lyrics": 7362, "(file_path=str!": 7363, "'Grocery": 7364, "home|away": 7365, "(cups": 7366, "get_battery_health": 7367, "with_audio": 7368, "workout_type=enum(running|cycling|swimming|": 7369, "(timer_id=int!)": 7370, "Tilt": 7371, "get_driver_rating": 7372, "ride_type=enum(standard|premium|": 7373, "Starbucks": 7374, "|NASDAQ|": 7375, "csv": 7376, "mark_todo_done": 7377, "effici": 7378, "ascend": 7379, "_type=enum(whole|skim": 7380, "quality=enum(1|2|3|4|5)": 7381, "latte|cappuccino|americano": 7382, "Francisco": 7383, "(distance": 7384, "set_seat_heater": 7385, "(exchange=enum(": 7386, "type=enum(run|cycle|swim|lift)!)": 7387, "steam_milk": 7388, "Elias": 7389, "checking|savings": 7390, "amily|": 7391, "+359": 7392, "set_white_balance": 7393, "temperature=enum(cold|warm|hot))": 7394, "museum": 7395, "recurring_transfer": 7396, "units=enum(metric|imperi": 7397, "clinic": 7398, "Vancouver": 7399, "rodriguez@": 7400, "jen": 7401, "hear": 7402, "mal": 7403, "shri": 7404, "ioni": 7405, "(off": 7406, "usb": 7407, "ada": 7408, "aper": 7409, "minute=int!)": 7410, "xic": 7411, "page": 7412, "set_location": 7413, "get_show_": 7414, "audi": 7415, "yes": 7416, "ue=str": 7417, "plans": 7418, "30?": 7419, "30.": 7420, "Lena": 7421, "post": 7422, "'Can": 7423, "amount.": 7424, "timezone": 7425, "|air": 7426, "_clean": 7427, "battery_": 7428, "blinds.": 7429, "alarm)!)": 7430, "schedule_timer": 7431, "yah": 7432, "(user": 7433, "pet's": 7434, "docx": 7435, "playlists": 7436, "ensure": 7437, "meditation_type=enum(": 7438, "big": 7439, "SMS.": 7440, "(mode=enum(on|off": 7441, "overlay": 7442, "items=str!": 7443, "list_recent": 7444, "ulu": 7445, "(enabled=bool)": 7446, "cast_quality": 7447, "Future": 7448, "busy": 7449, "y|z": 7450, "(device=str!": 7451, "(device=str!)": 7452, "(device=str)": 7453, "start_screen_": 7454, "2026-01-15": 7455, "-555-1234": 7456, "skip_to_": 7457, "2026-02-20": 7458, "k.tanaka@": 7459, "_type=str!)": 7460, "_type=str)": 7461, "_angle": 7462, "airport?": 7463, "2026-07-05": 7464, "song_title": 7465, "2026-09-19": 7466, "'Follow": 7467, "(temperature=int!": 7468, "beam.": 7469, "+86": 7470, "daily|week": 7471, "set_cast_": 7472, "@corp.com": 7473, "(clip": 7474, "replace_filter": 7475, "smartwatch": 7476, "(altitude_m=int!)": 7477, "set_sleep_timer": 7478, "issues": 7479, "charge_limit": 7480, "steady|": 7481, "Requi": 7482, "actor.": 7483, "unlocked.": 7484, "everything": 7485, "@innovatech.com": 7486, "yoga|": 7487, "promotional": 7488, "set_cast_volume": 7489, "|forest": 7490, "_memory": 7491, "(booking_id=str!": 7492, "(language=str!": 7493, "take_screenshot": 7494, "mode=enum(driving|walking|transit)": 7495, "myself": 7496, "exactly": 7497, "get_sports": 7498, "make_latte": 7499, "list_recordings": 7500, "breathing|body_scan|loving_kindness|": 7501, "Final": 7502, "get_water_quality": 7503, "cross": 7504, "(activity=enum(": 7505, "mentioned": 7506, "stop_wash": 7507, "Daily'": 7508, "play_soundscape": 7509, "portfolio_value": 7510, "solar": 7511, "Hurry": 7512, "start_water_change": 7513, "reboot": 7514, "room|bedroom|kitchen|office)!)": 7515, "|ocean|forest|": 7516, "'Running": 7517, "(state=enum(lock|unlock)!)": 7518, "set_geofence": 7519, "(max_results=int": 7520, "schedule_recurring_payment": 7521, "kenji.tanaka@example": 7522, "breath|body_scan|loving_kindness": 7523, "|rear_left|rear_right)!)": 7524, "Aiko": 7525, "Automat": 7526, "store_hours": 7527, "(mood=enum(calm|anxious|happy|sad": 7528, "Center": 7529, "_manual": 7530, "discoverable": 7531, "Joe's": 7532, "physical": 7533, "(cartridge_": 7534, "ungsten": 7535, "horizontal": 7536, "mode=enum(driving|walking|transit|bicycling)": 7537, "|fluorescent": 7538, "nutri": 7539, "shrimp": 7540, "ionizer": 7541, "(due=str": 7542, "x|y|z": 7543, "Automatically": 7544, "Ma": 7545, "US": 7546, "So": 7547, "kg": 7548, "SA": 7549, "tom": 7550, "velo": 7551, "Mad": 7552, "set_door": 7553, "ified": 7554, "merg": 7555, "day?": 7556, "mid": 7557, "20th": 7558, "Pau": 7559, "Fig": 7560, "Wi-Fi.": 7561, "_duration": 7562, "allet": 7563, "let's": 7564, "schedule.": 7565, "option": 7566, "from=str!": 7567, "couch": 7568, "eras": 7569, "—just": 7570, "10am": 7571, "30%": 7572, "memo=str": 7573, "check_item": 7574, "moment": 7575, "start_zone": 7576, "_park": 7577, "gome": 7578, "Delay": 7579, "cast_status": 7580, "ections": 7581, "|stop": 7582, "check_bed": 7583, "emit": 7584, "cameras": 7585, "umbre": 7586, "brow": 7587, "80%": 7588, "bluetooth|": 7589, "other)!)": 7590, "|fast": 7591, "11pm": 7592, "-555-1": 7593, "Records": 7594, "(completed": 7595, "_rate_": 7596, "24th": 7597, "2026-10-13": 7598, "@company": 7599, "2026-12-15": 7600, "intern": 7601, "outlook": 7602, "|1|2|3": 7603, "printing.": 7604, "ringing": 7605, "17th": 7606, "bookmark_": 7607, "movie.": 7608, "_headlines": 7609, "recommended": 7610, "share_calendar": 7611, "'Budget": 7612, "entertainment)!": 7613, "set_garage_door": 7614, "(printer_name=str)": 7615, "eries.": 7616, "=enum(full": 7617, "@innote": 7618, "block_card": 7619, "_percent=int)": 7620, "3pm?": 7621, "(amount_grams=int!": 7622, "Grill": 7623, "-design": 7624, "(threshold": 7625, "strategy": 7626, "locate_": 7627, "@examplecorp.": 7628, "get_daily_steps": 7629, "get_file_size": 7630, "sushi": 7631, "activate_sprinkler": 7632, "container": 7633, "(filename=str!": 7634, "(resolution=enum(720p|1080p|4k))": 7635, "requests": 7636, "vehicle_type=enum(standard|premium|xl))": 7637, "(destination_path=str!": 7638, "portion_grams=int": 7639, "air_purifier": 7640, "Deadline": 7641, "get_bean": 7642, "'Tech": 7643, "-5432": 7644, "delete_last_": 7645, "Rivo": 7646, "french": 7647, "|chick": 7648, "hotel|": 7649, "assan": 7650, "sever": 7651, "(angle=int!": 7652, "feeling": 7653, "type=enum(running|cycling|swimming|": 7654, "storm|flood": 7655, "supplies": 7656, "time_of_day=enum(morning|": 7657, "(level=enum(0": 7658, "Agenda": 7659, "Netflix": 7660, "(1-5": 7661, "jpg|png": 7662, "color|gr": 7663, "expiry=str!)": 7664, "Attached": 7665, "(primary_name=str!": 7666, "multiplier": 7667, "source_text=str!": 7668, "Notes": 7669, "days|weekends|": 7670, "search_news_archive": 7671, "get_narrator_info": 7672, "earlier": 7673, "leave_review": 7674, "unit=enum(C|F": 7675, "family|friend": 7676, "application": 7677, "tray_number=int!)": 7678, "CSV": 7679, "get_print_status": 7680, "get_historical_prices": 7681, "play|pause": 7682, "(narrator_name=str!)": 7683, "material=enum(PLA|ABS|PETG|TPU": 7684, "Visit": 7685, "(mode=enum(home|away": 7686, "skip_to_next": 7687, "(axis=enum(x|y|z": 7688, "umbrel": 7689, "Rivoli": 7690, "color|grayscale": 7691, "family|friends|": 7692, "sk": 7693, "98": 7694, "I’": 7695, "°C": 7696, "ía": 7697, "|8": 7698, "wer": 7699, "ona": 7700, "eur": 7701, "onent": 7702, "vol": 7703, "tool": 7704, "ush": 7705, "sets": 7706, "ande": 7707, "rock": 7708, "set_ac": 7709, "ney": 7710, "doing": 7711, "s=int!)": 7712, "laun": 7713, "ict": 7714, "idle": 7715, "opener": 7716, "music.": 7717, "(datetime=str": 7718, "ties": 7719, "ries": 7720, "al)!": 7721, "s)!": 7722, "Rex": 7723, "opti": 7724, "note=str!)": 7725, "comm": 7726, "(brightness=int!)": 7727, "kai": 7728, "6am": 7729, "speaker|": 7730, "argas": 7731, "type=str!)": 7732, "order_id=str!)": 7733, "(rate": 7734, "shoo": 7735, "notes=str)": 7736, "meeting?": 7737, "keyword=str)": 7738, "(network": 7739, "folder?": 7740, "rain.": 7741, "raining": 7742, "play_playlist": 7743, "ring|": 7744, "22nd": 7745, "direct": 7746, "miss": 7747, "mike": 7748, "price.": 7749, "mobi": 7750, "purple": 7751, "find_route": 7752, "term": 7753, "rate_book": 7754, "4321": 7755, "there!": 7756, "list_inbox": 7757, "(device_id=str!": 7758, "|full": 7759, "s=arr!": 7760, "set_water_": 7761, "spot.": 7762, "sending.": 7763, "brewing.": 7764, "Elm": 7765, "changed": 7766, "move_to": 7767, "radio|": 7768, "share_event": 7769, "value.": 7770, "(mode=enum(auto|on": 7771, "28th": 7772, "Celsius?": 7773, "unit=enum(celsius|fahrenheit)!": 7774, "resume_audiobook": 7775, "mp3": 7776, "guess": 7777, "seattle": 7778, "(frequency=enum(": 7779, "(folder=str)": 7780, "2026-09-22": 7781, "(blind_name=str!)": 7782, "priority=enum(low|medium|high))": 7783, "Dune": 7784, "-06T05": 7785, "(action=enum(open|close|": 7786, "(session_id=str)": 7787, "(source_lang=str!": 7788, "science": 7789, "(keyword=str": 7790, "cycling": 7791, "7890": 7792, "gps": 7793, "set_climate_temp": 7794, "(altitude_m=int": 7795, "progress.": 7796, "fertilize_": 7797, "adapter": 7798, "2024-03-15": 7799, "=enum(front|back|garage": 7800, "Alice's": 7801, "-to-": 7802, "|normal": 7803, "overwrite": 7804, "corp.jp.": 7805, "schedule_blind_times": 7806, "receiver.": 7807, "(avoid": 7808, "(count=int": 7809, "refill_": 7810, "Downloads": 7811, "struction": 7812, "_promo": 7813, "home_axis": 7814, "wishlist": 7815, "priority=enum(low|": 7816, "|chime": 7817, "(album=str": 7818, "(mode=enum(auto|spot|edge)": 7819, "report.txt": 7820, "on|circulate": 7821, "(size=enum(A4|Letter|Leg": 7822, "duplex=bool": 7823, "Fahrenheit.": 7824, "Applies": 7825, "get_driver_info": 7826, "frequency=enum(weekly|monthly)!": 7827, "units=enum(celsius|fahrenheit": 7828, "(priority=enum(": 7829, "standard|high))": 7830, "trash)": 7831, "|6|7": 7832, "wool)!": 7833, "set_air_": 7834, "(mode=enum(auto|portrait|night": 7835, "_per_": 7836, "rooms=arr)": 7837, "pected": 7838, "|paypal)!)": 7839, "finalize": 7840, "sleep|turbo": 7841, "_deg": 7842, "cular": 7843, "lumb": 7844, "technical": 7845, "liam.": 7846, "random": 7847, "backyard": 7848, "user_email=str!)": 7849, "|debit_card": 7850, "|raw))": 7851, "date/time": 7852, "warnings": 7853, "(cycle_type=enum(normal|delicate|heavy|": 7854, "pretty": 7855, "Miami": 7856, "zh|ja|ko": 7857, "viewed": 7858, "(speed=enum(0.5|1.0|1.5|2.0)!)": 7859, "efficiency": 7860, "|family|": 7861, "list_recent_": 7862, "(mode=enum(steady|": 7863, "crosses": 7864, "|tungsten": 7865, "ine_shrimp": 7866, "Figures": 7867, "erasing": 7868, "storm|flood|heat": 7869, "(action=enum(play|pause": 7870, "color|grayscale)": 7871, "component": 7872, "laundry": 7873, "mobile": 7874, "fertilize_plant": 7875, "credit_card|debit_card": 7876, "af": 7877, "EO": 7878, "3?": 7879, "-6": 7880, "’s": 7881, "+7": 7882, "1st": 7883, "wat": 7884, "Mon": 7885, "Hon": 7886, "mean": 7887, "went": 7888, "Mate": 7889, "tri": 7890, "Email": 7891, "ow?": 7892, "hun": 7893, "ics.": 7894, "modes": 7895, "numbers": 7896, "open)": 7897, "thu": 7898, "show_title=str!)": 7899, "light_id": 7900, "message.": 7901, "ube": 7902, "being": 7903, "fall": 7904, "ue|": 7905, "s=int)": 7906, "list_all": 7907, "(search": 7908, "'work": 7909, "_battery": 7910, "atha": 7911, "blind_id": 7912, "event_id=int!)": 7913, "categori": 7914, "high.": 7915, "Tuesday.": 7916, "vance": 7917, "Al-": 7918, "bedtime": 7919, "jake": 7920, "duration_hours": 7921, "hdr": 7922, "keyword=str": 7923, "-555": 7924, "tomorrow's": 7925, "state.": 7926, "source=str)": 7927, "grad": 7928, "pause_episode": 7929, "stop_video": 7930, "(podcast": 7931, "(day=str!": 7932, "near=str": 7933, "40.": 7934, "(days=str!": 7935, "Inve": 7936, "relat": 7937, "25th": 7938, "light_color": 7939, "gym": 7940, "Blind": 7941, "=enum(today": 7942, "Removes": 7943, "toggle_fan": 7944, "Clin": 7945, "11th": 7946, "(active": 7947, "search_content": 7948, "speed=num)": 7949, "Gold": 7950, "unit=str!": 7951, "(time=str": 7952, "2026-06-10": 7953, "2026-08-10": 7954, "2026-04-10": 7955, "@inbox": 7956, "2026-03-11": 7957, "'milk": 7958, "70?": 7959, "vacation": 7960, "wants": 7961, "set_alerts": 7962, "open_garage": 7963, "set_light_timer": 7964, "get_monthly": 7965, "Tokyo?": 7966, "(mode=enum(spot": 7967, "(service": 7968, "switch_mode": 7969, "switch_to_": 7970, "Runs": 7971, "2026-10-20": 7972, "wish": 7973, "2026-04-03": 7974, "_number=str!)": 7975, "2026-02-09": 7976, "set_air_quality": 7977, "2026-02-05": 7978, "set_filament": 7979, "vacuum's": 7980, "disable_bluetooth": 7981, "cia": 7982, "_km=num": 7983, "Resumes": 7984, "(recipe": 7985, "555-0198": 7986, "=enum(front|back": 7987, "set_lighting": 7988, "set_meal": 7989, "strobe_": 7990, "lena.": 7991, "-02T21": 7992, "2026-04-14": 7993, "kenji.tanaka@global": 7994, "calories|": 7995, "|90": 7996, "depart": 7997, "away.": 7998, "too.": 7999, "(speed=enum(0.5|1": 8000, "elena.petrova": 8001, "Liam": 8002, "stars.": 8003, "image_": 8004, "Detects": 8005, "|night)!)": 8006, "(sound_type=enum(": 8007, "notifications": 8008, "(temperature_celsius=int!)": 8009, "silent": 8010, "max_results": 8011, "shared))": 8012, "1.5x": 8013, "document_path=str!": 8014, "set_blind_speed": 8015, "Khan.": 8016, "(zone=enum(front|back|side": 8017, "Activates": 8018, "'Client": 8019, "@globalcorp.net": 8020, "|5GHz": 8021, "marco.": 8022, "disarm_alarm": 8023, "(message_ids=arr!)": 8024, "s|delicate": 8025, "red|blue|green|": 8026, "confirmed": 8027, "(value=int!)": 8028, "(mode=enum(quick|deep))": 8029, "luxury|": 8030, "(ingredient": 8031, "minutes_before=int)": 8032, "start_engine": 8033, "(value=num!)": 8034, "(timestamp=str)": 8035, "|sci-fi|documentary)": 8036, "Public": 8037, "halt": 8038, "half": 8039, "save_favorite_location": 8040, "cancel_wash": 8041, "(duration_min=int!": 8042, "stuck": 8043, "(filter_name=enum(": 8044, "get_sunri": 8045, "technique=enum(": 8046, "(folder=enum(inbox|sent|drafts|": 8047, "(period=enum(today|week|month)!)": 8048, "Marco": 8049, "(bed_temp": 8050, "analyze_": 8051, "strength=enum(mild|medium|strong))": 8052, "Reboot": 8053, "(color=enum(red|green|blue|white|warm)!": 8054, "thanks!": 8055, "_scores": 8056, "set_child_lock": 8057, "(open/closed/": 8058, "(translation_id=str!)": 8059, "david": 8060, "(season=int": 8061, "placing": 8062, "mateo.": 8063, "(calories=int": 8064, "alejandro": 8065, "(symbol=str!": 8066, "set_preferred_language": 8067, "|daily|weekly)": 8068, "microphone": 8069, "@glob": 8070, "daylight|cloudy": 8071, "(band=enum(2.4GHz": 8072, "digital": 8073, "(resolution=enum(1080p|1440p|4k)!)": 8074, "=enum(forward|backward|up|down": 8075, "collection": 8076, "sanchez": 8077, "analysis": 8078, "(feeder_id=str!)": 8079, "adjust_beam_focus": 8080, "Bonjour": 8081, "ristie": 8082, "units=enum(metric|imperial))": 8083, "get_show_details": 8084, "Madrid": 8085, "projections": 8086, "bluetooth|usb": 8087, "@company.com": 8088, "priority=enum(low|normal|high)": 8089, "reviewed": 8090, "hungr": 8091, "Clinic": 8092, "Golden": 8093, "wishlist.": 8094, "(filter_name=enum(vivid|": 8095, "get_sunrise_": 8096, "alejandro.": 8097, "(band=enum(2.4GHz|5GHz": 8098, "get_sunrise_sunset": 8099, "ba": 8100, "En": 8101, "sn": 8102, "79": 8103, "HD": 8104, "ats": 8105, "wet": 8106, "Lum": 8107, "king": 8108, "ille": 8109, "sit": 8110, "'ve": 8111, "set_ph": 8112, "spect": 8113, "ched": 8114, "(show": 8115, "bother": 8116, "schedule=enum(": 8117, "ram": 8118, "(on=bool": 8119, "speed=enum(": 8120, "casted": 8121, "|30": 8122, "plant's": 8123, "ments": 8124, "hike": 8125, "device=str!)": 8126, "rated": 8127, "printer_id": 8128, "grow": 8129, "out.": 8130, "350": 8131, "_forecast": 8132, "Best": 8133, "medit": 8134, "songs": 8135, "_mark": 8136, "_wifi_network": 8137, "watering.": 8138, "pause_timer": 8139, "ship": 8140, "month=str)": 8141, "'running": 8142, "translation=str!)": 8143, "mile": 8144, "=enum(low|medium|high)!": 8145, "ing_time": 8146, "=enum(main": 8147, "_system": 8148, "'Update": 8149, "sleep_quality": 8150, "2026-08-01": 8151, "off).": 8152, "better": 8153, "_reading": 8154, "wood": 8155, "asked": 8156, "2026-04-11": 8157, "(note=str!": 8158, "(episode=int": 8159, "(episode_id=int!)": 8160, "2026-09-09": 8161, "2026-09-03": 8162, "2026-02-15": 8163, "catch": 8164, "13th": 8165, "2026-09-20": 8166, "2026-03-20": 8167, "2026-11-23": 8168, "archive|": 8169, "_type=str!": 8170, "mono|": 8171, "(altitude=int": 8172, "2026-12-09": 8173, "2026-10-09": 8174, "change_color": 8175, "strobe)!)": 8176, "2026-06-05": 8177, "control.": 8178, "2026-09-25": 8179, "Park?": 8180, "watch_history": 8181, "2026-03-19": 8182, "plant_name=str)": 8183, "printer_name=str)": 8184, "Chen'": 8185, "adjust_playback_speed": 8186, "alization": 8187, "@inno": 8188, "get_stock_volume": 8189, "set_scene": 8190, "Connects": 8191}, "merges": [["s", "t"], ["e", "n"], ["a", "t"], ["i", "n"], ["e", "r"], ["st", "r"], ["=", "str"], ["o", "n"], ["e", "t"], ["m", "e"], ["o", "r"], ["h", "e"], ["=str", "!"], ["a", "r"], ["u", "r"], ["t", "o"], ["a", "n"], ["t", "he"], ["en", "t"], ["l", "a"], ["l", "i"], ["u", "m"], ["g", "h"], ["o", "l"], ["gh", "t"], ["r", "e"], ["a", "l"], ["=str!", ")"], ["at", "e"], ["l", "e"], ["t", "i"], ["q", "u"], ["in", "g"], ["er", "y"], ["a", "c"], ["n", "a"], ["s", "h"], ["na", "me"], ["en", "d"], ["s", "et"], ["li", "ght"], ["qu", "ery"], ["m", "a"], ["o", "f"], ["t", "e"], ["in", "t"], ["f", "or"], ["b", "o"], ["f", "i"], ["ur", "n"], ["c", "al"], ["ac", "t"], ["r", "o"], ["an", "d"], ["=", "int"], ["ol", "s"], ["to", "ols"], ["<", "/"], ["query", ">"], ["tools", ">"], ["l", "o"], ["f", "la"], ["fla", "sh"], ["flash", "light"], ["!", ")"], ["c", "on"], ["d", "e"], ["m", "o"], ["i", "l"], ["re", "ate"], ["c", "k"], ["(", ")"], ["c", "e"], ["ar", "g"], ["i", "t"], ["set", "_"], ["v", "e"], ["con", "t"], ["n", "e"], ["r", "i"], ["cont", "act"], ["i", "on"], ["ma", "il"], ["of", "f"], ["e", "mail"], ["s", "s"], ["a", "y"], ["Y", "Y"], ["at", "ion"], ["o", "w"], ["w", "e"], ["e", "c"], ["um", "ent"], ["n", "um"], ["e", "d"], ["d", "o"], ["u", "s"], ["ur", "r"], ["ument", "s"], ["arg", "uments"], ["_", "name"], ["e", "_"], ["urr", "ent"], ["e", "v"], ["m", "in"], ["=", "en"], ["um", "("], ["=en", "um("], ["h", "er"], ["t", "urn"], ["ev", "ent"], ["p", "en"], ["c", "reate"], ["p", "la"], ["a", "d"], ["s", "."], ["o", "m"], ["create", "_"], ["do", "or"], ["d", "ate"], ["i", "s"], ["S", "et"], ["=int", "!)"], ["o", "u"], ["cal", "l"], ["cal", "end"], ["calend", "ar"], ["te", "m"], ["s", "p"], ["ma", "p"], ["p", "er"], ["i", "fi"], ["turn", "_"], ["<", "query>"], ["</", "query>"], ["<", "tools>"], ["</", "tools>"], ["<", "call"], ["<call", ">"], ["T", "urn"], ["g", "et"], ["x", "t"], ["s", "e"], ["st", "_name"], ["p", "h"], ["t", "ing"], ["_", "flashlight"], ["ti", "me"], ["M", "M"], ["lo", "ck"], ["set", "ting"], ["s", "end"], ["ur", "e"], ["ti", "t"], ["d", "y"], ["ri", "ght"], ["get", "_"], ["c", "h"], ["(", "d"], ["bo", "dy"], ["tit", "le"], ["g", "e"], ["ph", "on"], ["send", "_"], ["2", "0"], ["b", "y"], ["u", "te"], ["ar", "t"], ["per", "at"], ["m", "er"], ["tem", "perat"], ["s", "u"], ["temperat", "ure"], ["=str", ")"], ["min", "ute"], ["-", "0"], ["u", "n"], ["i", "ce"], ["C", "reate"], ["d", "ay"], ["i", "c"], ["ro", "om"], ["ec", "t"], ["at", "her"], ["mo", "de"], ["we", "ather"], ["'", "s"], ["C", "urrent"], ["ti", "mer"], ["(", "body"], ["=", "num"], ["to", "=str!)"], ["j", "ect"], ["it", "y"], ["c", "he"], ["20", "2"], ["a", "ge"], ["ol", "u"], ["st_name", "=str!"], ["sh", "ow"], ["b", "er"], ["su", "b"], ["i", "d"], ["-", "1"], ["ne", "ss"], ["pla", "y"], ["st", "at"], ["g", "i"], ["b", "right"], ["sub", "ject"], ["=", "bo"], ["=bo", "ol"], ["li", "st"], ["bright", "ness"], ["num", "ber"], ["v", "en"], ["v", "o"], ["er", "s"], ["c", "ation"], ["gi", "ven"], ["vo", "ice"], ["_", "w"], ["lo", "cation"], ["light", "s"], ["m", "et"], ["o", "pen"], ["ne", "w"], ["olu", "me"], ["v", "olume"], ["t", "h"], ["c", "ity"], ["m", "at"], ["ve", "l"], ["le", "vel"], ["e", "k"], ["_", "event"], ["we", "ek"], ["i", "me"], ["ti", "on"], ["et", "ime"], ["at", "etime"], ["title", "=str!)"], ["met", "ers"], ["he", "ad"], ["calendar", "_event"], ["m", "us"], ["create_", "calendar_event"], ["mus", "ic"], ["fi", "r"], ["a", "u"], ["bo", "t"], ["ro", "bot"], ["send_", "email"], ["F", "i"], ["in", "voice"], ["c", "o"], ["show", "_"], ["W", "i"], ["c", "urrent"], ["query", "=str!)"], ["pla", "ce"], ["e", "xt"], ["show_", "map"], ["turn_", "on"], ["r", "act"], ["S", "h"], ["ac", "k"], ["head", "ing"], ["-", "Fi"], ["Wi", "-Fi"], ["setting", "s"], ["for", "mat"], ["minute", "s"], ["turn_", "off"], ["(", "query=str!)"], ["Turn", "s"], ["202", "6"], ["0", "0"], ["S", "end"], ["y", "ou"], ["_w", "ifi"], ["turn_on", "_flashlight"], ["S", "S"], ["e_", "number"], ["phon", "e_number"], ["l", "d"], ["create_", "contact"], ["turn_off", "_flashlight"], ["-", "D"], ["T", "H"], ["D", "ay"], ["YY", "YY"], ["YYYY", "-"], ["YYYY-", "MM"], ["YYYY-MM", "-D"], ["YYYY-MM-D", "D"], ["YYYY-MM-DD", "TH"], ["YYYY-MM-DDTH", "H"], ["Create", "s"], ["_", "id"], ["Sh", "ow"], ["off", "."], ["t", "r"], ["d", "u"], ["_wifi", "_"], ["O", "pen"], ["(body", "=str"], ["map", "."], ["open", "_wifi_"], ["open_wifi_", "settings"], ["subject", "=str!"], ["sp", "ec"], ["(d", "atetime"], ["email", "."], ["(datetime", "=str!"], ["event", "."], ["on", "."], ["setting", "s."], ["a", "k"], ["s", "o"], ["spec", "ifi"], ["contact", "."], ["fir", "st_name=str!"], ["sp", "e"], ["phone_number", "=str)"], ["b", "ack"], ["d", "i"], ["ur", "ation"], ["w", "it"], ["or", "d"], ["me", "ss"], ["t", "her"], ["i", "st"], ["S", "t"], ["mess", "age"], ["wit", "h"], ["c", "a"], ["ar", "d"], ["phon", "e"], ["A", "d"], ["mo", "ve"], ["l", "y"], ["che", "du"], ["n", "o"], ["chedu", "le"], ["au", "to"], ["re", "c"], ["2026", "-0"], ["a", "se"], ["e", "s"], ["e", "p"], ["o", "k"], [")", "!"], ["play", "_"], ["G", "et"], ["f", "t"], ["St", "art"], ["arg", "et"], ["t", "arget"], ["l", "an"], ["d", "uration"], ["st", "art"], ["la", "y"], ["=num", "!"], ["mo", "stat"], ["ther", "mostat"], ["_", "door"], ["set_", "timer"], ["le", "ase"], ["o", "ck"], ["get_", "weather"], ["=bool", "!)"], ["he", "at"], ["=num", "!)"], ["o", "d"], ["t", "al"], ["l", "et"], ["mode", "=enum("], ["to", "tal"], ["on", "e"], ["lock", "_door"], ["t", "y"], ["w", "ard"], ["(", "level"], ["in", "d"], ["date", "=str"], ["s", "chedule"], ["che", "ck"], ["at", "er"], ["u", "p"], ["Ad", "d"], ["e", "x"], ["c", "le"], ["for", "ward"], ["co", "ol"], ["set_", "thermostat"], ["(", "mode=enum("], ["lock", "ed"], ["o", "p"], ["play_", "music"], ["(", "door"], ["P", "lay"], ["f", "ro"], ["(", "email"], ["set_", "lights"], ["b", "e"], ["c", "an"], ["(", "city"], ["no", "te"], ["send_", "message"], ["fro", "m"], ["p", "r"], ["ext", "ract"], ["minutes", "=int!)"], ["end", "or"], ["_", "move"], ["v", "endor"], ["robot", "_move"], ["_", "invoice"], ["extract", "_invoice"], ["stat", "us"], ["specifi", "c"], ["(level", "=int!)"], ["b", "le"], ["list", "."], ["ad", "d"], ["d", "er"], ["(city", "=str!)"], ["0", "-1"], ["set_", "volume"], ["al", "l"], ["(body", "=str!"], ["c", "om"], ["duration", "_"], ["c", "ou"], ["u", "st"], ["le", "ft"], ["v", "i"], ["o", "ve"], ["(", "brightness"], ["|", "cool"], ["|", "auto"], ["(email", "=str"], ["ar", "ch"], ["mode", "."], ["pr", "int"], [")", "!)"], ["name", "d"], ["a", "i"], ["(", "minutes=int!)"], ["un", "lock"], ["(brightness", "=int"], ["u", "e_"], ["temperature", "=int!)"], ["M", "ove"], ["on", "/"], ["(d", "ue_"], ["heat", "|cool"], ["L", "ock"], ["on/", "off"], ["(mode=enum(", "heat|cool"], ["minute", "s."], ["(due_", "date=str"], ["room", "=str!)"], ["|", "back"], ["phone", "'s"], ["door", "."], ["(mode=enum(heat|cool", "|auto"], ["e", "ld"], ["la", "st_name"], ["fi", "eld"], ["(mode=enum(heat|cool|auto", ")"], ["Open", "s"], ["la", "st_name=str!"], ["E", "xt"], ["Ext", "ract"], ["|back", "|"], ["field", "s."], ["total", "=num!"], ["vendor", "=str!)"], ["city", "."], ["s", "i"], ["T", "ext"], ["Show", "s"], ["Send", "s"], ["left", "|"], ["query", "."], ["brightness", "."], ["=enum(", "forward"], ["a", "m"], ["on", "=bool"], ["left|", "right"], ["room", "'s"], ["T", "1"], ["left|right", ")!"], ["=enum(forward", "|back|"], ["(", "heading"], ["heading", "."], ["meters", "=num!)"], ["(heading", "=enum(forward|back|"], ["(heading=enum(forward|back|", "left|right)!"], ["locked", "=bool!)"], ["(door", "=str!"], ["spe", "ak"], ["speak", "er"], [")", ")"], ["a", "s"], ["m", "y"], ["duration_", "min"], ["start", "_"], ["0-1", "00"], ["j", "ust"], ["an", "s"], ["or", "y"], ["u", "e"], ["duration_min", "=int"], ["re", "min"], ["place", "=str!)"], ["(", "place=str!)"], ["0-100", "."], ["fi", "le"], ["w", "ater"], ["p", "lease"], ["spe", "ed"], ["p", "e"], ["w", "h"], ["p", "lan"], ["u", "t"], ["b", "l"], ["p", "or"], ["T", "0"], ["h", "o"], ["k", "e"], ["last_name", "=str"], ["(", "first_name=str!"], ["bo", "ok"], ["c", "y"], ["s", "c"], ["ca", "st"], ["=int", ")"], ["cou", "n"], ["1", "0"], ["p", "a"], ["_id", "=str!)"], ["a", "ve"], ["3", "0"], ["coun", "t"], ["en", "a"], ["at", "t"], ["te", "xt"], ["me", "mo"], ["remin", "der"], ["l", "t"], ["tr", "ans"], ["check", "_"], ["5", "5"], ["i", "tem"], ["plan", "t"], ["specifi", "ed"], ["p", "o"], ["C", "an"], ["ou", "ld"], ["ar", "k"], ["f", "e"], ["f", "o"], ["l", "ate"], ["s", "day"], ["c", "ate"], ["ss", "ion"], ["-", "2"], ["m", "ent"], ["un", "t"], ["list", "_"], ["R", "et"], ["an", "ge"], ["mo", "unt"], ["a", "li"], ["ri", "e"], ["a", "mount"], ["ty", "pe"], ["al", "so"], ["v", "er"], ["or", "k"], ["z", "one"], ["ch", "arg"], ["ce", "l"], ["ar", "m"], ["=int", "!"], ["ai", "r"], ["p", "i"], ["L", "ist"], ["ri", "de"], ["a", "g"], ["se", "ssion"], ["de", "let"], ["I", "'"], ["rie", "ve"], ["_name", "=str!)"], ["me", "di"], ["rec", "ord"], ["re", "en"], ["on", "g"], ["v", "ice"], ["r", "a"], ["ne", "ed"], ["lan", "g"], ["c", "ol"], ["Ret", "rieve"], ["ac", "count"], ["S", "e"], ["li", "v"], ["C", "he"], ["Che", "ck"], ["tion", "al"], ["se", "arch"], ["l", "l"], ["a", "il"], ["delet", "e_"], ["i", "m"], ["ord", "er"], [".", "com"], ["an", "t"], ["is", "o"], ["w", "ork"], ["fi", "lt"], ["cate", "g"], ["et", "ing"], ["op", "tional"], ["2", "3"], ["cle", "an"], ["g", "ar"], ["filt", "er"], ["le", "ep"], ["ali", "ty"], ["ep", "iso"], ["episo", "de"], ["lo", "w"], ["qu", "ality"], ["s", "leep"], ["b", "att"], ["batt", "ery"], ["categ", "ory"], ["_", "p"], ["cy", "cle"], ["n", "ow"], ["f", "er"], ["at", "h"], ["di", "o"], ["h", "i"], ["ar", "e"], ["bl", "ind"], ["re", "ad"], ["charg", "ing"], ["al", "arm"], ["au", "dio"], ["P", "lease"], ["time", "=str!)"], ["in", "e"], ["de", "vice"], ["record", "ing"], ["e", "w"], ["ena", "ble"], ["2026", "-1"], ["i", "f"], ["2026-0", "9"], ["fe", "ed"], ["add", "_"], ["r", "ate"], ["a", "v"], ["re", "ss"], ["-0", "1"], ["m", "or"], ["C", "ould"], ["f", "r"], ["p", "ro"], ["search", "_"], ["s", "ave"], ["n", "ing"], ["print", "er"], ["T", "h"], ["col", "or"], ["g", "o"], ["por", "t"], ["_id", "=int!)"], ["a", "st"], ["D", "e"], ["sc", "reen"], ["he", "y"], ["or", "i"], ["re", "s"], ["202", "5"], ["it", "s"], ["th", "at"], ["lang", "u"], ["hi", "gh"], ["p", "ri"], ["vi", "de"], ["d", "atetime"], ["u", "es"], ["d", "is"], ["g", "ro"], ["w", "ord"], ["ou", "t"], ["pen", "se"], ["a", "bo"], ["langu", "age"], ["on", "t"], ["new", "s"], ["C", "h"], ["ri", "day"], ["to", "p"], ["j", "o"], ["ues", "day"], ["gar", "age"], ["a", "p"], ["st", "ation"], ["(", "amount"], ["o", "o"], ["fo", "od"], ["c", "ent"], ["us", "e"], ["clean", "ing"], ["audio", "book"], ["abo", "ut"], ["s", "y"], ["on", "day"], ["_", "status"], ["n", "et"], ["a", "sh"], ["ho", "ur"], ["g", "g"], ["c", "lo"], ["T", "uesday"], ["tion", "s"], ["let", "e"], ["u", "et"], ["oo", "th"], ["uet", "ooth"], ["schedule", "_"], ["an", "ce"], ["y", "a"], ["type", "=enum("], ["fr", "ont"], ["F", "riday"], ["R", "e"], ["M", "onday"], ["p", "re"], ["I", "D"], ["ar", "a"], ["st", "a"], ["d", "et"], ["202", "4"], ["co", "ok"], ["er", "t"], ["um", "|"], ["@", "ex"], ["play", "back"], ["st", "op"], ["Se", "arch"], ["5", "0"], ["tr", "ue"], ["ar", "y"], ["in", "k"], ["ec", "ast"], ["us", "er"], ["De", "lete"], ["for", "ecast"], ["olu", "tion"], ["u", "d"], ["Ad", "just"], ["ur", "ant"], ["sta", "urant"], ["ad", "just"], ["an", "k"], ["r", "un"], ["enable", "d"], ["f", "ind"], ["e", "st"], ["A", "l"], ["re", "staurant"], ["b", "ed"], ["d", "s"], ["1", "5"], ["jo", "b"], ["ne", "sday"], ["liv", "ing"], ["th", "en"], ["com", "p"], ["ak", "e"], ["p", "et"], ["i", "ght"], ["o", "to"], ["ur", "sday"], ["per", "cent"], ["ex", "pense"], ["ar", "ti"], ["m", "it"], ["hour", "s"], ["ne", "c"], ["to", "_"], ["f", "an"], ["i", "ck"], ["W", "ed"], ["or", "t"], ["note", "s"], ["Wed", "nesday"], ["pa", "us"], ["u", "de"], ["Th", "ursday"], ["P", "M"], ["lo", "g"], ["d", "ri"], ["ph", "oto"], ["S", "chedule"], ["ke", "y"], ["m", "on"], ["h", "ist"], ["res", "olution"], ["ch", "en"], ["S", "un"], ["to", "do"], ["(d", "uration"], ["ca", "mer"], ["_", "v"], ["Sun", "day"], ["(", "location"], ["me", "d"], ["|", "medi"], ["at", "ur"], ["atur", "day"], ["d", "r"], ["camer", "a"], ["|medi", "um|"], ["s", "ong"], ["me", "eting"], ["b", "re"], ["_", "m"], ["tr", "ack"], ["I'", "m"], [".", "5"], ["ro", "w"], ["ac", "ti"], ["Ch", "ange"], ["st", "ock"], ["S", "aturday"], ["key", "word"], ["wh", "at"], ["_name", "=str!"], ["ar", "r"], ["ail", "y"], ["le", "_"], ["m", "ark"], ["g", "in"], ["p", "od"], ["vide", "o"], ["f", "ol"], ["or", "p"], ["net", "work"], ["55", "5"], ["to", "mor"], ["an", "y"], ["_v", "2"], [".", "0"], ["con", "nec"], ["add", "ress"], ["al", "ert"], ["wh", "i"], ["e", "e"], ["tomor", "row"], ["_", "speed"], ["d", "aily"], ["ne", "xt"], ["Al", "so"], ["it", "chen"], ["4", "5"], ["ac", "h"], ["k", "itchen"], ["st", "ate"], ["s", "m"], ["A", "M"], ["(", "de"], ["li", "ke"], ["2", "2"], ["P", "ro"], ["ara", "h"], ["so", "ur"], ["sour", "ce"], ["ow", "n"], ["rec", "i"], ["2026-09", "-01"], ["g", "r"], ["T", "he"], ["(duration", "_"], ["2025", "-0"], ["st", "in"], ["can", "cel"], ["stin", "ation"], ["water", "ing"], ["(", "enabled"], ["si", "tion"], ["po", "sition"], ["vi", "ew"], ["li", "mit"], ["8", "0"], ["do", "c"], ["re", "port"], ["paus", "e_"], ["stop", "_"], ["t", "ag"], ["fol", "der"], ["contact", "s"], ["z", "e"], ["st", "ep"], ["w", "ay"], ["to", "gg"], ["pod", "cast"], ["y", "o"], ["ra", "in"], ["H", "e"], ["i", "p"], ["(d", "ay"], ["_", "c"], ["play", "list"], ["ex", "ist"], ["il", "l"], ["up", "date"], ["hist", "ory"], ["exist", "ing"], ["l", "ation"], ["tem", "p"], ["_", "level"], ["S", "arah"], ["se", "con"], ["on", "|"], ["ri", "p"], ["ud", "get"], ["st", "e"], ["en", "g"], ["d", "own"], ["h", "ic"], ["_id", "=str!"], ["mon", "th"], ["ing", "|"], ["1", "2"], ["n", "d"], ["gro", "c"], ["adjust", "_"], ["w", "ifi"], ["ve", "hic"], ["ft", "er"], ["it", "ation"], ["po", "int"], ["optional", "ly"], ["P", "a"], ["b", "al"], ["p", "le"], ["ne", "ar"], ["current", "ly"], ["cou", "ld"], ["2024", "-0"], ["(", "date"], ["o", "t"], ["run", "ning"], ["|", "1"], ["4", "0"], ["z", "z"], ["g", "re"], ["cancel", "_"], ["en", "cy"], ["=enum(", "low"], ["ai", "la"], ["S", "top"], ["(day", "s"], ["_", "in"], ["ar", "i"], ["2", "T1"], ["2", "1"], ["si", "us"], ["a", "."], ["end", "_"], ["23", "4"], ["trans", "lation"], ["med", "itation"], ["=", "arr"], ["He", "y"], ["_", "s"], ["av", "aila"], ["ach", "ine"], ["pi", "ck"], ["det", "ail"], ["a", "fter"], ["bl", "uetooth"], ["di", "rec"], ["al", "k"], ["(", "name"], ["cook", "ing"], ["off", "ee"], ["g", "en"], ["dr", "one"], ["fir", "st_name"], ["e", "l"], ["re", "d"], ["te", "ll"], ["doc", "ument"], ["C", "on"], ["en", "s"], ["M", "e"], ["(amount", "=num!"], ["|medium|", "high"], ["a", "ble"], ["m", "i"], ["_", "type=enum("], ["Pro", "ject"], ["pri", "ce"], ["M", "S"], ["Can", "cel"], ["(enabled", "=bool!)"], ["t", "ank"], ["b", "i"], ["te", "d"], ["fi", "c"], ["tr", "a"], ["an", "ak"], ["liv", "ery"], ["pick", "up"], ["=enum(low", "|medium|high"], ["find", "_"], ["t", "or"], ["at", "ing"], ["te", "ch"], ["@ex", ".com"], ["c", "l"], ["_w", "ater"], ["m", "il"], ["per", "i"], ["be", "l"], ["w", "ash"], ["w", "alk"], ["p", "ath"], ["p", "ur"], ["dri", "ver"], ["ifi", "er"], ["k", "ip"], ["S", "MS"], ["ing", "_"], ["groc", "ery"], ["la", "bel"], ["ac", "tion"], ["ca", "p"], ["e", "am"], ["I", "n"], ["l", "at"], ["detail", "s"], ["user", "'s"], ["i", "ew"], ["secon", "ds"], ["de", "gre"], ["o", "ther"], ["si", "ze"], ["ro", "p"], ["ag", "e_"], ["ho", "me"], ["um", "m"], ["2", "5"], ["7", "2"], ["id", "=int!)"], ["clo", "se"], ["Me", "eting"], ["r", "ating"], ["b", "et"], ["ch", "ange"], ["title", "d"], ["memo", "s"], ["day", "s"], ["peri", "od"], ["gr", "am"], ["go", "al"], ["light", "_"], ["B", "e"], ["ur", "e_"], ["an", "g"], ["degre", "es"], ["con", "di"], ["on|", "off"], ["ent", "ist"], ["o", "ver"], ["c", "u"], ["sm", "s"], ["g", "y"], ["im", "ate"], ["auto", "mat"], ["Pa", "use"], ["B", "l"], ["fir", "m"], ["ow", "er"], ["we", "en"], ["bet", "ween"], ["R", "ev"], ["mo", "ist"], ["clo", "s"], ["dis", "able"], ["to", "day"], ["|", "f"], ["k", "now"], ["anak", "a"], ["percent", "age"], ["=enum(", "on|off"], ["Rev", "iew"], ["ti", "ck"], ["ro", "ute"], ["c", "orp"], ["Be", "gin"], ["n", "ight"], ["moist", "ure"], ["trans", "fer"], ["umm", "ary"], ["_", "mode"], ["su", "me"], ["Re", "move"], ["bo", "x"], ["togg", "le_"], ["en", "ce"], ["availa", "ble"], ["st", "or"], ["t", "ake"], ["de", "livery"], ["(location", "=str!)"], ["item", "s"], ["pi", "ent"], ["(duration_", "minutes"], ["reci", "pient"], ["(", "category"], ["(", "speed"], ["|", "4"], ["de", "lay"], ["tick", "er"], ["m", "achine"], ["time", "."], ["b", "udget"], ["email", "s"], ["rop", "off"], ["comp", "let"], ["qu", "ick"], ["l", "in"], ["rec", "ent"], ["d", "ra"], ["u", "l"], ["f", "re"], ["E", "na"], ["of", "i"], ["he", "art"], ["Ena", "ble"], ["Bl", "uetooth"], ["un", "ch"], ["ste", "m"], ["set_", "temperature"], ["s", "|"], ["for", "m"], ["ma", "in"], ["om", "ar"], ["sy", "stem"], ["1", "1"], ["am", "ple"], ["location", "."], ["file", "s"], ["sh", "ar"], ["om", "m"], ["r", "et"], ["_", "language"], ["bed", "room"], ["p", "m"], ["(", "hours"], ["b", "ut"], ["p", "ay"], ["so", "il"], ["filter", "ed"], ["acti", "ve"], ["pur", "ifier"], ["pa", "ss"], ["j", "i"], ["ID", "."], ["L", "o"], ["th", "is"], ["time", "=str!"], ["s", "ou"], ["co", "de"], ["m", "b"], ["F", "ind"], ["=bool", ")"], ["ma", "ya"], ["@ex", "ample"], ["du", "e"], ["set_", "reminder"], ["a", "in"], ["c", "offee"], ["sy", "mb"], ["feed", "ing"], ["bal", "ance"], ["en", "ji"], ["i", "r"], ["ena", "me"], ["U", "p"], ["for", "e"], ["bre", "w"], ["vehic", "le"], ["qu", "e"], ["A", "c"], ["cont", "ent"], ["u", "al"], ["r", "ange"], ["cel", "sius"], ["est", "imate"], ["er", "i"], ["symb", "ol"], ["la", "st"], ["tit", "ude"], ["(de", "stination"], ["gen", "re"], ["al", "titude"], ["1", "4"], ["T0", "9"], ["por", "tion"], ["play", "ing"], ["arti", "cle"], ["le", "d"], ["_", "temperature"], ["be", "fore"], ["F", "et"], ["sh", "ould"], ["re", "view"], ["_id", "=int!"], ["eng", "th"], ["r", "ad"], ["Set", "s"], ["(", "item"], ["f", "in"], ["he", "l"], ["Q", "u"], ["late", "st"], ["1", "8"], ["5", "6"], ["sp", "r"], ["z", "on"], ["Up", "date"], ["(", "color"], ["_", "quality"], ["ap", "p"], ["su", "p"], ["s", "on"], ["text", "=str!)"], ["at", "a"], ["=num", ")"], ["T", "r"], ["h", "ow"], ["gro", "up"], ["sp", "ort"], ["4", "8"], ["an", "e"], ["rad", "i"], ["ol", "d"], ["R", "ec"], ["limit", "=int)"], ["(name", "=str!)"], ["str", "eam"], ["|", "2"], ["M", "ark"], ["555", "-1"], ["(", "state"], ["m", "an"], ["i", "ve"], ["it", "ude"], ["remin", "d"], ["condi", "tions"], ["spr", "ink"], ["l", "er"], ["|", "de"], ["2026-0", "6"], ["2026-0", "2"], ["2026-0", "8"], ["2026-1", "1"], ["f", "fic"], ["print", "_"], ["i", "de"], ["2026-0", "4"], [")", "."], ["duration_", "minutes"], ["Q", "3"], ["2026-0", "3"], ["_", "history"], ["wit", "ch"], ["week", "ly"], ["cast", "ing"], ["ret", "urn"], ["t", "er"], ["me", "?"], ["or", "ity"], ["trans", "late"], ["t", "on"], ["un", "it"], ["_in", "fo"], ["st", "and"], ["dra", "ft"], ["blind", "s"], ["2026-1", "2"], ["2026-0", "5"], ["A", "n"], ["time", "=str"], ["Rec", "ord"], [".", "t"], ["get_", "current"], ["plant", "_name=str!)"], ["_", "lang"], ["log", "_"], ["b", "r"], ["whi", "te"], ["|", "s"], ["complet", "ed"], ["pri", "ority"], ["B", "o"], ["du", "e_"], ["2026-0", "1"], ["from", "_"], ["mark", "et"], ["re", "g"], ["rate", "_"], ["'", "t"], ["(destination", "=str!"], ["acti", "v"], ["(", "end_"], ["j", "a"], ["sprink", "ler"], ["tra", "ffic"], ["medi", "ate"], ["check_", "battery"], ["read", "ing"], ["_p", "ath"], ["p", "l"], ["c", "li"], ["(", "account"], ["gram", "s"], ["step", "s"], ["w", "o"], ["H", "i"], ["ma", "ke"], ["4", "3"], ["in", "cl"], ["ther", "e"], ["se", "at"], ["as", "k"], ["_", "file"], ["set_", "alarm"], ["d", "entist"], ["2", "6"], ["en", "er"], ["ce", "ss"], ["su", "n"], ["2026-0", "7"], ["start_", "date"], ["str", "ength"], ["ent", "r"], ["v", "al"], ["-1", "0"], ["in", "box"], ["-1", "1"], ["sh", "op"], ["o", "h"], ["r", "en"], ["(", "note"], ["er", "."], ["S", "ave"], ["a", "qu"], ["mo", "od"], ["station", "s"], ["automat", "ic"], ["A", "p"], ["sleep", "_"], ["80", "p"], ["R", "ep"], ["l", "ater"], ["save", "d"], ["connec", "t"], ["AM", "."], ["(", "path"], ["4", "2"], ["ari", "um"], ["mil", "k"], ["due_", "date"], ["aqu", "arium"], ["o", "us"], ["as", "ed"], ["ut", "ure"], ["h", "ave"], ["get_", "stock"], ["l", "and"], ["s", "kip"], ["de", "x"], ["_", "f"], ["fre", "qu"], ["Rep", "ort"], ["1", "6"], ["time", "=str)"], ["ori", "es"], ["what", "'s"], ["b", "us"], ["2", "4"], ["arti", "st"], ["frequ", "ency"], ["2026-1", "0-1"], ["(", "action"], ["re", "main"], ["0", ".5"], ["fi", "ce"], ["it", "'s"], ["(", "episode"], ["mor", "ning"], ["ens", "or"], ["-1", "2"], ["10", "80p"], ["I'", "ll"], ["2026-09", "-0"], ["fan", "_speed"], ["mo", "vi"], ["7", "0"], ["direc", "tions"], ["=enum(on|off", ")!)"], ["Ac", "me"], ["an", "other"], ["y", "|"], ["s", "ec"], ["_", "location"], ["_id", "=str)"], ["s", "er"], ["title", "=str)"], ["im", "mediate"], ["comp", "any"], ["point", "ment"], ["(", "order"], ["(", "device"], ["cap", "t"], ["f", "uture"], ["v", "ac"], ["20", "0"], ["message", "s"], ["sc", "rip"], ["=enum(", "1"], ["ss", "id"], ["(", "title=str!)"], ["d", "on"], ["new", "_"], ["(", "label"], ["Tr", "ans"], ["(", "light"], ["wh", "en"], ["_m", "l"], ["her", "e"], ["remain", "ing"], ["screen", "_"], ["temperat", "ure_"], ["maya", "@ex.com"], ["-1", "5"], ["schedule", "d"], ["b", "ath"], ["o", "ur"], ["fi", "sh"], ["book", "_"], ["ener", "gy"], ["Fet", "ch"], ["of", "fice"], ["7", "8"], ["w", "ant"], ["work", "out"], ["pre", "mi"], ["con", "firm"], ["s", "ay"], ["C", "orp"], ["555-1", "234"], ["t", "wo"], ["re", "sume"], ["he", "d"], ["ar", "is"], ["int", "er"], ["fer", "ence"], ["at", "ch"], ["set_", "brightness"], ["v", "a"], ["pa", "per"], ["set_", "wifi"], ["al", "se"], ["medi", "a"], ["per", "son"], ["|", "g"], ["alert", "s"], ["j", "p"], ["a", "h"], ["av", "ori"], ["(d", "ropoff"], ["avori", "te"], ["de", "stination"], ["start", "_w"], ["d", "ata"], ["t", "ask"], ["expense", "s"], ["(", "id=int!)"], ["|", "3"], ["PM", "."], ["In", "voice"], ["(category", "=enum("], ["in", "form"], ["_", "text"], ["p", "ark"], ["f", "alse"], ["D", "is"], ["so", "me"], ["c", "ard"], ["l", "ong"], ["7", "5"], ["f", "light"], ["open", "_"], ["l", "unch"], ["1", "3"], ["por", "ted"], ["take", "off"], ["rec", "urr"], ["sc", "ri"], ["sup", "ported"], [".t", "anaka"], ["t", "rip"], ["gar", "age_"], ["_", "k"], ["(date", "=str!"], ["tor", "ch"], ["Wi", "Fi"], ["p", "ower"], ["omar", "@ex.com"], ["1", "9"], ["f", "au"], ["inform", "ation"], ["t", "ory"], ["zon", "e_"], ["T", "ok"], ["_", "order"], ["set_", "light_"], ["charging", "_"], ["month", "ly"], ["he", "it"], ["ah", "ren"], ["ahren", "heit"], ["g", "n"], ["ic", "s"], ["no", "t"], ["lo", "ok"], ["go", "t"], ["rec", "omm"], ["immediate", "ly"], ["Tok", "yo"], ["t", "ak"], ["n", "er"], ["str", "o"], ["resolution", "=enum("], ["4", "9"], ["en", "e"], ["_", "to_"], ["3", "1"], ["_", "rate"], ["to_", "account"], ["urr", "ency"], ["T", "00"], ["6", "T1"], ["fau", "lt"], ["reg", "ion"], ["u", "b"], ["qu", "an"], ["que", "ue"], ["tit", "y"], ["quan", "tity"], ["clos", "e_"], ["b", "ased"], ["w", "n"], ["T", "21"], ["3", "4"], ["4", "4"], ["u", "ll"], ["unit", "=enum("], ["s", "lo"], ["re", "move"], ["pro", "ject"], ["|2", "|3"], ["de", "fault"], ["update", "_"], ["s", "=arr"], ["s", "ummary"], ["ticker", "=str!)"], ["water", "_"], ["T0", "5"], ["(", "zone"], ["2026-1", "0"], ["near", "by"], ["0", "9"], ["w", "or"], ["sp", "ot"], ["from_", "account"], ["incl", "ud"], ["ser", "vice"], ["(label", "=str"], ["includ", "ing"], ["auto", "|"], ["1", "23"], ["T", "23"], ["pay", "ment"], ["ssid", "=str!)"], ["p", "ly"], ["cal", "led"], ["get_current", "_"], ["screen_", "cast"], ["ing", "."], ["bl", "ue"], ["whi", "le"], ["8", "7"], ["@example", ".com"], ["er", "n"], ["s", "ure"], ["3", "5"], ["ma", "x"], ["stor", "e"], ["sou", "nd"], ["bre", "ak"], ["0", "8"], ["ori", "gin"], ["Lo", "g"], ["_", "grams"], ["recurr", "ing"], ["es", "|"], ["scrip", "tion"], ["T0", "2"], ["E", "l"], ["h", "um"], ["l", "ine"], ["K", "enji"], ["s", "witch"], ["T", "20"], ["ork", "out"], ["(duration_minutes", "=int!"], ["ing", "s"], ["met", "h"], ["hum", "id"], ["meth", "od"], ["blind", "_"], ["sh", "ot"], ["restaurant", "=str!)"], ["ch", "ang"], ["r", "ing"], ["(", "printer"], ["Th", "ank"], ["_", "to"], ["R", "un"], ["(", "source"], ["s", "ensor"], ["-", "20"], ["I'", "ve"], ["=enum(1", "|2|3"], ["pen", "s"], ["so", "us"], ["4", "T1"], ["pass", "word"], ["(", "date=str"], ["re", "schedule"], ["T0", "6"], ["cu", "late"], ["|", "bedroom"], ["skip", "_"], ["1", "7"], ["mark", "_"], ["f", "avorite"], [".tanaka", "@"], ["3", "3"], ["now", "."], ["set_", "fan_speed"], ["direc", "tory"], ["|", "5"], ["name", "."], ["ur", "ity"], ["I'", "d"], ["send_", "sms"], ["(color", "=enum("], ["translate", "_text"], ["al", "|"], ["T", "22"], ["ert", "ain"], ["d", "f"], ["location", "=str!)"], ["7", "T1"], ["2T1", "4"], ["en", "u"], ["de", "d"], ["li", "cate"], ["(state", "=enum(on|off)!)"], ["0", "7"], ["create_", "note"], ["8", "T1"], ["T0", "4"], ["_s", "ummary"], ["lin", "es"], ["g", "ent"], ["c", "ar"], ["us", "age"], ["si", "gn"], ["to", "wn"], ["ca", "m"], ["(", "memo"], ["Ret", "urn"], ["S", "kip"], ["_", "light"], ["o", "te"], ["(", "book"], ["w", "arm"], [".", "jp"], ["(dropoff", "=str!"], ["humid", "ity"], ["e", "."], ["5", "8"], ["-2", "3"], ["Qu", "ick"], ["are", "a"], ["zz", "a"], ["arch", "ive"], ["in", "dex"], ["1", "200"], ["head", "lines"], ["u", "um"], ["_", "size"], ["(", "pet"], ["wor", "ld"], ["|bedroom", "|"], ["0", "6"], ["(path", "=str!)"], ["m", "enu"], ["R", "ate"], ["ti", "li"], ["M", "ay"], ["hel", "lo"], ["ac", "hed"], ["send", "er"], ["duration", "."], ["pa", "st"], ["(amount", "_ml"], ["T", "V"], ["i", "sh"], ["(", "event"], ["_", "type"], ["recomm", "end"], ["3", "7"], ["time", "s"], ["art", "er"], ["audiobook", "s"], ["vehic", "le_"], ["r", "."], ["3", "2"], ["r", "ol"], ["si", "de"], ["ang", "le"], ["L", "et"], ["T0", "8"], ["in", "ner"], ["0", "2"], ["stat", "s"], ["-0", "3"], ["m", "ber"], ["_", "number"], ["G", "reen"], ["(item", "=str!)"], ["sec", "urity"], ["4", "6"], ["call", "y"], ["-", "up"], ["d", "ash"], ["stand", "ard"], ["shop", "p"], ["down", "town"], ["o", "|"], ["device", "s"], ["=enum(", "living"], ["(", "altitude"], ["dash", "cam"], ["0", "1"], ["auto", "_"], ["_", "item"], ["p", "air"], ["add_", "to_"], ["-0", "9"], ["feed", "er"], ["|", "blue"], ["show", "s"], ["-2", "1"], ["start_", "recording"], ["air", "_quality"], ["activ", "ity"], ["C", "entr"], ["book_", "ride"], ["Centr", "al"], ["chang", "e_"], ["che", "s"], ["b", "ase"], ["J", "oh"], ["lo", "ad"], ["ride", "_id=str!)"], ["b", "u"], ["map", "?"], ["l", "arg"], ["pl", "us"], ["heart", "_rate"], ["Joh", "n"], ["3", "6"], ["m", "ate"], ["end", "ing"], ["get_weather", "_"], ["T0", "7"], ["air", "port"], ["|4", "k"], ["stro", "be"], ["0", "3"], ["S", "D"], ["o", "ing"], ["se", "e"], ["go", "od"], ["_", "moisture"], ["Bo", "ok"], ["(action", "=enum("], ["P", "aris"], ["2026-09-0", "2T14"], ["ong", "oing"], ["4", "7"], ["5", "2"], ["at", "or"], ["date", "=str!"], ["-0", "5"], ["(", "message"], ["T0", "3"], ["_p", "ri"], ["s", "a"], ["fi", "la"], ["re", "ce"], ["s", "can"], ["T0", "1"], ["target", "_lang"], ["fila", "ment"], ["2", "9"], ["fi", "g"], ["th", "or"], ["add_", "contact"], ["T", "anaka"], ["radi", "us"], ["com", "ing"], ["ac", "tions"], ["2T1", "8"], ["shar", "e_"], ["|g", "reen"], ["(order", "_id=str!)"], ["vac", "uum"], ["n", "or"], ["h", "is"], ["togg", "le"], ["(duration_minutes", "=int"], ["(", "genre"], ["au", "thor"], ["4", "1"], ["2", "7"], ["celsius", "|f"], ["att", "ached"], ["celsius|f", "ahrenheit"], ["plant", "s"], ["ori", "cal"], ["start_", "cleaning"], ["cont", "rol"], ["hist", "orical"], ["ar", "ma"], ["as", "_"], ["-2", "5"], ["th", "ink"], ["mess", "age_"], ["An", "ya"], ["start_w", "ash"], ["555", "-01"], ["_", "bluetooth"], ["i", "cally"], ["3", "9"], ["5", "4"], ["level", "."], ["stat", "ist"], ["paus", "ed"], ["yo", "ur"], ["stream", "ing"], ["to_account", "=str!)"], ["man", "ual"], ["val", "ue"], ["n", "ds"], ["3", ".0"], ["r", "ename"], ["get_current_", "weather"], [".", "p"], ["k", "ind"], ["session", "."], ["larg", "e"], ["trans", "actions"], ["5", "7"], ["M", "art"], ["connec", "tor"], ["don", "'t"], ["(mode=enum(", "auto|"], ["c", "i"], ["e", "sp"], ["s", "av"], ["_k", "m"], ["pens", "e_"], ["one", "y"], ["arter", "ly"], ["c", "up"], ["search_", "notes"], ["tak", "e_"], ["2", "8"], [".", "00"], ["P", "ark"], ["co", "pi"], ["C", "el"], ["(", "period"], ["w", "atch"], ["soil", "_moisture"], ["_pri", "ce"], ["la", "ce"], ["St", "re"], ["w", "here"], ["Cel", "sius"], ["_", "title"], ["un", "ds"], ["dri", "v"], ["pass", "eng"], ["ro", "va"], ["statist", "ics"], ["o", "s"], ["-1", "3"], ["k", "enji"], ["esp", "ress"], ["sp", "in"], ["fer", "n"], ["=enum(low|medium|high", ")"], ["mo", "m"], ["be", "en"], ["str", "ong"], ["sou", "nds"], ["copi", "es"], ["Re", "sume"], ["symbol", "=str!)"], ["2026-09-01", "T09"], ["lat", "itude"], ["long", "itude"], ["Sh", "arma"], ["ti", "v"], ["event", "s"], ["-1", "9"], ["start_date", "=str)"], ["c", "urrency"], ["ent", "ertain"], ["Green", "Mart"], ["(location", "=str!"], ["B", "udget"], ["entertain", "ment"], ["name", "=str!)"], ["clos", "ed"], ["print_", "job"], ["garage_", "door"], ["0", "5"], ["seconds", "=int!)"], ["2026-10-1", "2T18"], ["F", "ol"], ["t", "ure"], ["file", "_path"], ["movi", "e"], ["Fol", "low"], ["di", "st"], ["mail", ".com"], ["n", "arr"], ["9", "87"], ["recommend", "ation"], ["5", "9"], ["t", "one"], ["reci", "pe"], ["(days", "=arr"], ["d", "ropoff"], ["ja", "zz"], ["6", "0"], ["g", "lo"], ["c", "us"], ["(", "temperature"], ["1", ".0"], ["capt", "ure_"], ["qu", "ote"], ["set_", "auto_"], ["Stre", "et"], ["b", "on"], ["play_", "song"], ["S", "|"], ["3", "8"], ["bath", "room"], ["narr", "ator"], ["e", "ar"], ["_", "by"], ["w", "ind"], ["add_", "expense"], ["todo", "s"], ["article", "s"], ["unit=enum(", "celsius|fahrenheit"], ["b", "um"], ["_name", "=str)"], ["add_", "item"], ["ho", "use"], ["check", "_water"], ["'", "?"], ["pickup", "=str!"], ["sub", "scri"], ["B", "er"], ["d", "ark"], ["Ch", "en"], ["(name", "=str!"], ["|4", "|5"], ["passeng", "er"], ["Ber", "lin"], ["U", "n"], ["'", "re"], ["s", "al"], ["delete_", "note"], ["playback", "_speed"], ["resume", "_"], ["D", "r."], ["O", "h"], ["tr", "an"], ["di", "m"], ["l", "ofi"], ["automat", "ically"], ["A", "le"], ["be", "am"], ["(door", "_id=str!)"], ["sy", "n"], ["qu", "est"], ["(note", "_id=int!)"], ["ap", "pointment"], ["get_", "air_quality"], ["nor", "m"], ["0", "4"], [".", "net"], ["D", "entist"], ["w", "im"], ["ya", "."], ["@", "omar"], ["att", "ern"], ["Thank", "s"], ["ri", "c"], ["us", "ing"], ["e", "s."], ["delete_", "contact"], ["limit", "=int"], ["C", "omm"], ["f", "ull"], ["Comm", "and"], ["m", "p"], ["a", "x"], ["lo", "se"], ["create_", "reminder"], ["det", "ect"], ["tran", "sport"], ["b", "it"], ["water_", "plant"], ["5", "3"], ["i", "ti"], ["li", "ty"], ["Dis", "pense"], ["+", "8"], ["check_", "status"], ["feed", "_"], ["(message", "=str!"], ["C", "lose"], ["re", "ar"], ["b", "lock"], ["g", "ue"], ["get_", "forecast"], ["A", "nd"], ["st", "ill"], ["(", "temp"], ["=enum(1|2|3", "|4|5"], ["|", "week"], ["=enum(low|medium|high", ")!)"], ["pi", "zza"], ["ph", "a"], ["al", "th"], ["co", "t"], ["v", "ers"], ["cast", "_"], ["charg", "er"], ["whi", "ch"], ["(date", "=str!)"], ["T", "eam"], ["fin", "al"], ["56", "78"], ["_", "time"], ["ho", "t"], ["get_", "battery"], ["ne", "are"], ["_", "news"], ["ens", "ity"], ["|bedroom|", "kitchen"], ["m", "oney"], ["neare", "st"], ["no", "ti"], ["shar", "ma"], ["radi", "o"], ["May", "a"], ["al", "bum"], ["int", "ensity"], ["f", "f"], ["in", "to"], ["create_", "event"], ["r", "ase"], ["pa", "use"], ["get_", "wifi"], ["hel", "p"], ["ac", "cess"], ["S", "ub"], ["fig", "ure"], ["g", "u"], ["g", "."], ["u", "c"], ["(", "contact"], ["open", "_door"], ["ali", "z"], ["2", "50"], ["source", "=str!)"], ["adjust_", "volume"], ["Trans", "late"], ["W", "h"], ["F", "or"], ["st_name", "=str!)"], ["(", "resolution=enum("], ["recommendation", "s"], ["bi", "lity"], ["r", "u"], ["5", "1"], ["L", "is"], ["(days", "=int"], ["max", "_"], ["(city", "=str!"], ["d", "inner"], ["cli", "mate"], ["address", "=str!"], ["N", "im"], ["premi", "um|"], ["sav", "ings"], ["p", "attern"], ["Nim", "bus"], ["P", "L"], ["H", "er"], ["Sh", "are"], ["555-01", "9"], ["name", "=str!"], ["Start", "s"], ["language", "s"], ["wash", "ing"], ["print_", "document"], ["|", "weekly"], ["_w", "orkout"], ["(", "seconds=int!)"], ["Un", "lock"], ["6", "5"], ["att", "le"], ["delete_", "memo"], ["frequency", "=enum("], ["(", "room"], ["ca", "li"], ["p", "op"], ["A", "ust"], ["p", "ut"], ["_p", "ay"], ["1", "234"], ["from_account", "=str!"], ["1080p", "|4k"], ["transfer", "_f"], ["he", "alth"], ["transfer_f", "unds"], ["o", "om"], ["d", "one"], ["set_", "schedule"], ["=enum(", "front"], ["(item", "=str!"], ["(", "plant_name=str!)"], ["get_", "directions"], ["Qu", "arterly"], ["check_", "soil_moisture"], ["ri", "end"], ["eri", "es"], ["standard", "|"], ["detect", "_language"], ["sp", "ent"], ["(", "folder"], ["set_", "bluetooth"], ["place", "_order"], ["@", "in"], ["um", "p"], ["rie", "f"], ["station", "_id=str!)"], ["Ale", "x"], ["Aust", "in"], ["_name", "=str"], ["stop_", "recording"], ["_p", "ower"], ["fo", "cus"], ["Al", "pha"], ["|", "T"], ["il", "y"], ["date", "."], ["C", "C"], ["temperature", "=int)"], ["light", "_name=str!)"], ["(hours", "=int!)"], ["st", "ories"], ["Lis", "bon"], ["open", "|"], ["check", "ing"], ["delet", "e"], ["_c", "ard"], ["pro", "cess"], ["red", "|green"], ["light", "ing"], ["1", "00"], ["a", "vi"], ["-2", "2"], ["pre", "vi"], ["list_", "memos"], ["previ", "ous"], [".", "'"], ["str", "e"], ["ar", "s"], ["le", "c"], ["mode", "l"], ["place", "s"], ["ver", "t"], ["k", "ill"], ["eri", "al"], ["(", "limit=int"], ["me", "al"], ["(", "blind"], ["pro", "gram"], ["mark_", "as_"], ["feed_", "fish"], ["phone", "=str)"], ["C", "ap"], ["_", "percent"], ["no", "zz"], ["=enum(low|medium|high", "))"], ["ol", "e"], ["con", "om"], ["daily", "_"], ["set_", "budget"], ["(period", "=enum("], ["b", "in"], ["un", "lock_door"], ["food", "|"], ["cancel_", "ride"], ["3", "pm"], ["range", "."], ["tr", "ane"], ["(amount", "_grams"], ["+8", "1"], ["b", "rief"], ["Cap", "ture"], ["A", "C"], ["r", "or"], ["in", "ce"], ["h", "all"], ["45", "6"], ["|", "sport"], ["(", "limit=int)"], ["e", "conom"], ["G", "r"], ["the", "m"], ["ss", "i"], ["-1", "7"], ["co", "me"], ["create_", "memo"], ["delete_", "file"], ["top", "ic"], ["80", "s"], ["vehicle", "_id=str!)"], ["set_", "playback_speed"], ["aliz", "ed"], ["red|green", "|blue"], ["col", "trane"], ["level", "s"], ["ine", "ss"], ["g", "ress"], ["printer", "."], [".", "50"], ["network", "s"], ["set_", "blind_"], ["Return", "s"], ["k", "o"], ["(d", "i"], ["quality", "=enum("], ["(", "job"], ["food", "_level"], ["'", "Project"], ["app", "ly"], ["mat", "erial"], ["set_", "water"], ["-2", "8"], ["ring", "tone"], ["transport", "|"], ["mark_as_", "read"], ["hall", "way"], ["food|", "transport|"], ["v", "is"], ["_", "title=str!)"], ["plant", "_name=str!"], ["pause_", "playback"], ["white", "|"], ["'", "."], ["b", "e_"], ["|", "month"], ["corp", ".com"], ["temperature_", "celsius"], ["ri", "d"], ["send", "ing"], ["cli", "p"], ["e.", "g."], ["Se", "attle"], ["open|", "close"], ["phone", "=str!)"], ["print", "ing"], ["start_", "print"], ["K", "ick"], ["_language", "s"], ["get_", "market"], ["capture_", "photo"], ["daily", "|weekly"], ["cycle", "."], ["w", "ill"], ["lat", "te"], ["f", "ul"], ["spin", "_speed"], ["glo", "bal"], ["gu", "ide"], ["note", "=str)"], ["ena", "."], ["play_", "episode"], ["read", "y"], ["the", "ir"], ["shopp", "ing"], [".p", "df"], ["bus", "iness"], ["check_", "food_level"], ["u", "ne"], ["-0", "2"], ["Retrieve", "s"], ["Con", "firm"], ["El", "ena"], ["base", "ment"], ["unit=enum(celsius|fahrenheit", "))"], ["an", "ya."], ["log", "_workout"], ["|", "p"], ["I", "t"], ["do", "ck"], ["ou", "l"], ["-0", "6"], ["now", "?"], ["bre", "ath"], ["_m", "achine"], ["(", "text=str!)"], ["log_", "sleep"], ["ate", "s"], ["-1", "4"], ["_id", "=int)"], ["f", "are"], ["condi", "tion"], ["system", "."], ["return", "_to_"], ["(", "ssid=str!)"], ["you", "'re"], ["Se", "oul"], ["T", "e"], ["p", "on"], ["_event", "s"], ["h", "as"], ["episode", "."], ["save", "_"], ["start_", "time=str!"], ["artist", "=str"], ["supported", "_languages"], ["-0", "7"], ["@", "tech"], ["slo", "t"], ["A", "r"], ["_", "schedule"], ["_", "filter"], ["Re", "ad"], ["T", "ake"], ["create_", "playlist"], ["trans", "action"], ["(category", "=str"], ["Ap", "pointment"], ["Trans", "fer"], ["(action=enum(", "open|close"], ["i", "a"], ["or", "g"], ["p", "arti"], ["tech", "n"], ["(light", "_name=str!)"], ["po", "sal"], ["auto", "-"], ["-2", "4"], ["(", "session"], ["Con", "nec"], ["ing|", "walk"], ["get_stock", "_"], ["P", "lace"], ["availa", "bility"], ["Kick", "off"], ["m", "u"], ["s", "?"], ["en", "|"], ["th", "ing"], ["_", "cycle"], ["list_", "notes"], ["_water", "_"], ["list_", "files"], ["say", "ing"], ["(", "ride_id=str!)"], ["T", "o"], ["F", "r"], ["flashlight", "."], ["id", "ent"], ["co", "."], ["no", "v"], ["alarm", "s"], ["count", "down"], ["fic", "tion"], ["(speed", "=enum("], ["remind", "ers"], ["kenji", ".tanaka@"], ["i", "re"], ["na", "p"], ["-0", "4"], ["2025-0", "3"], ["turn_", "light_"], ["cou", "pon"], ["light", "."], ["contact", "_"], ["play", "li"], ["su", "lt"], ["Sarah", "'s"], ["inter", "est"], ["sc", "ene"], ["(source", "_lang"], ["dist", "ance"], ["_pay", "ment"], ["f", "riend"], ["(", "e.g."], ["Connec", "t"], ["s", "ent"], ["all", "_"], ["J", "ust"], ["in", "fo"], ["zone", "=str!)"], ["_", "device"], ["_", "temp"], ["_c", "offee"], ["entertainment", "|"], ["P", "et"], ["h", "an"], ["fi", "l"], ["th", "re"], ["_", "minutes"], ["-2", "6"], ["delete_", "expense"], ["_", "alert"], ["rate_", "driver"], ["In", "iti"], ["wh", "ole"], ["+", "9"], ["le", "o"], ["-1", "8"], ["w", "as"], ["-2", "7"], ["connec", "tion"], ["=enum(on|off", ")!"], ["@", "maya"], ["ton", "er"], ["stand", "up"], ["D", "o"], ["re", "al"], ["dis", "play"], ["vehicle_", "type=enum("], ["take_", "photo"], ["y", "ear"], ["d", "|"], ["it", "."], ["ri", "te"], ["format", "=enum("], ["ti", "lt"], ["he", "ight"], ["cancel_", "order"], ["ton", "ight"], ["E", "V"], ["zone", "."], ["e", "gg"], ["set_", "delay"], ["world", "|"], ["|bedroom|kitchen", "|"], ["1080p|4k", "))"], ["g", "a"], ["fir", "st"], ["ou", "nd"], ["brew", "_coffee"], ["an", "|"], ["(", "tag"], ["|1", ".5"], ["R", "ename"], ["ai", "led"], ["cal", "ories"], ["look", "ing"], ["Ap", "ply"], ["de", "sign"], ["(", "message_"], ["7", "7"], ["li", "p"], ["sc", "i"], ["record", "_"], ["start_", "time=str!)"], ["Adjust", "s"], ["copies", "=int"], ["@", "leo"], ["p", "y"], ["res", "er"], ["(", "keyword"], ["M", "ari"], ["por", "tra"], ["el", "ena."], ["portra", "it"], ["re", "at"], ["(", "from"], ["device", "."], ["gg", "le"], ["'", "The"], ["drone", "'s"], ["cy", "cl"], ["search_", "emails"], ["estimate", "d"], ["Follow", "-up"], ["u", "ff"], ["To", "ggle"], ["activ", "ate"], ["(", "password"], ["get_weather_", "forecast"], ["(", "artist=str"], ["int", "en"], ["-1", "6"], ["od", "cast"], ["trans", "it"], ["read", "_"], ["printer", "_status"], ["pre", "fer"], ["S", "witch"], ["co", "py"], ["_p", "odcast"], ["7", "20"], ["S", "can"], ["br", "ary"], ["origin", "=str!)"], ["|de", "licate"], ["|1.5", "|2"], ["y", "n"], ["H", "V"], ["9", "0"], ["H", "is"], ["-0", "8"], ["re", "place"], ["W", "ater"], ["te", "am"], ["if", "y"], ["mor", "e"], ["tomorrow", "?"], ["sm", "art"], ["start_", "screen_cast"], ["list", "_events"], ["HV", "AC"], ["p", "s"], ["M", "i"], ["query", "=str!"], ["light", "s."], ["T1", "7"], ["T1", "1"], ["stop_", "cleaning"], ["(", "tank"], ["man", "ent"], ["(pet", "_name=str!"], ["cancel_", "print_job"], ["Wh", "at"], ["set_", "climate"], ["inten", "ance"], ["720", "p"], ["en", "ing"], ["it", "al"], ["f", "ly"], ["get_", "sleep"], ["@", "pri"], ["_in", "box"], ["(hours", "=int!"], ["O", "slo"], ["cal", "culate"], ["(genre", "=enum("], ["espress", "o"], ["tiv", "ity"], ["-", "5678"], ["an", "o"], ["(", "id"], ["medi", "um"], ["camera", "."], ["pod", "ca"], ["L", "unch"], ["(door", "_id=str)"], ["list_", "expenses"], ["set_light_", "brightness"], ["s=arr", "!)"], ["remove", "_item"], ["latitude", "=num!"], ["clean", "_machine"], ["thre", "sh"], ["det", "ailed"], ["c", "in"], ["is", "e"], ["get_", "status"], ["(", "cycle"], ["(date", "=str)"], ["(", "content"], ["Thanks", "!"], ["econom", "y|"], ["parti", "al"], ["z", "@"], ["et", "her"], ["p", "art"], ["a", "way"], ["point", "s"], ["(amount_ml", "=int"], ["Fet", "ches"], ["s", "ince"], ["ing|walk", "ing|"], ["thresh", "old"], ["d", "_"], ["p", "H"], ["|", "t"], ["li", "t"], ["lo", "od"], ["T1", "9"], ["secon", "d"], ["machine", "."], ["ual", "ly"], ["(", "ticker=str!)"], ["radius", "_km"], ["@pri", "ya"], ["read", "_inbox"], ["234", "-5678"], ["D", "et"], ["to", "o"], ["r", "al"], ["ent", "ation"], ["z", "e_"], ["door", "s"], ["-", "minute"], ["plant", "."], ["zone", "=int!)"], ["account", "s"], ["delete_", "event"], ["over", "ride"], ["pay", "ee"], ["|", "monthly"], ["(altitude", "_m"], ["z", "oom"], ["pro", "gress"], ["(di", "rec"], ["set_water", "_temperature"], ["=enum(", "en|"], ["egg", "s"], ["ro", "ad"], ["as", "on"], ["plant", "_name"], ["sm", "all"], ["ar", "ily"], ["n", "it"], ["T1", "6"], ["W", "ould"], ["end_", "date=str"], ["_water", "ing"], ["ate", "gy"], ["set_", "sleep_"], ["(end_", "date=str!"], ["list_", "todos"], ["g", "ate"], ["s", "ing"], ["ly", "."], ["M", "arch"], ["T1", "0"], ["_level", "s"], ["gen", "er"], ["cap", "p"], ["search_", "memos"], ["energy", "_"], ["skip_", "track"], ["rename", "_file"], ["ro", "of"], ["all", "ery"], ["be", "ans"], ["delete_", "email"], ["u", "ary"], ["_", "days"], ["S", "ofi"], ["find_", "charging_"], ["de", "scription"], ["stre", "ak"], ["Mari", "a"], ["uc", "cin"], ["por", "arily"], ["capp", "uccin"], ["z", "er"], ["check_", "ink"], ["job", "."], ["mit", "h"], ["period", "."], ["fr", "|de"], ["43", "2"], ["move", "_file"], ["movi", "es"], ["re", "ply"], ["break", "ing_"], ["for", "get_wifi"], ["ca", "bin"], ["start_wash", "_cycle"], ["wh", "ether"], ["i", "ma"], ["(", "new"], ["T1", "4"], ["com", "ment"], ["category", "=enum("], ["plan", "ning"], ["int", "ake"], ["set_", "resolution"], ["(location", "=str"], ["search_", "contacts"], ["brew", "ing"], ["favorite", "s"], ["u", "tili"], ["cot", "t"], ["anya.", "sharma"], ["fil", "ename"], ["ma", "intenance"], ["cent", "ral"], ["sun", "roof"], ["-", "fi"], ["_id", "=str"], ["T1", "8"], ["(level", "=int!"], ["ri", "gg"], ["network", "."], ["cancel_", "print"], ["ex", "change"], ["(speed=enum(", "0.5"], ["(action", "=enum(on|off)!"], ["et", "ic"], ["tr", "ay"], ["Check", "s"], ["b", "pm"], ["start_date", "=str!)"], ["_location", "=str!"], ["charging_", "session"], ["quantity", "=int)"], ["turn_on", "_light"], ["up", "coming"], ["(", "connector"], ["come", "dy"], ["get_stock_", "quote"], ["_c", "lip"], ["yn", "c"], ["res", "entation"], ["k", "i"], ["f", "y"], ["Q", "4"], ["li", "ve"], ["i", "ss"], ["w", "ould"], ["b", "read"], ["(", "position"], ["tank", "."], ["rating", "=int!"], ["confirm", "ing"], ["pre", "ference"], ["rece", "i"], ["save_", "translation"], ["pro", "posal"], ["+9", "1"], ["prefer", "red"], ["flashlight", "_"], ["ord", "in"], ["lo", "cate"], ["set_", "watering"], ["toggle_", "light"], ["check_", "balance"], ["j", "ane"], ["track", "_order"], ["set_light_", "color"], ["fer", "tili"], ["J", "avi"], ["456", "7"], ["red|green|blue", "|"], ["0-1", "234-5678"], ["co", "ordin"], ["turn_on", "_"], ["Se", "ssion"], ["category", "."], ["s", "ort"], ["get_", "traffic"], ["switch", "_"], ["bu", "y"], ["spin_speed", "=int"], ["category=enum(", "food|transport|"], ["utili", "ti"], ["B", "lock"], ["S", "tr"], ["on", "ly"], ["(", "filter"], ["ph", "rase"], ["nov", "ate"], ["check_ink", "_levels"], ["E", "T"], ["location", "s"], ["met", "ad"], ["Se", "e"], ["ap", "ter"], ["break", "ing"], ["syn", "th"], ["(session", "_id=str!)"], ["(category=enum(", "world|"], ["720p", "|"], ["|", "A"], ["x", "l"], ["minutes", "?"], ["vi", "a"], ["set_", "speed"], ["gr", "ind"], ["_", "method"], ["pet", "rova"], ["priority", "=enum(low|medium|high)"], ["PL", "A"], ["cott", "on|"], ["S", "ync"], ["u", "v"], ["f", "et"], ["ol", "o"], ["ur", "bo"], ["co", "st"], ["(email", "_id=str!)"], ["12", ".5"], ["ul", "ti"], ["strength", "=enum("], ["entr", "y"], ["on", "don"], ["cali", "b"], ["subscri", "be_"], ["|week", "|month"], ["s", "nap"], ["|delicate", "|"], ["sing", "le"], ["es|", "fr|de"], ["metad", "ata"], ["C", "a"], ["U", "R"], ["|", "o"], ["R", "o"], ["mail", "."], ["li", "fe"], ["with", "out"], ["blind", "_status"], ["create_", "folder"], ["corp", "."], ["12", ".50"], ["driv", "ing|walking|"], ["Sofi", "a"], ["synth", "etic"], ["cotton|", "synthetic"], ["un", "d"], ["cle", "ar"], ["be", "at"], ["pet", "_name=str!)"], ["(enabled", "=bool"], ["pause_", "print"], ["delete_", "sms"], ["recipient", "=str!)"], ["(end_", "time=str!"], ["_in", "dex"], ["ag", "os"], ["Fr", "ance"], ["calculate", "_"], ["n", "g"], ["0", "."], ["w", "on"], ["le", "ar"], ["we", "b"], ["-", "by"], ["tr", "y"], ["audiobook", "."], ["(", "audiobook"], ["|1", ".0"], ["immediately", "."], ["ur", "gent"], ["met", "ric"], ["ma", "y"], ["P", "lan"], ["lock_door", "s"], ["(", "enable"], ["olution", "s."], ["track", "_"], ["stor", "age"], ["lat", "form"], ["re", "ference"], ["$", "1200"], ["get_", "supported_languages"], ["m", "ulti"], ["mode=enum(", "driving|walking|"], ["L", "agos"], ["-by", "-"], ["A", "de"], ["mer", "ic"], ["room", "."], ["T1", "3"], ["file", "."], ["charg", "e_"], ["un", "its"], ["duration_minutes", "=int"], ["nearby", "_"], ["(", "symbol=str!)"], ["(", "address=str!"], ["list_", "all_"], ["@in", "novate"], ["on", "i"], ["-", "time"], ["R", "es"], ["minutes", "=int)"], ["percentage", "."], ["_", "code"], ["(end_", "date=str"], ["target_lang", "=str!"], ["file_path", "=str!)"], ["transaction", "_history"], ["g", "allery"], ["get_", "breaking_"], ["s", "olutions."], ["W", "e"], ["P", "S"], ["li", "ce"], ["account", "."], ["get_current", "_temperature"], ["ex", "pense_"], ["|sport", "s|"], ["fiction", "|"], ["Te", "m"], ["Tem", "porarily"], ["S", "O"], ["P", "er"], ["en", "si"], ["ag", "ue"], ["fi", "ll"], ["enable", "_"], ["(email", "_id=int!)"], ["start_", "meditation"], [".", "25"], ["=enum(", "inbox"], ["1200", ".0"], ["toggle", "_wifi"], ["er", "ror"], ["|1.5|2", ".0"], ["find_charging_", "stations"], ["may", "be"], ["$1200", ".00"], ["l", "u"], ["de", "s"], ["location", "=str!"], ["no", "o"], ["text", "=str!"], ["(door", "_name=str!)"], ["label", "=str)"], ["zon", "es"], ["ja", "vi"], ["(account", "=str!"], ["sp", "ending"], ["pair", "_bluetooth"], ["dis", "pense_"], ["Sub", "scri"], ["playli", "st_name=str!)"], ["(new", "_name=str!"], ["=enum(en|", "es|fr|de"], ["turn", "-by-"], ["turn-by-", "turn"], ["L", "i"], ["P", "i"], ["_id", "=int"], ["ok", "e"], ["text", "."], ["play_", "memo"], ["40", "p"], ["today", "?"], ["(device", "_name=str!)"], ["_title", "=str!"], ["987", "65"], ["i", "'"], ["A", "t"], ["st", "ar"], ["le", "s"], ["ge", "st"], ["keyword", "."], ["premi", "um"], ["set_wifi", "_"], ["get_", "heart_rate"], ["out", "put"], ["lit", "ers"], ["start_", "charging_session"], ["Javi", "er"], ["utiliti", "es|"], ["Str", "ategy"], ["le", "ague"], ["javi", "er."], ["U", "V"], ["spec", "i"], ["ai", "ro"], ["wh", "o"], ["get_", "ride"], ["2024-0", "3"], ["portion", "_size"], ["sa", "me"], ["555-019", "9"], ["groc", "eries"], ["report", ".pdf"], ["heat", "er"], ["T1", "2"], ["le", "ave"], ["-", "30"], ["get_", "plant"], ["2025-0", "4"], ["|1", "4"], ["seconds", "=int"], ["'", "Meeting"], ["stream", "ing_"], ["i", "ous"], ["(zone", "=int!)"], ["norm", "al|"], ["rigg", "er"], ["p", "ep"], ["pep", "per"], ["pepper", "oni"], ["_", "list"], ["_", "start"], ["(", "file"], ["f", "low"], ["w", "are"], ["2024-0", "7"], ["ofi", "a."], ["how", "'s"], ["get_", "sleep_"], ["get_", "company"], ["close_", "door"], ["sign", "al"], ["check_water", "_level"], ["=enum(1|2|3|4|5", ")!)"], ["For", "get"], ["nozz", "le"], ["(keyword", "=str!)"], ["set_sleep_", "goal"], ["N", "airo"], ["s", "ofia."], ["Nairo", "bi"], ["for", "get"], ["time", "_"], ["T1", "5"], ["(", "time=str!)"], ["(de", "livery"], ["dis", "cu"], ["(", "code"], ["get_stock", "_price"], ["guide", "d"], ["|", "sci"], ["copy", "_file"], ["=enum(", "cotton|synthetic"], ["|1.5|2.0", ")!)"], ["w", "i"], ["|", "h"], ["P", "r"], ["u", "g"], ["C", "H"], ["M", "O"], ["f", "ar"], ["re", "late"], ["delete_", "reminder"], ["f", "ine"], ["p", "ress"], ["dr", "um"], ["driver", "|"], ["2024", "-12"], ["-2", "6T1"], ["(", "region"], ["wind", "ow"], ["s", "wim"], ["li", "brary"], ["ima", "ge"], ["ate", "d"], ["pre", "p"], ["start_", "video"], ["2025-0", "8"], ["list_", "contacts"], ["=arr", "!"], ["rating", "=int!)"], ["incl", "ude"], ["2025", "-12"], ["zone_", "id=int!)"], ["(password", "=str"], ["snap", "shot"], ["a", "meric"], ["G", "PS"], ["ate", "l"], ["do", "g"], ["check_", "weather"], ["delay", "ed"], ["CC", "S|"], ["set_blind_", "position"], ["save", "_clip"], ["set_watering", "_schedule"], ["P", "ET"], ["get_", "blind_status"], ["$", "12.50"], ["p", "latform"], ["1080p", "|14"], ["CH", "Ade"], ["relate", "d"], ["PET", "G"], ["1080p|14", "40p"], ["CCS|", "CHAde"], ["CCS|CHAde", "MO"], ["ro", "u"], ["g", "e_"], ["get_", "total"], ["(brightness=int", "!"], ["run", "|"], ["15", "th"], ["_", "network"], ["2025-0", "2"], ["tag", "s"], ["feed", "ing_"], ["quick", ")!"], ["temperature_", "c"], ["ful", "ly"], ["|", "cycl"], ["get_sleep", "_summary"], ["(color=enum(", "red|green|blue|"], ["sort", "_by"], ["L", "ondon"], ["(folder", "=enum(inbox"], ["(delivery", "_"], ["=enum(", "driver|"], ["s", "om"], ["List", "s"], ["search_", "news"], ["ste", "ad"], ["get_", "daily_"], ["Det", "ect"], ["(enable", "=bool!)"], ["_type=enum(", "CCS|CHAdeMO"], ["=enum(driver|", "passenger"], ["L", "e"], ["ent", "|"], ["|", "lo"], ["-2", "9"], ["podcast", "s"], ["anak", "a."], ["task", "=str!)"], ["search_", "audiobooks"], ["brief", "ing"], ["t", "reat"], ["9", "0-1234-5678"], ["ch", "apter"], ["B", "re"], ["check_", "filter"], ["f", "ast"], ["set_", "cook"], ["todo", "_id=int!)"], ["list_", "items"], ["zone_", "status"], ["=enum(front", "|back|"], ["(job", "_id=int!)"], ["Confirm", "ation"], ["re", "sult"], ["Pet", "rova"], ["room", "|bedroom|kitchen|"], ["pair_bluetooth", "_device"], ["h", "n"], ["cal", "m"], ["min", "d"], ["to", "_w"], ["tion", "=enum("], ["on", "=bool!)"], ["c", "ust"], ["clean", "_"], ["what", "s"], ["|", "night"], ["(", "frequency"], ["ene", "ss"], ["(memo", "_id=int!)"], ["p", "ending"], ["Con", "figure"], ["frequency=enum(", "daily|weekly"], ["(action=enum(open|close", ")!"], ["fet", "ch"], ["uv", "_index"], ["s", "ensi"], ["|1", ".25"], ["cust", "om"], ["E", "x"], ["m", "l"], ["qu", "i"], ["ch", "il"], ["note", "."], ["need", "s"], ["hi", "te"], ["(", "song"], ["2", ".5"], ["Pro", "vide"], ["b", "ill"], ["(hours", "=num!)"], ["c", "ir"], ["(account", "=str!)"], ["-2", "4T1"], ["noti", "fi"], ["se", "lec"], ["fertili", "zer"], ["find_", "nearby_"], ["A", "lice"], ["_type=enum(CCS|CHAdeMO", "|T"], ["get_", "uv_index"], ["k", "u"], ["p", "an"], ["act", "or"], ["=enum(", "U"], ["ch", "an"], ["status", "."], ["play", "list."], ["trans", "c"], ["charg", "e"], ["2025-0", "9"], ["2024-0", "9"], ["schedule_", "feeding"], ["|de", "ep"], ["get_stock", "_history"], ["capt", "ure"], ["me", "mber"], ["|medium|", "large"], ["person", "alized"], ["rid", "ge"], ["ent", "ire"], ["premium|", "xl"], ["Subscri", "be"], ["small", "|medium|large"], ["o", "b"], ["E", "st"], ["to", "-"], ["ur", "ing"], ["flashlight", "?"], ["title", "."], ["c", "art"], ["5", "00"], ["rec", "or"], ["heat", "ing"], ["get_", "episode"], ["ara", "."], ["am", "bi"], ["seconds", "=int)"], ["48", ".0"], ["2025", "-11"], ["(", "area"], ["search_", "shows"], ["$", "48"], ["get_", "transaction_history"], ["streaming_", "availability"], ["jo", "hn"], ["=enum(", "small|medium|large"], ["Est", "imate"], ["recor", "ded"], ["$48", ".00"], ["work", "|"], ["station", "_id=str!"], ["ride", "_type=enum("], ["mo", "tor"], ["today", "."], ["stop_", "screen_cast"], ["(event", "_id=int!"], ["add_to_", "queue"], ["mu", "ch"], ["(", "format=enum("], ["per", "manent"], ["swim", "m"], ["b", "ec"], ["get_", "file"], ["pur", "ch"], ["other", ")!"], ["dra", "ma"], ["(", "restaurant=str!)"], ["|s", "wim"], ["432", "10"], ["j", "oke"], ["forget_wifi", "_network"], ["sort_by", "=enum("], ["3", "D"], ["F", "e"], ["P", "re"], ["C", "al"], ["P", "air"], ["episode", "s"], ["is", "ine"], ["restaurant", "s"], ["add_", "todo"], ["_s", "can"], ["(", "sound"], ["(event", "_id=int!)"], ["norm", "al"], ["|", "rear"], ["(source_lang", "=str"], ["p", "resentation"], ["s", ")"], ["A", "Q"], ["st", "er"], ["an", "i"], ["number", "."], ["_", "note"], ["w", "all"], ["sc", "or"], ["s", "arah"], ["_s", "ensor"], ["(de", "scription"], ["start_w", "orkout"], ["-0", "7T1"], ["kind", "ly"], ["kind", "ness"], ["(temp", "_c"], ["w", "rite"], ["replace", "ment"], ["gro", "und"], ["add_", "to_w"], ["notifi", "cation"], ["6", "8"], ["p", "in"], ["ne", "l"], ["(", "minutes"], ["un", "locked"], ["lo", "op"], ["st", "am"], ["please", "?"], ["book", "."], ["fe", "e"], ["pr", "ofi"], ["-1", "6T1"], ["@", "global"], ["c", "ident"], ["petrova", "@"], ["|lo", "v"], ["pla", "in"], ["y", "pe"], ["ant", "um"], ["search_", "contact"], ["2024-0", "5"], ["2024-0", "8"], [".jp", "."], ["quest", "ion"], ["Con", "vert"], ["get_market", "_news"], ["cap", "ital"], ["energy_", "usage"], ["S", "mith"], ["beat", "s"], ["s", "he"], ["er", "day"], ["h", "ap"], ["light", "_status"], ["am", "mon"], ["mil", "li"], ["i", "que"], ["down", "load"], ["comedy", "|"], ["olo", "gy"], ["expense_", "id=int!)"], ["Bre", "w"], ["ambi", "ent"], ["wall", "paper"], ["time", "stam"], ["profi", "le"], ["est", "erday"], ["Q", "2"], ["|", "G"], ["sh", "i"], ["su", "ch"], ["(email", "=str!"], ["R", "ue"], ["Q", "ue"], ["po", "li"], ["_", "recording"], ["book", "mark"], ["2024-0", "6"], ["(color", "=bool"], ["-2", "8T1"], ["sender", "=str)"], ["(", "temperature_celsius"], ["max_", "distance"], ["re", "member"], ["get_", "streaming_availability"], ["chan", "nel"], ["ammon", "ia"], ["|", "E"], ["me", "."], ["of", "_"], ["no", "on"], ["back", "ward"], ["op", "y"], ["ex", "po"], ["m", "ight"], ["555", "-"], ["2025-0", "7"], ["start_", "time=str"], ["(", "from_"], ["'", "Hi"], ["p", "aris"], ["Celsius", "."], ["activate", "_"], ["cappuccin", "o"], ["discu", "ss"], ["set_cook", "_time"], ["O", "r"], ["ur", "b"], ["date", "=str)"], ["c", "tion"], ["ard", "en"], ["N", "ew"], ["Change", "s"], ["pickup", "=str!)"], ["_", "details"], ["get_", "menu"], ["get_breaking_", "news"], ["get_", "zone_status"], ["qu", "antum"], ["y", "esterday"], ["_", "email"], ["ev", "ery"], ["location", "=str"], ["es", "la"], ["cool", "ing"], ["from", "=str"], ["na", "vi"], ["|auto", ")!)"], ["book", "ing"], ["(de", "lay"], ["start_", "cooking"], ["fre", "e"], ["purifier", "."], ["-0", "6T1"], ["quantity", "=int"], ["c", "ru"], ["What", "'s"], ["strength=enum(", "mil"], ["@innovate", "ch"], ["items", "=arr!"], ["type=enum(", "run|"], ["|1.0", "|1.25"], ["(", "expense_id=int!)"], ["timestam", "p"], ["s", "and"], ["speed", "."], ["dri", "ve"], ["(location", "=str)"], ["M", "ain"], ["cont", "ain"], ["_c", "urrency"],
[...]
